#version
Ġ t
Ġ a
h e
i n
r e
Ġt he
o n
e r
Ġ o
a t
Ġ s
e n
Ġ c
Ġ w
e s
i s
n d
i t
o r
Ġ p
a l
Ġ b
e d
a n
Ġo f
Ġ f
in g
Ġ in
o u
a r
Ġ m
Ġa nd
Ġt o
i c
Ġ d
i on
l e
r o
a s
Ġ h
en t
Ġt h
c t
Ġ e
i l
Ġ re
o m
v e
Ġ l
s t
Ġ n
l y
Ġb e
â Ģ
Ġ is
Ġ T
s e
o l
Ġ g
at ion
i m
i d
e t
u t
c e
o t
u r
c h
r a
o w
Ġ A
Ġf or
i g
Ġ u
Ġth at
Ġ on
Ġ S
Ġs t
v er
Ġ y
Ġ C
Ġ I
i r
u l
a y
a m
Ġa s
it h
e l
a d
Ġp ro
he r
Ġa re
Ġc on
Ġa n
Ġw ith
i f
Ġy ou
Ġw h
Ġ it
Ġo r
Ġa l
t er
o d
Ġ M
ĠT he
Ġ (
m ent
g e
Ġ P
t h
Ġ 1
o p
at e
is t
er s
Ġd e
il l
i es
Ġ he
es s
a b
Ġ B
Ġe x
u s
Ġw e
o re
e ct
Ġs u
Ġc om
âĢ Ļ
it y
es t
a c
re s
i ve
Ġh a
u m
l d
Ġ H
ro m
Ġ v
o s
k e
Ġb y
e m
an t
q u
i v
a in
Ġ W
n t
Ġa t
p p
ig h
Ġw as
Ġc an
Ġ D
u d
Ġf rom
Ġc h
Ġ E
o c
a nd
Ġ r
Ġ R
or t
Ġn e
Ġ F
Ġs e
i al
Ġ 2
u re
Ġ âĢ
Ġn ot
u n
Ġ le
ar t
ic al
Ġ G
Ġ N
Ġha ve
r i
o g
Ġ L
Ġs h
Ġ en
Ġs p
Ġth is
igh t
Ġa b
p t
r ou
ic h
Ġw or
re d
al l
t her
0 0
ou ld
ion s
g h
o st
T he
om e
ou r
d u
Ġ im
at ed
Ġu s
in e
p er
Ġp l
ou t
ar d
a g
Ġthe ir
id e
el l
a ct
f f
Ġin t
Ġ O
an s
p l
as t
e ar
a ge
a k
u st
Ġwh ich
Ġ k
Ġyou r
Ġw he
Ġthe y
e c
Ġ J
ou s
i z
Ġ U
o od
Ġal l
Ġa d
i b
Ġw ill
ul t
Ġcon t
ĠI n
Ġin c
en d
c c
r u
Ġd is
Ġm ore
âĢ Ŀ
on g
a p
Ġcom p
i p
Ġre s
i a
e w
ve l
ation s
Ġh as
e re
s o
Ġd o
or m
at er
ar y
ĠT h
il d
en ce
a re
ab le
Ġo ther
Ġm an
u al
Ġc l
k s
Ġb ut
Ġwe re
r y
in d
Ġt e
ent s
Ġp er
ĠâĢ ľ
e p
Ġm e
Ġon e
a ch
Ġim p
Ġal so
an ce
' s
re at
o se
ig n
a ke
as s
res s
as e
a u
Ġs o
a v
Ġ1 9
ct ion
Ġ j
it ion
Ġo ut
ic e
Ġa pp
Ġu n
on e
ver y
im e
Ġa r
b er
Ġp art
Ġab out
Ġst ud
a ce
Ġe v
or d
or y
en s
o k
Ġwh o
ĠS t
is h
ou nt
ac k
am e
i re
Ġp e
) .
Ġin f
Ġh is
Ġs y
Ġthe m
u e
Ġcom m
u b
or s
it e
Ġs c
c es
an g
i ke
Ġ K
re e
n ow
ou nd
ol og
l ow
Ġbe c
Ġu p
ĠI t
Ġp re
Ġ "
Ġth an
Ġm ay
i e
r ic
Ġ qu
i le
if f
Ġs ome
op le
ĠC h
ay s
Ġy ear
Ġre c
i an
Ġthe re
a il
at es
Ġwhe n
Ġbe en
nd er
ing s
ou gh
Ġit s
m er
Ġg o
Ġint o
Ġa g
re n
Ġt ime
Ġt ra
p h
t e
ver s
Ġwor k
ĠTh is
Ġthe se
r it
on s
er v
Ġo ver
Ġ2 0
Ġpe ople
Ġd iff
rou gh
al ly
Ġh ow
Ġ V
l ud
au se
Ġcon s
Ġu se
Ġ ro
on d
ter n
Ġo ur
Ġt r
Ġ ra
m s
l l
o ve
Ġh ad
Ġc ol
if ic
Ġa ct
Ġ 3
Ġbe t
w e
Ġm ost
in t
Ġk now
Ġu nder
Ġl ike
it ies
y s
l ic
ir st
ment s
al th
le ct
j ect
Ġs a
Ġd es
n ing
Ġw ould
Ġb l
i ous
o ok
l es
Ġa cc
ro w
Ġ Y
vel op
st em
Ġt w
Ġne ed
Ġsu ch
Ġne w
Ġre l
ff ect
Ġ if
Ġre p
Ġch ild
Ġan y
i ent
Ġg en
ation al
Ġinc lud
o b
Ġhe l
c ess
at ive
Ġwh at
p le
ul ar
he d
y p
Ġhel p
Ġus ed
c ed
Ġon ly
o ol
at ing
Ġp h
Ġp r
Ġpro du
Ġn o
Ġpro v
Ġin d
o v
Ġman y
Ġa m
Ġde velop
) ,
Ġth rough
Ġof f
Ġf irst
Ġsp ec
ĠU n
Ġf e
f ter
os s
ic s
rou nd
ar k
Ġre g
is e
at h
u c
Ġp o
Ġd i
Ġa c
et h
Ġex p
he n
Ġe m
ri b
f ul
er m
ur ing
Ġtw o
t s
Ġsy stem
ot h
in k
Ġdiff ere
is s
n e
ol d
Ġo b
il ity
Ġas s
al s
ib le
Ġde c
ro p
Ġat t
as ed
Ġad d
t en
Ġs ur
ĠâĢ ĵ
an ge
if e
Ġ -
Ġsh ould
ĠH e
er t
u res
ow er
f ore
a w
I n
ar ch
b le
Ġw ell
ra m
Ġf l
Ġw ater
we en
n g
ra ct
Ġsu pp
Ġre m
Ġyear s
Ġin v
Ġsu b
Ġ20 1
ow n
se l
Ġc o
ad e
g an
i ed
Ġ2 00
Ġs m
Ġbet ween
ut ion
Ġhe alth
he s
Ġ 4
Ġc ould
Ġh igh
it s
Ġp res
c y
Ġwhe re
e ver
ic k
Ġtr ans
il y
Ġm ake
u ch
w n
x t
Ġg et
Ġ 5
ch ool
ant s
ch n
olog y
s s
Ġb u
Ġp ers
f orm
Ġimp ort
Ġ her
i ence
Ġre se
ur al
id ent
Ġin ter
Ġe ar
it ed
t ing
Ġfor m
mer ic
Ġm od
Ġin st
Ġp ol
Ġdis c
Ġn um
i et
l and
Ġex am
in es
in s
on t
Ġf ound
Ġle ar
ic t
e f
Ġdiffere nt
Ġbec ause
ist s
g y
h at
ual ly
Ġa fter
Ġs im
Ġthe n
Ġl ar
n ess
at a
Ġc ar
Ġex per
Ġl ong
Ġev en
Ġe ffect
Ġwor ld
Ġ very
Ġj ust
f t
Ġm ed
Ġh um
Ġc ent
Ġw ay
ce pt
Ġinf orm
Ġinc re
ur n
at ure
Ġd et
o y
is m
Ġt yp
ot her
Ġ ed
g et
ak ing
Ġse e
Ġ1 8
Ġc ount
Ġres p
ical ly
ĠA meric
i vers
Ġre f
iv es
v ent
Ġ ke
Ġth ose
ol low
Ġs ign
Ġgen er
Ġv ar
i ew
Ġpro g
c er
Ġchild ren
Ġe very
Ġp at
Ġex t
Ġc all
Ġp ub
Ġsa id
Ġpro cess
om m
Ġres ult
Ġbe ing
ar m
c k
Ġe ach
l ed
Ġf act
d s
p s
Ġs oc
u es
Ġl oc
as es
Ġse c
. âĢĿ
ir on
Ġpart ic
t le
Ġc a
Ġte chn
Ġs et
Ġg ra
ru ct
od y
or k
Ġimport ant
Ġl ife
T h
ag es
Ġre qu
Ġd ist
ĠA l
Ġm y
Ġm uch
ĠW e
Ġcomm un
Ġs he
Ġc re
. .
Ġf am
Ġm on
ver n
ĠP ro
at her
Ġde p
Ġar t
Ġstud ents
Ġde f
Ġinform ation
c ent
v ed
Ġf ollow
Ġ ent
Ġf ood
iz ed
im es
Ġd uring
Ġo wn
w ard
Ġre ad
Ġr ight
ĠThe y
ic es
Ġle vel
ĠA s
Ġs ame
Ġm ade
Ġle ad
g g
Ġs k
Ġdo es
ĠR e
ect ion
Ġa ut
an y
Ġstud y
iz e
h ip
Ġpers on
Ġf ind
Ġpro ble
Ġg row
t he
Ġc ur
i o
Ġ 6
Ġa v
ĠI f
Ġd ata
Ġs chool
Ġm in
Ġb ack
Ġen d
Ġg ood
t ed
Ġst r
Ġc he
Ġin s
Ġb oth
al e
ĠA n
u nd
ĠF or
on om
v iron
Ġp op
Ġus ing
Ġg rou
Ġbe fore
om en
Ġcomp le
al ity
Ġsh ow
Ġsm all
Ġex pl
Ġh ist
st and
Ġg l
ĠA r
ial ly
Ġc or
. ,
iv id
re ad
ar s
Ġt est
Ġag ain
t y
1 9
Ġt reat
in ce
Ġof ten
Ġm ain
Ġpro t
i el
in al
in ed
ĠH ow
oc k
Ġb o
ro l
er gy
n ce
Ġl ess
2 0
Ġs ol
d er
Ġb r
Ġp oss
Ġwh ile
Ġv al
im ate
ut e
i x
00 0
Ġd ay
| |
is hed
e x
Ġt ake
Ġdis e
Ġst ate
Ġl it
ak es
Ġc ell
Ġn ow
ĠS p
Ġh im
a x
ĠI nd
ĠN ew
i en
Ġo cc
Ġnum ber
o h
Ġm em
Ġhum an
Ġr is
viron ment
r al
Ġs erv
ire ct
Ġp ower
ul ation
Ġe c
i er
Ġv is
id es
Ġb ody
Ġor gan
Ġrese arch
d ition
i qu
Ġf un
ur y
Ġact iv
Ġdes ign
Ġch ar
iet y
u p
ivers ity
a ir
e red
iv ing
Ġ1 0
ĠS c
Ġa round
Ġbe l
Ġm ust
Ġha nd
Ġth ree
Ġcl ass
Ġd own
a h
Ġsupp ort
v es
Ġre du
us s
Ġl ook
ter s
Ġcon f
Ġcomm on
v en
her s
g er
Ġst art
Ġ est
a ve
d ay
Ġpo int
it al
Ġc le
Ġg reat
i um
Ġgo vern
re nt
Ġe lect
Ġpl an
Ġd id
ou se
Th is
ain s
a j
Ġs er
Ġ 7
v ing
âĢ Ķ
ĠB ut
Ġlar ge
sel f
Ġl and
Ġexam ple
ro ss
act er
ra in
g en
c l
Ġcont in
r on
Ġc are
Ġrep ort
Ġ 8
Ġall ow
ĠY ou
e e
Ġinclud ing
Ġo p
it ions
c om
, âĢĿ
Ġth ough
Ġcon st
ion al
ul l
a red
or n
Ġc our
Ġunder stand
ĠThe re
e g
w ay
as h
an c
Ġm et
Ġbu ild
Ġed uc
Ġe qu
Ġs om
Ġre t
Ġcall ed
Ġw rit
Ġad v
Ġp ract
Ġd r
n er
iv en
Ġbe h
Ġst ill
ou th
ater ial
ĠA nd
el s
Ġknow n
ivid ual
Ġpub lic
Ġqu est
i ver
Ġth ink
Ġe as
re en
Ġ ide
ere st
Ġg u
i red
in c
Ġpl ace
ĠâĢ ĺ
id s
Ġf ew
os ed
1 0
oc i
Ġapp ro
âĢ ľ
. "
i od
om s
ent ial
id er
Ġm at
ect ed
ĠI s
Ġm ight
in ation
r ies
d e
our ces
Ġen ergy
iz ation
it ive
Ġ 9
âĢ ĵ
Ġpres ent
Ġen vironment
ĠW h
Ġst and
r ation
Ġch ang
ĠThe se
Ġw ant
b ers
en se
ou n
et s
Ġde m
l ish
an k
Ġca us
i or
eth od
ra ph
en g
as on
Ġwith out
Ġprodu ct
Ġwith in
Ġt em
Ġind ividual
Ġpl ay
Ġch ange
Ġp ur
m e
Ġis s
iv ed
ord ing
ert ain
Ġdevelop ment
t t
pt ion
Ġph ys
ff ic
ĠE ng
Ġd on
Ġ19 9
Ġsy m
Ġlear n
ĠUn iversity
Ġim m
ang u
Ġm aterial
Ġ ident
are nt
es p
Ġpro ject
er al
Ġw omen
l ine
Ġimp ro
al k
Ġd irect
ĠD e
i ans
Ġdise ase
Ġb en
l ess
Ġc ap
Ġs it
m an
Ġl ight
ĠAmeric an
Ġ &
Ġp ot
Ġa ir
Ġpro f
Ġp ass
Ġan other
Ġare a
Ġp os
Ġ ve
or th
Ġb re
ag n
ill ion
Ġl aw
ab ility
Ġm us
ĠC on
Ġs l
s c
Ġh ome
Ġsoc ial
in ess
olog ical
Ġbel ie
ent al
Ġinclud e
Ġint erest
t on
Ġen g
Ġb est
p r
if ied
Ġme as
Ġb as
aj or
b s
Ġp ain
Ġdes c
ro du
at s
Ġc ult
Ġbl ood
iel d
Ġcont rol
er c
u g
I t
if y
Ġris k
Ġan t
at ic
ain ed
at ural
' t
Ġre st
er ing
ent ly
cc ess
Ġe t
Ġbec ome
Ġm ark
Ġm ethod
Ġo pp
Ġan im
Ġan al
a z
w ays
Ġo ld
Ġse ver
Ġprog ram
Ġhe re
ĠA d
Ġl ow
Ġbet ter
Ġm il
ĠP h
Ġgovern ment
is ion
Ġp ar
i k
Ġm ove
g in
h or
our ce
ĠHow ever
Ġear ly
t o
Ġpro per
l ished
r ist
Ġagain st
st r
Ġle g
Ġw ar
in ing
Ġec onom
ill s
he re
er n
ar c
Ġe le
Ġke ep
ĠS h
Ġto o
ra p
Ġor der
e ed
Ġre al
Ġprov ide
Ġf ore
Ġsec ond
e ad
Ġfam ily
Ġl ast
ic le
w are
iss ion
or ies
Ġme ans
Ġc ause
Ġav ail
Ġt re
Ġgrou p
Ġo per
Ġhist ory
ent ion
Ġt er
ard s
Ġpartic ular
Ġposs ible
Ġocc ur
Ġm ajor
u se
i ents
am p
Ġde v
Ġu nt
ĠR es
Ġcur rent
Ġper form
Ġto p
ĠW hen
pl es
l u
ĠUn ited
Ġsever al
Ġs ay
Ġf in
ĠC l
Ġspec ies
Ġlear ning
v iew
Ġin du
is ed
Ġadd ition
Ġinv ol
Ġper iod
ĠâĢ Ķ
p ect
ĠE x
Ġsa f
ot e
og raph
Ġab le
o id
Ġme an
ir c
Ġne ar
Ġor ig
p ar
Ġper cent
Ġl angu
Ġben ef
ĠC ol
Ġm en
Ġh ig
id ence
Ġ1 5
Ġc al
og n
Ġop en
in a
Ġm ar
Ġth ings
Ġe l
Ġha pp
re t
ĠP l
Ġpro m
Ġc r
Ġs ince
Ġl im
Ġfe el
Ġn on
Ġ [
Ġa ffect
ĠC an
W hat
Ġb us
Ġother s
ĠG od
Ġare as
an e
th ough
Ġsc ient
b r
Ġsign ific
ĠT o
at or
Ġam ong
Ġc ost
Ġtreat ment
Ġf re
Ġ Z
s y
Ġpl ant
il ar
u rop
Ġb ased
p ort
Ġavail able
w w
end ed
Ġfollow ing
Ġ .
ĠS e
am es
Ġt imes
o le
Ġn ame
end s
Ġf ac
Ġs ays
os p
Ġhe ad
ĠC omm
Ġcount ry
o f
ĠSt ates
ot s
Ġ Q
Ġf our
Ġc ertain
ab ly
l ing
Ġacc ess
om p
Ġpre vent
, "
ĠA t
oc us
Ġf ree
Ġc ase
Ġr un
el f
c ing
Ġcom e
Ġob ject
ur ther
Ġwe e
Ġcon d
Ġl o
Ġa ge
an ces
Ġv iew
Ġg r
Ġp ost
un e
Ġd el
Ġcon n
id ed
Ġst ruct
o x
Ġproble m
Ġ1 7
b e
Ġl ist
pl oy
Ġb i
Ġtyp e
Ġcell s
ress ion
Ġc reat
Ġloc al
W e
Ġl ab
Ġn atural
Ġmon th
h y
Ġre ce
op e
Ġp ut
Ġin tern
Ġlit tle
Ġsu ccess
res ent
Ġp ress
st it
Ġb ro
on es
Ġproble ms
urop e
o int
ĠE n
Ġb ir
Ġv ol
ĠC ent
Ġh ard
Ġyou ng
Ġlevel s
eth ing
a per
ic ult
ol ution
Ġass oci
gg est
I f
Ġunt il
Ġam ount
Ġf ar
ĠT e
Ġf low
Ġle t
Ġm aking
led ge
Ġ1 2
w ork
Ġl ater
Ġb ook
ĠCh rist
p or
ĠN ational
ate ly
he m
n ot
Ġimp act
_ _
it her
Ġ ess
Ġg iven
Ġm ult
ort un
Ġt urn
g ed
o ks
Ġse em
Ġsignific ant
Ġch o
ut ure
Ġhe art
o ver
ic ation
Ġsh ort
Ġsu ggest
Ġdet erm
Ġf ocus
at ory
Ġbeh av
Ġs w
1 2
Ġcomp ut
ĠB e
ure d
ĠA f
Ġd ue
1 8
ĠO r
ak en
c le
ap s
ĠE urope
Ġfun ction
Ġal ong
Ġv ir
Ġsom ething
age ment
ic ro
Ġc irc
Ġd ays
Ġpol it
Ġcour se
Ġeduc ation
Ġinv est
Ġra d
Ġlike ly
ĠF r
Ġal ways
Ġcom b
or ld
f ace
ri ed
Ġf il
Ġte ac
v ious
Ġsystem s
ĠO n
ĠA ll
Ġcons ider
Ġh y
Ġapp ear
Ġs ing
ĠW hat
Ġcommun ity
Ġd ra
Ġus ually
end ing
Ġincre ase
Ġcle ar
Ġ 0
Ġp ast
Ġtechn ology
Ġwor ds
is c
ec ially
our s
ĠU S
Ġlangu age
Ġ $
Ġob s
Ġg ive
Ġb rain
Ġcre ate
Ġresult s
A s
r ing
as ter
Ġp arent
Ġspec ific
Ġsp ace
Ġto day
Ġcons um
Ġre le
Ġde ath
oh n
ap e
Ġdiff icult
Ġ1 6
Ġen c
Ġexper ience
Ġcan cer
The re
Ġdesc rib
et ic
Ġaut hor
Ġpop ulation
Ġcent ury
Ġl ine
as ing
n ed
Ġsim ilar
ĠM ed
Ġneed s
m in
a pp
Ġex ist
Ġab ove
Ġm illion
Ġwh y
Ġe y
em ber
ive ly
a f
Ġdisc uss
id d
ĠS o
Ġchar acter
ob al
esp ecially
Ġrec ord
Ġtem per
at ors
Ġcond itions
1 1
Ġne xt
Ġspec ial
pt oms
ain ing
rib ut
H ow
Ġ ill
5 0
ore d
ru ction
Ġbe gin
Ġm ov
Ġf uture
Ġapp lic
m it
Ġne cess
m ost
Ġvar ious
Ġg re
Ġ '
i ation
Ġas k
Ġchang es
ĠE ar
l er
Ġs ide
iqu e
Ġle ast
Ġpro p
Ġ er
Ġhow ever
S t
ĠB l
ru g
Ġhig her
Ġto get
Ġtoget her
at ch
il ities
Ġac ross
ĠB rit
ra y
Ġne ver
Ġd am
Ġest ab
Ġresp ons
one y
Ġprof ess
Ġc rit
Ġt ry
sel ves
Ġstr ong
av es
ate g
Ġk ind
b y
Ġrequ ire
s p
Ġle ft
Ġcount ries
y m
om es
od e
Ġwor ks
Ġto ol
Ġm ot
ort s
Ġcomple te
om an
Ġa way
is on
ĠAf ric
Ġimpro ve
Ġen ough
Ġbus iness
Ġw ays
Ġwork ing
Ġ especially
th ing
Ġt ru
Ġrese arc
o ot
f or
Ġche m
Ġke y
il t
n al
Ġt erm
Ġcol le
ys is
Ġpl ants
ac es
Ġeffect s
Ġha ving
Ġgener al
al f
s w
u ment
ach ing
ar ing
le ment
N A
ac y
du ct
Ġte am
Ġc y
Ġsub ject
a im
ĠW ar
Ġf ull
Ġknow ledge
Ġpr im
le t
Ġpat ients
Ġs ens
Ġtyp es
al es
am m
Ġn et
it ing
Ġh ouse
Ġstud ies
Ġst ep
ĠG erm
Ġc ases
i res
Ġrep resent
g es
a e
ac c
Ġgo ing
h ing
i pp
ist ic
Ġn orm
Ġbec ame
Ġrel ations
Ġacc ount
Ġwhe ther
u ed
Ġre ason
Ġ19 8
is ing
Ġm akes
Ġ z
Ġm ind
s ide
Ġinf lu
Ġphys ical
ĠJ ohn
it or
Ġcon cer
ĠS ome
ch ie
Ġl ower
A n
Ġprot ect
en cy
a pt
an n
Ġsym ptoms
Ġg round
ĠW orld
le y
ot t
ific ation
F or
Ġf urther
Ġro le
Ġquest ion
read y
Ġs elf
Ġo pt
Ġc ity
Ġpol ic
Ġb ig
/ /
.. .
Ġpartic ip
a ut
ĠEng lish
Ġf und
ĠG en
ere nce
er y
Ġsu re
ed i
Ġsc ience
Ġsu m
Ġn ut
Ġch all
3 0
re am
ĠO ne
ab les
l o
ur ch
un g
ĠW ith
i ol
ir d
Ġte xt
ĠL e
ĠG o
at ures
Ġactiv ities
Ġst at
Ġd ig
u nt
Ġind ic
Ġgrou ps
2 00
Ġe ff
Ġprodu ction
Ġst ory
Ġ3 0
Ġp red
ib ility
1 5
Ġto ward
Ġen s
Ġl ive
au gh
Ġval ue
it es
Ġse en
ul es
Ġactiv ity
Ġr ange
b on
Ġproduct s
re l
Ġl oss
Ġres ources
et imes
m ber
: //
Ġcl ose
ĠTh at
ĠIn tern
Ġbe low
Ġl ot
Ġal ready
Ġwor d
ver age
Ġw r
u ation
Ġd one
Ġgrow th
sy ch
Ġr ather
Ġre ally
Ġmod el
ĠC ar
Ġpot ential
Ġpro b
Ġem ploy
Ġs ite
Ġqu ality
ou ra
1 6
es c
Ġdevelop ed
Ġoff ic
Ġe ither
os is
Ġ1 4
Ġrec ogn
Ġw ind
and s
Ġne g
Ġart icle
ove red
ĠM ar
ĠHe alth
Ġtra dition
Ġsing le
f act
ra ms
Ġde g
Ġm ass
ip le
ur ity
Ġph ot
ĠA m
Ġbuild ing
p ut
Ġev ent
Ġ ur
W hen
Ġa chie
Ġcol lect
Ġo il
Ġf all
Ġfl u
Ġf ield
Ġon ce
Ġb at
Ġev idence
Ġsk ills
Ġs ource
Ġp aper
Ġacc ording
Ġin it
i am
ide red
Ġiss ues
ĠS he
Ġredu ce
iv al
E R
Ġindu st
ear ch
Ġab s
Ġwho le
ĠG e
ĠD r
Ġfre qu
ĠC al
Ġquest ions
ĠI m
Ġn ational
v al
ĠT r
Ġme et
1 7
Ġf ive
ĠS y
Ġsur face
Ġf r
Ġcl imate
Ġt aken
Ġr ate
Ġcon cept
Ġmem bers
Ġd rug
Ġmed ical
ub lic
Ġsu n
iv il
ĠN orth
Ġup on
am in
Ġn ature
Ġc ut
Ġadd ress
re ct
Ġrel ig
ĠB y
Ġwh ite
ric t
Ġs ent
et er
1 3
pl ic
Ġan n
ffic ient
u le
ĠA b
Ġre d
Ġd om
Ġdet ail
Ġcre ated
Ġobs erv
Ġw ide
Ġresearc hers
Ġret urn
Ġf ri
ight s
Ġcons idered
Ġl iving
as k
Ġrec omm
le ep
ĠAmeric a
ĠS outh
Ġto t
Ġc ame
Ġd est
Ġso il
Ġint rodu
ip s
Ġthem selves
et y
1 4
ib r
ĠA ss
Ġcan not
Ġf ail
ĠP r
Ġdo ct
f er
Ġs ize
re me
Ġh old
ĠSt ud
ro ll
Ġassoci ated
Ġst ress
Ġt ell
Ġanim als
Ġ ver
Ġpro te
âĢ ¦
iv ity
ill ed
Ġs ound
Ġthough t
Ġpolit ical
Ġsim ple
Ġincre ased
ĠM ay
l ike
Ġact ually
Ġpress ure
Ġpract ice
e b
Ġstud ent
s h
ut ions
Ġp ay
Ġmark et
Ġunderstand ing
Ġopp ortun
o on
or g
se qu
Ġwee k
Ġad ult
Ġhist or
Ġl ay
Ġrel ated
Ġright s
en n
Ġrequ ired
Ġcomple x
Ġm icro
Ġab ility
our nal
op h
ep end
Ġfam il
id ing
re g
Ġneed ed
Ġst ates
ac ed
Ġsk in
Ġeffect ive
ĠR ep
Ġf at
Ġar g
y n
ĠEar th
ĠM an
Ġgl obal
ĠA ust
Ġit self
Ġqu ick
Ġent ire
Ġmaterial s
p ro
ĠS oc
Ġ19 7
Ġpub lished
Ġrelations hip
Ġm or
o ber
Ġcon dition
C h
Ġide a
Ġ1 3
g ing
Ġdi et
Ġs al
Ġsp e
Ġal most
Ġd oc
it ud
Ġcom es
Ġeng ine
Ġprov ides
Ġmain t
. )
ag ing
Ġhealth y
en ing
Ġpur p
ol ic
ag ed
a i
ul ations
ĠY ork
er ve
ĠA ct
art ment
Ġexper ien
Ġeconom ic
h ib
en ed
g o
m a
Ġf ish
Ġp ort
um p
Ġpart s
Ġmod ern
Ġ =
T o
Ġbl ack
ne y
S A
Ġman agement
Ġan sw
Ġm oney
Ġ vers
Ġex erc
Ġav oid
Ġfact ors
Ġass ess
ed s
A l
ac ks
us h
ch an
Ġh alf
Ġparent s
Ġh tt
ĠD ep
it ary
Ġto ok
Ġ |
ly ing
y l
os es
is es
Ġwe ight
u el
Ġnecess ary
ve re
ore s
en ces
Ġsu ff
Ġp ath
p ly
Ġg as
Ġl ink
Ġre act
g est
Ġar ch
Ġd og
ra d
) :
Ġserv ices
ut es
Ġappro ach
Ġbe gan
Ġb ar
ap an
row n
Ġprodu ce
Ġpat tern
Ġc op
ĠG u
b o
Ġpr iv
Ġ X
Y ou
Ġc at
Ġmonth s
ĠH ist
Ġsu per
Ġmeas ure
ur s
Ġg reen
W h
ir m
Ġar r
Ġcl aim
ĠH is
ens ive
b ased
um e
Ġso ft
Ġcol l
Ġe ver
g ar
c ient
Ġy et
ĠSt ate
Ġanal ysis
es e
ol l
Ġj ob
Ġcomput er
Ġcon duct
Ġthe rap
ĠJ ew
n ces
Ġreg ion
iz ing
ĠN e
Ġt ar
Ġst op
Ġs ense
Ġ1 00
Ġchem ical
ict ion
Ġh ours
Ġthrough out
Ġa ction
ab it
ĠC ont
h old
Ġe mer
on se
ĠC omp
Ġpr inc
Ġpop ular
Ġincre asing
Ġcol or
Ġreg ard
Ġcal c
ĠC o
in ter
ĠE m
idd le
Ġse par
m y
Ġlit er
Ġread ing
Ġt aking
Ġg e
ĠD o
Ġre pl
Ġ5 0
ect ions
Ġ19 6
us ion
ĠBrit ish
em pt
- -
ĠCan ad
ab or
Ġf arm
Ġmed ic
c hes
cc ording
Ġperson al
uc k
Ġf ire
Ġfe ed
Ġ ut
z e
Ġt alk
p id
er ous
Ġon line
Ġindividual s
Ġbehav ior
Ġcont ent
Ġs am
ri pt
" .
Ġpre vious
Ġrec ent
he t
ic les
Ġb ur
es tern
Ġshow s
ĠA fter
Ġlong er
ig ure
Ġbu ilt
as c
Ġse x
Ġs ix
Ġinter act
Ġwrit ing
Ġcle an
ow s
Ġtra ining
Ġstruct ure
Ġtot al
em ic
Ġenvironment al
Ġpos ition
Ġindust ry
ed eral
Ġsoc iety
E S
y le
Ġmat ter
an ced
Ġter ms
Ġcomp any
Ġth ing
Ġcon c
ast ic
Ġprov ided
Ġserv ice
Ġdis ord
w h
Ġmean ing
Ġche ck
Ġhe av
it ation
min ist
Ġl a
Ġhe at
l or
Ġsur v
ĠJ apan
Ġschool s
land s
Ġin j
Ġcont act
Ġbr ing
Ġcaus ed
Ġet c
ful ly
Ġ2 5
Ġs leep
Ġexper im
st er
Ġbre ak
Ġtemper ature
ĠP e
Ġtra vel
ĠWh ile
Ġtru e
Ã ©
ab et
Ġl ives
rop ri
Ġcont ain
a ff
ĠS chool
ric ult
Ġs at
Ġeas y
Ġmus ic
ren g
Ġbenef its
Ġv ide
rough t
Ġc e
Ġcaus es
n s
Ġmethod s
Ġdesign ed
ail y
Ġdi agn
Ġv iol
Ġsh own
l t
ĠRes earch
ron ic
m b
ist ance
Ġinclud es
Ġf ru
in ary
Ġac cept
s on
ĠI I
at ives
Ġm ach
ve y
Ġvar iety
I D
ĠIn stit
h ood
ĠN o
Ġear th
Ġre v
Ġsaf e
is ter
m on
Ġpre c
ar ies
en e
Ġ Â
A T
Ġbelie ve
Ġreg ular
imate ly
n ers
ist ics
Ġprog rams
l ight
c hed
Ġ1 1
Ġf em
Ġpos itive
ar r
Ġl ove
Ġtar get
Ġa verage
Ġsim ply
Ġl if
Ġb acter
Ġsom etimes
Ġsp read
av ing
Ġrel ative
ri or
Ġiss ue
Ġvar i
am ed
Ġe at
Ġl ed
Ġgre ater
le x
ĠS u
A R
Ġth reat
d om
r ast
u fact
du c
Ġpol l
Ġcar bon
Ġsub st
Ġme chan
Ġp age
Ġstand ard
Ġorig in
os ition
ad es
Ġus es
Ġst e
Ġs low
Ġcult ure
Ġw ild
4 0
Ġmove ment
Ġorig inal
n ew
al ing
ĠK ing
Ġev ents
Ġreport ed
Ġde ep
Ġresp ect
ren ch
Ġscient ists
Ġhelp s
Ġdo ing
Ġs ources
Ġex c
Ġresp onse
k now
uc le
Ġf ace
c il
ul ate
b an
erv ation
Ġwrit ten
Ġfood s
Ġinvol ved
Ġdem on
Ġident ify
u ge
Ġenc oura
ar ily
B ut
Ġp le
end er
ac hes
ver se
ra nd
Ġp ict
er ation
ie f
um b
Ġfor ms
ol es
eng th
ĠP ar
Ġnorm al
Ġmed ia
Ġcomp an
r im
Ġdam age
ĠS ec
Ġref er
Ġsh are
Ġcomp et
Ġl ack
Ġem b
Ġparticular ly
o or
ĠP res
Ġst reng
Ġc amp
ell ing
Ġp sych
Ġimp lement
ct ions
Ġbas ic
Ġout side
Ġrem ov
Ġdevelop ing
Ġim age
Ġpo or
Ġint eg
ĠAust ral
Ġatt ention
Ġfor ce
Ġre view
op s
ĠSc ience
ial s
Ġser ious
Ġb al
l ies
2 2
Ġsu st
ĠP er
Ġanim al
Ġens ure
Ġatt empt
ac hed
Ġcomp on
I N
ĠM in
id ge
ĠInd ia
Ġl ate
b or
is ions
Ġ- -
Ġs qu
Ġide as
Ġfore st
Ġgener ally
Ġc oun
Ġprodu ced
Ġw ood
Ġl og
ĠE d
m ing
Ġh arm
Ġess ential
Ġvis it
Ġteac hers
Ġext reme
Ġgrow ing
ĠW ill
r ated
Ġwe bs
ro om
Ġelect ric
Ġfe et
ul ated
Ġa ff
Ġem ot
Ġc ust
Ġa ware
Ġcons ist
os ure
Ġde b
Ġo x
ĠCh ina
Ġcor rect
Ġser ies
Ġt ax
Ġcontin ue
Ġchall eng
Ġa p
Ġnum bers
Ġdis pl
Ġ /
ĠM e
Ġl at
iss ions
Ġm ess
Ġsaf ety
Ġatt ack
os ing
Ġnet work
Ġvir us
Ġprob ably
se t
ĠA pp
ut h
Ġag o
2 5
ec ause
an a
ĠC ount
ir it
Ġhy d
rib ution
Ġdra w
im um
Ġpat ient
he l
Ġt akes
Ġve get
Ġintern ational
Ġman ufact
i us
in o
Ġsome one
Ġn ight
ĠM any
Ġc ross
ra ft
Ġs ou
Ġse lect
Ġse a
Ġinclud ed
Ġget ting
Ġm other
Ġdoes n
ĠQ u
Ġdef in
Ġk ids
em s
ĠCent er
Ġcomm it
Ġexp ress
Ġ ir
o ly
Ġd ou
vent ion
er g
O N
f ect
ĠJ an
Ġv acc
Ġthere fore
ad s
Ġc it
ĠI nt
c ies
Ġcon cent
Ġpre p
in ks
Ġsp eed
Ġind epend
g round
Ġm agn
Ġeas ily
w here
u ary
O n
ens ion
Ġqu ite
Ġcol on
an ks
Ġlook ing
r or
Ġth us
Ġt iss
h aps
t ies
I S
Ġd aily
Ġfin anc
y r
ing ton
Ġco ver
Ġf a
re w
Ġpolic y
e xt
ĠA ug
ĠB o
ce ll
ĠP re
Ġw all
Ġpr int
Ġallow s
h a
Ġdiffere nce
y ing
Ġinst ead
ers on
o very
Ġapp ropri
Ġperform ance
l s
Ġinvest ig
as ons
ograph y
Ġdeterm ine
Ġest im
ĠM ore
Ġcommun ities
ww w
Ġ2 4
Ġe th
ĠE duc
abet es
Ġtool s
Ġtradition al
if orn
Ġd ang
Ġf ul
Ġthe ory
Ġadd ed
Ġprim ary
Ġbo oks
Ġth ous
Ġto wn
Ġev al
ĠC ons
Ġpoint s
O R
ĠJ u
Ġ i
Ġt ur
Ġt ree
Ġstart ed
n a
Ġinst it
Ġb ab
Ġhe ld
ole c
Ġref lect
Ġd iv
Ġlead ers
Ġm ental
use um
ĠA g
Ġestab lished
Ġlar ger
ri e
i ot
ĠY our
Ġw arm
Ġcomp ared
itud e
Ġ4 0
o es
Ġins ide
ĠP art
ce ed
Ġv it
Ġun ique
r ate
ĠA c
Ġhum ans
Ġth ird
an cy
Ġc ivil
Ġf av
Ġal tern
Ġquick ly
Ġn ation
Ġprog ress
Ġmult iple
Ġachie ve
Ġscient ific
Ġmil itary
Ġdise ases
Ġimm edi
Ġs old
Ġun c
Ġdirect ly
iforn ia
ĠInstit ute
Ġca pt
Ġre ve
Ġpro ced
Ġspe ak
Ġb it
ĠM ost
Ġprote in
und red
Ġoff er
ĠF rench
Ġsol ar
Ġh ost
ĠE l
ĠEurope an
Ġfr ont
Ġdemon str
l ied
Ġdec re
Ġtre es
r s
Ġs il
Ġfamil ies
Ġhigh ly
ĠG l
Ġsec urity
Ġf oot
Ġey e
ell ow
ĠJ es
Ġcompan ies
Ġt end
ound s
ien cy
Ġbir th
or ks
ĠInd ian
Ġbeh ind
Ġw ent
ĠC om
Ġaddition al
um an
Ġdoc ument
Ġ19 4
Ġansw er
il le
Ġdr ink
A N
el t
Ġal though
ĠDep artment
Ġseem s
if t
Ġse vere
Ġa ud
Ġas pect
Ġr out
iqu es
Ġneg ative
j oy
Ġhtt p
Ġexerc ise
Ġact ive
p e
Ġext ra
ter m
Ġt ri
Ġd ry
Ġw alk
ĠAr t
Ġf ram
ĠGerm an
Ġ201 0
Ġuse ful
O ne
Ġh ar
ther n
Ġso on
pr il
her n
ĠR uss
Ġbegin ning
Ġ201 2
ur ies
ce an
Ġac id
Ġtrans port
Ġinf ection
2 3
il os
y ond
Ġvide o
Ġs ection
d en
i ers
Ġp rior
Ġlab or
Ġg ard
m ar
ĠCal ifornia
2 1
Ġb ad
Ġh or
ro gen
Ġcrit ical
Ġcent ral
n ov
Ġte aching
Ġdoct or
it er
ĠW est
Ġsh all
Ġtoward s
form ation
gen cy
ĠG ree
om et
ĠCh ild
is ms
ol ar
Ġh abit
Ġbro ad
v ant
r ig
Ġanal y
Ġc ard
Ġsupp ly
Ġlead ing
r ition
âĢ ¢
Ġlim ited
ĠO ther
Ġcl in
olog ies
ĠC O
Ġob t
Ġpurp ose
ĠM arch
Ġmin utes
__ __
ĠN ot
Ġst ay
Ġexp ect
H e
Ġs us
Ġele ments
ĠCh ar
ĠO f
ĠR ec
Ġsit uation
ĠH ar
S o
Ġwh ose
ĠS m
il s
Ġinter p
om ing
Ġst ra
Ġan cient
ib er
l ier
Ġb ase
Ġcont ains
Ġfe atures
Ġa im
Ġacc ur
l ation
ĠHist ory
I C
Ġ ,
Ġl ost
Ġm om
ĠU s
ĠIntern ational
ĠAl though
or ing
ĠO ct
Ġm ount
Ġcont ribut
al y
Ġh ot
ort hern
r an
ĠJ une
ĠAfric an
Ġsoft ware
Ġdec l
Ġse arch
Ġn orth
c oh
Ġprot ection
ĠH er
ĠAfric a
Ġb rought
Ġel se
ro te
Ġbl ock
Ġthink ing
le ction
Ġex act
f ort
Ġh undred
Ġdescrib ed
Ġim ages
Ġon es
Ġst ri
Ġf ight
Ġval ues
Ġn ucle
Ġhand s
Ġf ast
Ġstr ateg
Ġcust om
Ġc red
ĠM us
w ise
c ome
se ct
Ġg ot
Ġ201 1
Ġqu ant
Ġd ark
b it
Ġg ame
Ġapplic ation
ĠChrist ian
ist ry
Ġinflu ence
Ġj o
Ġsust ain
A nd
Ġdec ision
he st
Ġnew s
in ct
Ġgo al
Ġad minist
Ġen joy
Ġj ud
Ġrequ ires
ĠAug ust
âĢĿ .
it ch
Ġl ength
Ġor d
c ks
ĠM on
m ission
us ed
Ġwr ite
Ġp ack
ines e
Ġan g
ĠS ch
Ġrece ived
Ġad op
Ġlar gest
u k
Ġadult s
ra g
e qu
Ġm ill
Ġlaw s
hen s
Ġex cept
ĠRe g
c ial
ĠD av
pp er
Ġwas te
Ġcar ry
ĠSe pt
im in
Ġw a
Ġag ricult
Ġfinanc ial
se e
Ġdis p
Ġloc ated
ĠH ere
ĠA nt
Ġcap ac
Ġcap ital
b ol
Ġpriv ate
ĠB ar
Ġcost s
iel ds
Ġe p
c on
ri ption
Ġbec omes
at t
iz ations
ĠC or
Ġnear ly
Ġle aves
im al
Ġproject s
Ġdem and
Ġse ason
ar ian
il es
Ġl ines
g n
Ġs n
ibr ary
Ġe gg
Ġr ates
e al
Ġimport ance
Ġag ree
ĠT ra
A S
ĠT w
I V
m ed
Ġre ach
ĠF irst
Ġbe aut
Ġs outh
Ġve h
Ġrelig ious
Ġtest s
ra el
it is
Ġra re
Ġtyp ically
v est
Ġwebs ite
ĠK e
Ġdev ices
Ġwee ks
ĠR iver
Ġpl aces
ĠAmeric ans
est ic
Ġm ention
l im
ĠJes us
Ġf it
Ġestab lish
Ġrem ains
Ġto ld
Ġappropri ate
Ġwork ers
Ġ2 1
Ġb orn
ip ment
Ġbacter ia
A t
od ies
6 0
Ġtechn iques
u ro
ĠW ash
Ġprocess es
Ġsol ution
Ġfri ends
Ġsit es
Ġf ather
Ġmem ory
Ġu lt
Ġst ru
Ġsu gar
Ġeff orts
at ur
Ġsur round
8 0
Ġ x
19 9
Ġc ool
Ġsa w
yp e
id ents
ĠM c
ĠJu ly
Ġrem ain
Ġra pid
ĠP ress
ĠS erv
Ġteac her
' re
Ġde al
ĠS w
ĠCanad a
Ġt able
Ġbas is
ĠA pril
ent ially
Ġhim self
Ġcommun ication
ie ce
Ġmil es
a id
i ar
it ect
P A
Ġe ating
l ife
o ke
u ments
Ġg ives
Ġcent er
c les
ĠF rom
Ġ200 9
ou d
Ġresp ond
coh ol
ĠPro g
u ous
all ed
Ġcit iz
ĠEng land
E N
Ġproper ty
Ġad j
Ġdi ed
Ġcreat ing
a ul
y ear
iz es
ĠM y
Ġde ad
b ack
Ġapplic ations
2 4
ĠAss oci
Ġtest ing
res h
Ġevery thing
Ġany thing
Ġad apt
Ġv ict
og en
Ġc rop
Ġco ast
Ġf uel
ĠD ay
Ġp an
Ġim ag
Ġnot hing
Ġey es
Ġh ope
Ġm ix
ĠGo vern
Ġse qu
Ġdig ital
Ġadv ant
Ġtherap y
i pl
E D
ĠC ong
Ġpract ices
The se
ce mber
Ġcult ural
i ra
Ġcomm and
k ing
augh t
Ġm olec
Ġconst ruction
Ġsum mer
Ġrespons ible
Ġh ous
se c
Ġfollow ed
ĠP ark
Ġaut om
Ġsc reen
ond on
Ġc ou
Ġd er
Ġce le
Ġmon itor
Ġro om
ĠCh inese
am a
Ġdep end
ĠEduc ation
ĠC ity
Ġdev ice
Ġbenef it
Ġc ode
Ġsp irit
Ġask ed
Ġf ederal
w ater
Ġbe yond
ĠPres ident
Ġconf lic
h am
Ġs on
Ġre asons
Ġobject s
Ġfor ces
ĠWill iam
Ġrec ently
ĠE c
Ġwe b
I T
Ġb ott
Ġc am
Ġst age
f ord
Ġcon sequ
Ġdi abetes
Ġcho ose
Ġf inal
m osp
Ġant i
ove mber
un ch
Ġbehav i
he ad
Ġ ice
Ġ201 3
Ġgra du
ic o
Ġp en
ill ing
Ġw oman
oc ol
Ġt it
ĠIs rael
Ġtra de
Ġ200 8
) ;
ĠCh urch
Ġconn ect
i ples
Ġexp ected
d ing
Ġra in
Ġd ate
Ġb reat
Ġm iddle
Ġinst ru
Ġconst it
Ġopportun ity
Ġold er
Ġcont roll
Ġexam ples
Ġleg al
ough t
ap ter
ĠJan uary
Ġrece ive
rib ute
Ġaffect ed
Ġte eth
str ial
Ġcommun ic
ĠWash ington
m en
l am
Ġsc ale
Ġins p
E x
Ġsmall er
ĠTe chn
Ġc ra
Ġf ear
ĠG reat
om b
ĠIn c
ĠL ear
W ith
ell ig
Ġh yp
ĠR et
Ġk ing
B y
Ġset t
it able
Ġt en
Ġprov iding
Ġcurrent ly
en ge
Ġequ ipment
Ġcol d
Ġsh ape
Ġf ile
i able
Ġr ules
Ġyour self
Ġu nd
ul a
Ġ :
Ġstand ards
ĠE ven
Ġexp osure
Ġb ul
Ġevery one
on y
Ġorgan ization
Ġprofess ional
Ġc ru
e v
Ġus er
t ime
Ġvis ual
ĠCount y
est s
ĠR oman
Ġcomplete ly
Ġal one
Ġm id
Ġdiffere nces
ter y
Ġeff ort
b ook
ĠF eb
Ġrecomm end
ed ia
l in
air s
ĠJ ournal
Ġoccur s
Ġinterest ing
Ġloc ation
ĠB i
Ġgo es
Ġplan et
Ġch urch
an ish
Ġw rote
Ġv ia
ĠSept ember
Wh ile
Ġus ers
ĠSy stem
Ġbir ds
ĠA ccording
Ġdest ro
Ġtry ing
Ġw on
Ġmod els
ĠO ur
Ġappro x
Ġeconom y
b ur
re es
Ġsuccess ful
oc r
Ġpo ly
ver t
Ġp et
Ġpur ch
ĠDe velop
Ġn amed
oc ks
Ġbe g
Ġmeas ures
l amm
Ġ2 3
Ġro b
Ġcolle ction
hem at
u ff
Ġro ck
ĠR ed
ĠD is
Ġconst ant
o e
Ġh on
Ġdeg ree
ĠC oun
ĠTr ans
Ġear lier
Ġle ave
lo ad
ic a
ĠOct ober
A C
ud d
Ġgen etic
ĠL aw
Ġw inter
Ġdrug s
Ġstep s
Ġwe ather
ĠThe n
Ġfor mer
ĠE ast
Ġstreng th
ing u
Ġcontin ued
Ġc ateg
ĠH igh
Ġcommon ly
Ġover all
Ġallow ed
Ġmaint ain
Ġis n
ĠS an
Ġmem ber
o ff
ĠB r
c an
ro s
Ġb illion
od ay
Ġredu ced
Ġne igh
ed om
Ġg ir
mit ted
Ġfru it
Ġr ise
ĠS im
Ġ19 3
Ġa st
ĠD NA
w ide
Ġelect r
Ġs we
ens ity
ire ction
Ġocc up
Ġapp lied
Ġ6 0
ib ly
Ġpl aced
ĠComm un
ĠM ex
Ġpre gn
ĠP ol
ĠC our
ĠV ir
Ġcomm erc
ĠDe cember
Ġm ax
Ġpower ful
Ġper fect
re c
Ġdisc overed
ĠV al
Ġe ight
2 6
Ġen h
Ġw ond
i os
ĠL ondon
Ġform ed
Ġro ad
Ġident ified
Ġpred ict
s u
Ġ200 7
at ers
a ur
Ġent er
osp ital
Ġs ch
gy pt
Ġte ach
m ore
Ġshow ed
2 7
Ġhistor ical
Ġdispl ay
Ġcom ing
Ġcour t
Ġm iss
st e
ĠBl ack
Ġv ill
ĠI S
em y
Ġr ich
Ġg ave
Ġto x
Ġr ule
Ġcont ext
ĠS ur
ĠRe ad
Ġm ob
Ġmajor ity
Ġ19 5
S ome
ain t
Ġstat us
b l
Ġtiss ue
Ġm is
ent y
Ġex ec
Ġp ow
ric k
Ġac qu
Ġnot e
ru ary
al t
Ġtra ck
Ġph ilos
Ġvir t
Ġd en
Ġper haps
Ġpres ence
Ġact ions
ĠN ovember
ĠD uring
re et
ee ch
ĠIn st
Ġsit u
c ious
Ġgu id
i ate
Ġpattern s
Ġvers ion
know n
Ġb all
ĠAr ch
Ġg old
ar a
ord s
Ġc ook
Ġj oint
Ġdid n
b re
en cies
Ġm outh
ĠB ecause
Ġat mosp
if ul
Ġnut ri
os y
ĠW ater
ra b
Ġf air
2 9
qu e
al ed
Ġmach ine
Ġful ly
Ġlim it
A L
Ġmom ent
rel ated
or ation
ĠM od
Ġincre ases
ĠAl so
Ġsign s
Ġrem ember
Ġm ut
Ġcho ice
Ġcomp ar
Ġass ign
or ge
P ro
Ġpe ace
c raft
Ġimm une
ĠN ow
Ġte le
Ġc ry
ĠJew ish
Ġass ist
Ġill ust
ĠH ouse
Ġchang ed
Ġas se
Ġproper ties
Ġmov ing
ĠS ince
Ġt ou
Ġrelative ly
od es
Ġbelie f
Ġill ness
Ġs ect
ĠSoc iety
Ġac ad
Ġappear s
Ġc ities
c o
Ġele ment
7 0
Ġfem ale
am ent
Ġsym bol
2 8
Ġem p
Ġe fficient
ĠGen eral
Ġan x
Ġal cohol
Ġcapac ity
ger y
in ated
Ġp iece
Ġb ra
ĠP at
Ġv o
Ġst ories
Ġwork ed
Ġun it
ri ef
Ġm ig
ot ed
Ġr at
ien ces
ph as
ĠR o
Ġem issions
res p
Ġconst ruct
Ġn ames
ĠPro t
ast e
Ġwor th
ĠJ ust
Ġeduc ational
h ouse
Ġstru gg
" ,
Ġbab y
e es
Ġexist ing
Ġfun ctions
Ġg iving
ab ilities
Ġinc or
Ġrun ning
ĠA re
Ġfact or
Ġfor ward
E C
tern al
Ġev olution
I I
for ce
Ġarch itect
a ign
ĠE gypt
Ġst im
Ġdist ance
Ġm ission
ru pt
Ġd at
Ġst ar
Ġf resh
ĠAustral ia
Ġr iver
Ġoff ers
ĠPe ople
Ġeval u
am b
Ġmus cle
Ġt ask
Ġd irection
Ġcon vers
Ġn ative
pect ive
ĠCon f
Ġst aff
Ġ ing
Ġtrans fer
Ġin sect
Ġequ al
Ġrep e
Ġopportun ities
Ġthous ands
ĠU se
Ġass um
Ġtechn ologies
ic ip
A d
at in
Ġsur pr
âĢĿ ,
ir ing
Ġreg ions
Ġant ib
in y
Ġchalleng es
ĠF in
Ġmil k
as ion
Ġexp and
ĠGerm any
Ġwr ong
ĠPro f
Ġbal ance
Ġbelie ved
Ġabs or
ess ion
Ġw atch
Ġcompon ents
re hens
Ġdet ect
Ġpict ure
U n
ĠPh il
Ġe ffic
y d
or age
Ġ2 8
A ll
Ġ2 6
Ġb ound
ĠCoun cil
om as
Ġfind ings
y gen
Ġha ir
à ¤
Ġfore ign
Ġfri end
ĠAssoci ation
Ġh uge
Ġconsum ption
Ġ200 0
Ġin nov
er o
Ġexpl ain
Ġplan ning
Ġinst ance
Ġcitiz ens
og le
Ġwe ak
Ġreport s
Ġpl astic
Ġdetail s
Ġbo x
ul s
Ġdef ined
p art
Ġoff ice
ĠA ng
if ically
Ġgl ass
Ġatt ract
Ġfam ous
Ġsur vey
Ġgu ide
Ġclass room
ĠEn vironment
i ant
Ġst yle
Ġpr ice
S T
Ġch ance
ĠCong ress
D A
rie ved
ĠN A
ĠE ach
b ed
ĠF l
Ġex hib
Ġ +
Ġobserv ed
ĠThe ir
Ġcont ract
h ors
er a
Ġvis ion
Ġopt ions
Ġgard en
ĠTh us
Ġ2 2
Ġsuggest s
Ġgo als
om a
Ġf igure
Ġinst ruct
Ġpass ed
Ġevent ually
ograph ic
Ġqu al
Ġ200 6
ĠP al
Ġp hen
Ġexperien ces
Ġdisord er
Ġp p
Ġtre ated
u ild
Ġbre ast
B e
ĠIntern et
Ġ201 5
ĠMed ic
Ġstrateg ies
Ġf ert
Ġlearn ed
ĠG reen
ĠFr ance
al d
Ġm ap
le ge
Ġres istance
Ġse ven
Ġimmedi ately
Ġ2 7
i ance
Ġfe ature
ed ing
ĠUn ion
Ġsepar ate
Ġsignificant ly
R E
c he
Ġcar ried
ĠW estern
Ġapp ly
ĠFeb ruary
pp ed
Ġbl ue
Ġcoll abor
A fter
n es
Ġcommerc ial
Ġbo ard
im ent
Ġs ac
Ġstruct ures
ig en
Ġcele br
Ġextreme ly
Ġex cess
te e
Ġ iron
Ġg ain
c ont
Ġf ix
ec es
Ġut il
rom e
Ġm al
Ġl iqu
ĠT ur
ĠU N
ĠJapan ese
Ġd ivid
Ġhapp en
Ġdec ades
ĠProg ram
Ġsp ect
ch ar
Ġm ale
Ġpresent ed
Ġb ank
Ġpl ans
Ġtop ic
H E
r is
I s
Ġtr uth
Ġorgan izations
Ġhig hest
Ġp ick
ward s
Ġb one
ch ing
k y
Ġinc ome
A r
Ġdestro y
u it
ĠU K
k en
Ġfav or
Ġexpl ore
ĠIn ter
Ġclin ical
op hy
Ġbec oming
us es
ĠS ee
Ġrequire ments
Ġh om
Ġst ream
Ġapprox imately
Ġsa ve
Ġsp ring
Ġeas ier
Ġchall enge
Ġgen e
The y
c are
Ġj ournal
Ġdist ribution
ĠC ur
ul um
c ast
Ġsex ual
Ġgener ation
Ġro t
Ġm o
ĠP ublic
Ġ â
ĠC he
Ġheav y
ent h
Ġact ual
Ġmov ed
is ation
ĠH uman
Ġre ality
Ġdep ression
ĠL ord
Ġd yn
Ġb odies
ub e
ĠDav id
Ġhouse hold
Ġdec isions
Ġit ems
ĠD on
i ated
un ction
a res
ĠM at
Ġur ban
Ġfa ith
Ġsl ight
Ġnut rition
plic ations
as ks
Ġconduct ed
Ġparticip ants
Ġdisord ers
z z
Ġpop ulations
Ġaltern ative
ch ange
Ġv ary
Ġintrodu ced
m et
d o
Ġc and
ĠB ra
Ġref erence
Ġleg is
Ġelectric ity
ĠM ary
ĠV ol
Ġfrequ ently
Ġem phas
Ġcont rast
ĠM ich
ul f
9 0
Ġm er
ĠJ ames
Ġestim ated
Ġser ve
olog ist
3 5
Ġaspect s
ĠD es
Ġ200 5
ĠSp ec
ant ic
Ġconn ected
Ġmet al
Ġindu strial
ĠGree k
Ġv es
Ġpart ners
Ġperform ed
p ed
Ġ ign
Ġset ting
Ġwide ly
ĠA ut
Ġtrans l
Ġno vel
Ġh omes
Ġrele ase
b al
ruct ure
ĠRe v
Ġres ource
Ġf ig
ĠChild ren
ord er
ĠL et
Ġag g
Ġb ed
P h
Ġg ames
Ġk id
Ġdiscuss ion
Ġ esc
Ġsp eech
Ġch ronic
Ġnot es
er ate
Ġrem ove
Ġ201 6
re st
Ġcom pl
Ġclear ly
Ġviol ence
Ġfil m
Ġop in
Ġ201 4
Ġcy cle
Ġcomb ination
Ġrecord s
ĠO ver
Ġrele ased
cl us
ĠM or
ap ers
Ġnucle ar
Ġrecomm ended
por ary
Ġlet ter
Ġcaus ing
Ġm ag
i i
Ġexperim ent
Ġstart ing
Ġmedic ine
Ġassess ment
id a
Ġpart y
Ġdes p
Ġ8 0
ĠCol lege
il it
Ġint ellig
Ġox ygen
ed ic
ĠWe b
i as
Ġst ore
ke y
ĠM useum
ro ph
te red
Ġpolic ies
ĠD ec
ĠPl an
ogn itive
Ġth r
im ens
ĠDevelop ment
Ġturn ed
Ġl ived
Ġexp ression
Ġdou b
Ġis ol
Ġnum erous
rou p
Ġpres ident
Ġgr ass
Ġindepend ent
ĠSoc ial
Ġapp e
erv ed
Ġhe ar
ĠF ound
Ġo cean
Ġf ields
ĠN et
Ġk illed
ra w
Ġtechn ique
het ic
Ġlo ad
ĠR el
O S
Ġdi vers
Ġdr ive
Ġoper ations
Ġcre ation
Ġget s
Ġchang ing
Ġany one
ous ly
Ġfl ood
ag er
Ġc overed
E T
Ġun ivers
Ġvit amin
ol ved
A M
Ġtr ust
Ġresult ing
i j
oc al
ere nces
Ġmin or
Ġgen es
ot hes
ĠF ood
Ġtemper atures
ĠRet rieved
Ġbu y
Ġw in
Ġorgan ic
S h
Ġread y
Ġintern al
Ġg od
Ġbuild ings
ic ial
ĠRep ublic
at ically
el ines
Ġbat tle
Ġbott om
Ġwant ed
Ġliter ature
Ġst orage
ot es
Ġt our
Ġcharacter istics
t ical
ĠA v
ĠCour t
Ġrad io
ress ive
ur ance
Ġsh ap
ra ction
id ers
Ġfre edom
Ġris ks
a ult
Ġp i
Ġ19 0
Ġconn ection
E M
w orks
Ġpre fer
Â °
ĠC ath
olog ists
Ġsam ple
Ġexact ly
Ġcamp aign
ang ing
Ġcon v
Ġn or
Ġro ot
Ġgra ph
Ġnot ed
4 5
Ġinit ial
r ant
Ġmeet ing
Ġdog s
Ġanx iety
Ġdist inct
Ġrefer red
Ġt rib
ĠGovern ment
Ġpre par
ĠGe orge
Ġredu cing
on ic
am ental
Ġt im
lic k
Ġtr ig
Ġprinc iples
Ġout put
ess or
Ġves sel
Ġaut hors
ĠU nder
Ġconf irm
Ġconflic t
Ġencoura ge
Ġem ail
Ġs em
Ġd rop
Ġinvol ves
Ġmess age
Ġfeel ing
ĠSp anish
Ġ #
ond s
iven ess
Ġfail ure
ĠP aul
Ġcirc um
cept ion
Ġlay er
Ġwh om
Ġmat hemat
Ġb urn
Ġbeaut iful
Ġsol utions
Ġt um
Ġdang erous
Ġs and
Ġrelationship s
Ġhapp ens
Ġra ce
Ġann ual
Ġ2 9
Ġu pper
Ġal g
Ġdeg rees
m ark
Ġd ri
Ġr ul
ĠO b
ĠPro ject
le ase
A ccording
Ġmention ed
at form
Ġremov ed
stit ution
c ers
Ġar m
ish ing
P S
Ġrelig ion
ĠThere fore
osy stem
ul ating
Ġfind ing
Ġcons ervation
Ġinj ury
Ġmost ly
ri age
Ġdescrib e
Ġvol unt
Ġhelp ed
Ġinterp ret
Ġter rit
H ere
Ġdeterm ined
How ever
or ial
Ġcoun ter
3 3
ol id
Ġsur gery
w ith
Ġt rou
Ġto oth
Ġis land
Ġrep rodu
ĠA ir
Ġup d
Ġd ram
Ġrepl ace
Ġple ase
Ġg ender
Ġun f
ĠIs land
ĠD em
Ġf ine
ortun ately
Ġsh ip
Ġback ground
Ġth ick
Ġprevious ly
Ġo ption
ĠOr gan
Ġs av
ĠO nce
ric ulum
o ch
ĠT est
Ġv ul
Ġcolle ge
Ġproper ly
Ġphys ic
Ġsc en
ĠO ff
b i
Ġc ore
Ġex cell
Ġ18 6
ress ed
Ġsy nt
Ġinf lamm
Ġregard ing
Ġprom ote
Ġgr ant
ri a
Ġhe ard
Ġm ist
Ġtre nd
ot ing
Ġegg s
Ġel imin
u ing
Ġclass es
Ġun its
ro g
Ġadvant age
Ġlead s
Ġ201 7
Ġserv ed
Ġbel ong
row s
Ġh orm
ur ation
Ġadv anced
Ġinvol ve
Ġme at
Ġadj ust
Ġexperien ced
Ġinf ections
Ġstate ment
ĠW ork
Ġcomp rehens
t a
C on
ag o
Ġvol ume
Ġse eds
ĠS am
ate gy
iet ies
ĠWh y
r um
Ġart icles
ĠF ore
Ġinterest ed
Ġcred it
Ġc ast
Ġincor por
Ġvict im
ĠS un
Ġsp ot
oy al
7 8
Ġp ric
u x
Ġsp ent
Ġcl ick
Ġn orthern
Ġreact ion
m al
Ġprocess ing
Ġlink ed
Ġr ound
Ġexp osed
Ġin h
Ġstr ategy
Ġsol id
Ġmanufact ure
Ġyou th
Ġd ie
Ġdec ided
ribut ed
ĠM ars
Ġre b
Ġacad emic
N ew
Ġexper ts
r ates
p ing
Ġrele vant
Ġland sc
ĠM ount
Ġtrans form
ĠIt s
ĠJew s
le g
Ġdep ending
ĠIn f
M any
ĠT ex
Ġse ed
Ġrad iation
nd rome
and er
ĠM ark
Ġinst all
Ġconcer ns
um n
Ġamount s
Ġke pt
Ġs ort
Ġob vious
re p
Ġin put
S p
Ġcom fort
ĠR ober
Ġp ages
Ġprofess ion
Ġw est
it z
Ġme ant
Ġ200 4
Ġ7 0
Ġh our
Ġoper ation
v ision
ro ad
Ġp al
Ġpoll ution
Ġp ip
Ġsay ing
Ġj our
Ġs ong
Ġl ung
Ġsou thern
r ans
ut ed
n ic
ĠMex ico
ĠG ra
in ate
Ġprep ared
Ġ9 0
pl ace
m at
ĠAs ia
Ġm el
ĠM al
7 5
Ġhelp ing
Ġsqu are
w ood
3 6
C C
Ġproced ure
z a
Ġsign al
y a
Ġinv ent
ĠIs lam
ĠB el
Ġeffect ively
T hat
Ġc ere
Ġdis s
R es
re te
Ġwe alth
Ġpre t
Ġim pl
el ine
ify ing
Ġ ...
Ġemot ional
Ġconcept s
t es
iver se
Ġman age
Ġdisc over
ĠStud ents
Ġatmosp here
W hy
Ġmot or
Ġveget ables
Ġexper t
Ġchar ge
ĠH en
ĠD i
Ġconcer n
bo ard
ĠPh ys
Ġf ol
ur t
augh ter
Ġsustain able
Ġfarm ers
Ġpi eces
Ġaware ness
ĠS ub
Ġcl os
Ġfrequ ency
ber g
Ġprop osed
ĠH IV
w ell
ĠS T
wh ich
Ġoffic ial
Ġconc lud
ĠL a
Ġman ner
Ġsee k
ĠWh ite
Ġl ic
Ġph ase
stand ing
d ed
Ġhe aring
ag s
Ġinstit utions
Ġlo oks
Ġengine ering
I m
Ġess ay
O ur
Ġown ers
Ġk ill
Ġimpro ved
ĠR ich
ĠB udd
N ow
e k
Ġ200 3
ac ing
Ġcomple ted
ĠAc ad
Ġcons ult
Ġre ached
Ġa id
Ġst ation
Ġinflu en
ĠS en
Ġdat ab
ak ers
Ġdef ic
Ġfin ally
Ġm ath
ok ing
v is
Al though
Ġrecord ed
am s
Ġcontin ues
is her
il ing
Ġless on
ĠâĢ ¦
Ġsu fficient
Ġmain ly
Ġsupport ed
Ġnot ice
R O
Ġsec ret
as tern
ĠServ ice
Ġl ib
ĠK ore
ĠO ld
Ġphen omen
orm al
Ġdefin ition
Ġvacc ine
b all
Ġlangu ages
z ing
Ġe ast
Ġpres c
Ġallow ing
3 8
Ġcor resp
Ġfor ced
Ġw et
Ġchemical s
Ġpract ical
l ig
Ġy ellow
ĠJ er
ĠJ e
k in
Ġdrink ing
Ġgra de
Ġco al
onom ic
Ġp un
ro ke
Ġwond er
Ġpl atform
Ġbro ther
C l
Ġw aters
Ġform ation
Ġbeg ins
Ġpurp oses
Ġdiagn osis
Ġmot iv
ĠE v
Ġapp oint
com es
Ġb an
Ġcon ver
Ġst orm
Ä ģ
u able
C O
ren ce
ĠC ivil
Ġint ended
it ors
Ġauthor ity
ĠR em
ĠP ort
ĠM et
ĠA rab
Ġt aught
ac ific
Ġvul ner
Ġtox ic
ĠM r
Ġident ity
A D
rap y
Ġh op
ear s
Ġb ud
ad o
Ġcent uries
n am
ĠVir gin
r ations
Ġelectr ical
ĠE very
ĠTh omas
Ġcom ment
Ġeffic iency
Ġset tle
Ġh it
ĠH el
Ġmor ning
Ġcont ribute
ĠB ay
ĠM iss
Ġp ark
Ġsitu ations
Ġf oss
F rom
at ric
is hes
Ġfor t
ĠM ac
Ġrem ained
' ll
ĠM art
Ġre new
oun ced
Ġsus p
ar row
atur ally
Ġbl og
1 00
ver ty
Ġoff ered
et ers
Ġsam ples
Ġl inks
Ġliqu id
Ġcomb ined
ox ide
ĠBrit ain
ĠNA SA
al le
Ġpo verty
A P
Ġl ov
Ġm aster
Ġredu ction
Ġjob s
ak er
ew ork
Ġvo ice
ĠCent ral
Ġindic ate
cl usion
ot ic
os ite
Ġfact s
ĠL ou
Ġprim arily
Ġd oll
Ġmus cles
Ġsh ared
yr ight
Ġn av
Ġd ro
Ġgir ls
Ġstra ight
Ġkind s
Ġprofess or
Ġconsequ ences
Ġfocus ed
ĠL ife
oss ible
Ġmot ion
am ple
ĠI r
h t
3 4
ĠA D
Ġra ised
g ra
Ġ3 5
Ġide al
r ich
Ġhe ight
Ġtechn ical
op er
t ion
Ġgra nd
ĠFr anc
an ch
i xt
Ġinit i
d es
esp ite
Ġper man
ĠMedic ine
Ġf lex
Ġb rief
Ġext ent
M ost
A b
Ġco ord
Ġcertain ly
ĠMed ical
Ġdyn am
Ġcollect ed
ĠB er
Ġtreat ments
ĠB as
Ġcare er
Ġne ut
Ġt asks
ĠEn ergy
ĠTex as
ĠSp ace
Ġec osystem
ri an
Ġexist ence
Ġh ospital
Ġn erv
Ġnutri ents
Ġlarge ly
Ġspec ifically
ist an
ĠD irect
A meric
Ġw ife
s es
os en
Ġthough ts
Ġpers pective
ĠMus lim
ri er
Ġm ort
Ġplay ing
Ġf elt
Ġoper ating
Ġsubject s
9 9
Ġk n
ĠAt l
ĠF re
o o
act ers
Ġc ert
go ing
w est
Ġsp end
ĠS er
Ġf ib
ĠCl ass
Ġlet ters
Ġar my
Ġother wise
Ġn it
Ġpol ice
z y
Ġb ill
Ġshow ing
Ġf if
g l
Ġpers ons
Ġexcell ent
c ol
Ġthe r
ĠS al
ĠB en
Ġbir d
ĠC le
Ġoccur red
' ve
Ġcr is
Ġres ist
Ġ200 1
E L
Ġflu id
ag ue
P l
Ġp ul
Ġtr ial
ac he
f ield
Ġ Ã
Ġadv ance
w hat
U S
ĠNew s
ĠQ ue
Ġt ro
Ġsh ar
Ġv ast
th at
Ġlead er
Ġbr ight
Ġrespons ibility
Ġaffect s
a el
ol ute
ic ed
Ġsy n
Ġinstru ment
Ġpartic les
Ġtra in
N o
un k
r as
Ġflow ers
Ġv ital
rol og
Ġf aster
rast ructure
Ġn ations
Ġbi ological
O T
Ġdesp ite
ĠM ass
Ġprote ins
Ġimpact s
e y
Ġst em
ĠComm ission
b and
Ġqu ar
ang es
Ġmet ab
Ġexpl ains
Ġ199 0
ĠF urther
ar i
Ġab use
ĠTechn ology
ĠL atin
l a
Ġagricult ural
Ġc ognitive
Ġdetail ed
Ġon to
Ġl iver
Ġkeep ing
Ġsal t
oth ing
Ġs end
? âĢĿ
ĠD ise
Ġdig est
Ġsurround ing
Ġor al
Ġveh icle
Ġsect or
ĠC am
ĠB ible
Ġrev olution
Ġimm ig
Ġp ray
Ġs now
Ġdi am
Ġpro s
. ;
Ġsound s
Ġplay ed
ipp ed
Ġcl im
ail s
Ġfamil iar
ĠW ind
Ġreturn ed
ĠSec ond
ĠD ist
Ġref ers
ing er
ĠR ights
Ġemer gency
Ġdou ble
Ġmax imum
R I
ĠAr my
Ġincreasing ly
ĠH ol
Ġst one
ol ars
Ġrec y
Ġare n
Ġmeas ured
ough ly
Ġcrop s
4 8
Ġsuggest ed
Ġst ars
os a
n el
] .
Ġlook ed
c ript
Ġw el
Ġhelp ful
Ġgovern ments
Ġro ll
Ġtyp ical
p oint
Ġapp arent
Ġm ere
in ent
Ġexpl an
in f
Ġinterest s
Ġadv ice
Ġsc he
st ood
ens es
om etimes
Ġmo ist
Ġhy per
ĠB ur
Ġch ief
anc ing
um in
ĠLear ning
Ġex ternal
Ġdom estic
om y
Ġatt acks
ĠD ef
Ġth in
Ġfund amental
ul in
Ġcompon ent
str onom
n ame
ut ive
Ġperiod s
Ġl ik
l ar
Ġdivid ed
ĠT reat
Ġhapp ened
Ġfollow s
Ġra il
Ã ¡
ĠCath olic
Ġchar acters
Ġfl at
Ġslight ly
ĠB C
p en
Ġf irm
Ġ200 2
hip s
Ġstud ied
ĠB ook
Ġtop ics
Ġcontroll ed
ĠL ake
ĠB oth
Ġinst ruction
3 9
ĠTw o
Ġgreat est
Ġfru its
Ġprot ected
Ġmonitor ing
it ness
Ġrecogn ized
Ġhundred s
Ġb ow
res ents
d own
Ġcont aining
Ġl ose
Ġspirit ual
it age
v an
Ġs en
ĠSt and
Ġcons ists
ra cy
Ġfl oor
Ġr ural
Ġval id
m p
ĠS ou
r ight
ĠW omen
Ġhtt ps
Ġport ion
ing ly
Ġpot entially
Ġph one
Ġexpl ained
ĠT oday
Ġele v
er ia
ĠIn formation
Ġgood s
ĠF lor
as ure
ĠRuss ian
Ġk new
g al
ens us
om in
Ġneigh bor
w in
Ã Ń
igen ous
ies t
ĠP acific
Ġcur riculum
Ġfil es
or al
ate ver
Ġfac ilities
Ġoffic ials
Ġaccur ate
ind ing
Ġj u
ce ler
Ġpro port
ific ial
Ġinter view
Ġtest ed
Ġpain t
ĠM il
Ġclaim s
ĠFound ation
Ġhabit at
Ġsp l
ĠUs ing
Ġcons cious
Ġimm un
ĠD ata
Ġhar vest
Ġwall s
Ġdep ends
st ate
Ġk il
Ġ201 8
B C
Ġcru cial
Ġch ann
Ġrapid ly
Ġv ent
Ġproced ures
Ġappro aches
il ed
Ġcontin uous
3 7
Ġsubst ant
Ġconcent ration
Ġdep th
Ġsat is
c est
u ke
Ġsub sequ
ov iet
Ġmin imum
Ġappe ared
Ġtit le
Ġfeel ings
D o
Ġconcer ned
Ġs in
M ore
ak s
Ġp ig
om pl
Ġk m
Ġrequ est
ĠCar ol
Ġclose ly
g ment
ĠA N
Ġdis app
Ġrep resents
Ġsm art
Ġw estern
ĠM icro
Ġf le
Ġinvest ment
um ber
Ġobt ained
Ġha z
Ġvis ible
v ille
ĠChar les
el lect
Ġsuff ering
Ġcon vent
ĠE lect
Ġpric es
h i
Ġgrow n
Ġag es
Ġt ried
ĠM iddle
ĠC D
os c
Ġpr ison
Ġmor al
Ġcard i
ĠSe a
Ġn aturally
Ġra nd
ost er
ĠO ut
Ġs ed
l i
Ġro ots
o oth
ĠN or
Ġdisc overy
Ġdiscuss ed
p at
Ġcont em
An other
Ġarg ument
Ġselect ed
9 5
ĠD el
asc ular
ĠSm ith
I ON
Ġt ips
ab il
Ġjust ice
ĠF am
Ġmove ments
ĠM ont
ĠAn other
ĠSt e
Ġrand om
Ġp u
Ġg ar
is p
Ġout comes
act ive
an es
Ġdivers ity
IN G
6 5
ĠRober t
ĠJ ose
Ġdist ingu
Ġ18 8
ro c
Ġst ated
Ġcou ple
angu age
al se
M S
Ġview s
Ġp aid
Ġle aving
ĠL ibrary
ĠM em
Ġmedic ations
Ġs ides
ath y
Ġval uable
Ġext ract
Ġdirect or
Ġd ial
ĠJ ud
Ġadd ing
Ġ20 20
ĠRuss ia
Ġexp ensive
Ġres idents
Ġcris is
Ġne uro
Ġsubst ance
Ġcircum st
Ġst ret
Ġlat est
Ġ *
Ġre form
Ġdel iver
3 2
T S
âĢĻ .
Ġmed ium
4 4
Ġdoc uments
ĠCont rol
Ġwe ap
ĠSu pp
Ġsat ell
Ġset s
Ġp ump
ad a
f all
ĠL and
ĠM ake
Ġless ons
Ġcorresp ond
ĠInst ead
Ġp il
Ġmill ions
ec k
Ġall erg
ĠW ell
ĠGo ogle
ĠR ef
c hers
Ġacc ompl
Ġinf rastructure
b ing
Ġal t
ar io
l ers
oles ter
Ġrecogn ize
Ġm oon
Ġd ut
Ġdisc rim
Ġre in
ten ance
at o
D e
Ġtalk ing
Ġregular ly
Ġemploy ees
Ġappear ance
Ġg un
Ġ4 5
ĠW ild
ĠS uch
ĠEm p
Ġh unt
ro id
Ġvill age
Ġpict ures
Ġb and
Ġo d
ĠHen ry
es ity
Ġfund ing
Ġintern et
Ġdecre ase
S c
ĠU p
ĠP sych
Ġcol ors
Ġsy ndrome
Ġmy th
Ġcap able
ic ks
ĠF ederal
Ġw ire
ĠS oviet
G en
ĠL ike
Ġdr iving
ĠD isc
Ġagricult ure
Ġst ock
ĠT em
Ġacc omp
ĠStud ies
Ġdeath s
Ġmob ile
olester ol
f ree
ĠH am
Ġing red
Ġ201 9
Ġsuff er
r id
ex p
ocr atic
Ġf rag
ĠComp any
Ġpar am
Ġpregn ancy
ĠN ature
Ġprinc iple
D r
Ġcor por
G o
I nd
om ach
Ġhor se
Ġadv oc
ĠP ost
mb ly
st ream
ĠHist or
Ġinf ected
Ġrec overy
Ġd u
re m
Ġn arrow
O ther
Ġhous es
Ġfac ilit
Ġinflamm ation
D uring
idd en
Ġmar ine
Ġsec ure
Ġform at
Ġintrodu ction
Ġsold iers
Ġp ure
Ġcl osed
Ġinter f
Ġshe l
Ġfert il
ot he
plic ated
Ġpart ies
Ġreg ional
ĠN av
Ġra ise
Ġform al
Ġwe ar
Ġap art
Ġd ream
ĠEng ine
p ass
d den
l ong
Ġcall s
ĠEnvironment al
19 8
Ġin ject
D F
ĠW il
Ġch ain
H O
Ġs ick
ol ve
m as
Ġprot ocol
Ġprevent ion
Ġprodu cing
in du
Ġtou ch
Ġn arr
Ġimp ossible
Ġcreat ive
Ġad equ
Ù İ
ĠS af
Ġorigin ally
Ġs an
Ġprec ise
ĠLou is
ĠA p
uild ing
Ġmar riage
Ġopen ed
Ġdescrib es
Ġar ms
Ġnorm ally
ot a
Ġenh ance
ĠB at
Ġinc hes
c a
bur g
ĠVirgin ia
sp ec
h ma
ĠS um
pp ing
ib ilities
Ġa w
al ian
yp es
Ġco ff
ĠMan agement
Ġ Î
Ġun like
ĠCon stitution
C S
ĠG roup
Ġposs ibly
ĠP ers
Ġbusiness es
Ġlif est
Ġw ave
Ġm it
hem ical
Ġb ones
Ġintellig ence
7 6
M y
Ġinc l
in et
Ġex change
ĠO x
Ġunder stood
Ġwor s
Ġgener ate
Ġch apter
on a
i ology
Ġcomput ers
T e
r ants
Ġt un
Ġtra d
Ġaccept ed
ct ic
ĠP ower
Ġabs olute
ĠComm it
Ġan cest
ol f
4 6
Ġtra ffic
Ġapp rec
Ġopin ion
Ġveh icles
Ġentire ly
Ġr ub
Ġposs ibility
Ġsens itive
Ġer a
3 1
ĠK now
5 00
ĠT or
Ġfl ight
Ġrest rict
Ġsecond ary
Ġshe ll
re ed
os m
Ġlist ed
h ist
Ġadminist ration
Ġsu dden
Ġb rown
Ġst ored
ĠCanad ian
Ġsu c
Ġpre f
Ġpret ty
k a
. |
S ee
dition ally
Ġcand id
if ies
ĠB et
Ġst ages
oc racy
ber t
Ġrec on
ad d
os al
viron ments
cl ing
Ġlab el
Ġt al
Ġph r
y e
Ġw aves
Ġprep are
Ġadop ted
Ġreve aled
Ġto ler
ĠM o
in ations
Ġm useum
or gan
Ġmass ive
be ing
os ph
Ġ18 5
C R
U s
Ġm amm
Ġworld wide
Ġspe aking
Ġwor se
Ġrec ip
Ġwind ow
as er
ag ues
Ġb le
Ġd ental
Ġun less
Ġland s
ob e
Ġmed ication
L E
Ġse lection
Ġwarm ing
ĠSc ient
Ġimpro ving
B N
ĠFlor ida
al ysis
Ġ199 9
ĠT er
Ġvolunt e
ter ies
and a
ĠM a
Ġleaders hip
ĠCol umb
Ġexperim ents
Ġf ill
Ġcomprehens ive
ĠK en
Ġdi verse
Ġint ake
Ġind ex
Ġact s
Ġstart s
Ġl ibrary
le ments
Ġrepe ated
Ġdec line
Ġext ensive
l iam
as ive
er als
u a
ag ers
Ġdatab ase
Ġfig ures
Ġlat ter
Ġpo et
R e
st on
Ġmanufact uring
Ġle af
Ġbehavi our
rop ical
Ġsurv ival
Ġst ick
or row
Ġmin im
Ġcreat es
app ing
Ġn an
Ġ <
Ġcop y
w ar
Ġag encies
or ith
Ġguid elines
Ġdoct ors
im er
ang ed
Ġnet works
Ġpl ate
r ors
Ġcar s
ĠL abor
Ġtrans mission
Ġd edic
ĠI d
r us
Ġdep os
Ġansw ers
Ġelect ronic
Ġass istance
Ġfram ework
Ġsu itable
Ġind eed
ab ric
ĠG ood
og ue
n ormal
ĠD iv
Ġposs ess
as p
ĠA tt
Ġwild life
Ġcl oud
g ent
Ġm ur
Ġpre m
ĠL eg
Ġsurv ive
ĠI N
Ġ198 0
in i
Ġforest s
Ġg all
Ġrem aining
Ġrout ine
Ġw id
Ġto w
ĠB ro
Ġint ellect
ĠOff ice
Ġdist rict
Ġim per
t age
Ġachie ved
Ġaccount s
f low
Ġread ers
ĠRe view
Ġed ge
Ġlandsc ape
Ġ3 1
ĠAn n
Ġharm ful
Ġt ail
Ġeng age
in n
Ġtw ice
Ġtrans ition
st ruct
Ġg ather
Ġdo or
S e
Ġn urs
ĠN ations
Ġun iverse
ot o
ĠA lex
Ġac celer
ĠPro v
Ġs ell
Ġfound ation
Ġab und
Ġcalc ium
l ast
av a
Ġb io
Ġcho ices
or ter
ĠR ome
Ġmount ain
ce ived
Ġbud get
Ġf illed
ht m
C ont
Ġpl ays
Ġslow ly
Ġw ww
Ġext ended
ans ion
Ġsch olars
ere nt
Ġf ell
ĠAn y
Ġsequ ence
Ġinj uries
Ġch art
lud ing
Ġsur f
ash ion
Ġequ ival
Ġgener ated
Ġantib iot
Ġsee ing
7 7
Ġt iny
Ġsupp lement
liam ent
Ġrem ote
Ġhealth care
u nder
Ġre ject
ĠT HE
Ġcour ses
act s
ĠComm on
ar ia
Ġam b
Ġprodu ces
Ġaff ord
ab its
ĠO F
Ġbro ken
Ġtro ops
. âĢĻ
Ġagree ment
Ġlabor atory
Ġen vironments
Ġst omach
Ġcircumst ances
4 9
Ġprofession als
Ġdisc ipl
Ġexpress ed
b orn
Ġtru ly
ĠProf essor
ĠGl obal
us ing
Ġun known
ĠEx pl
Ġaud ience
Ġswe et
Ġd ust
ĠAb out
Ġhapp y
U R
ĠV ict
Ġp ull
Ġsp orts
Ġw ants
ĠTh ose
Ġjour ney
Ġbat tery
Ġf ly
Ġfail ed
Ġa f
Ġdom in
Ġair craft
Ġcult iv
C T
ic an
Ġobt ain
Ġstrugg le
Ġimplement ation
w ing
Ġsh aring
Ġgra v
ig ation
Ġdec ade
Ġfoss il
Ġen able
Ġopen ing
Ġh us
Ġc atch
Ġsk y
Ġder ived
m ary
ĠOn ly
if orm
Ġmain tenance
ĠTh rough
Ġa qu
re land
um s
Ġinsect s
r ont
Ġbenef icial
Ġconsist ent
Ġtra um
ĠY et
Ġdoub t
ĠS k
ĠL ong
Ġchild hood
Ġch olesterol
Ġdec ide
Ġperman ent
Ġmar ried
Ġmult i
n o
ar ant
Ġac ids
z en
Ġsent ence
Ġman aged
Ġer ror
Ġgreat ly
ĠB re
Ġth or
it an
Ġloc ations
Ġsuccess fully
St ud
Ġw ish
Ġl ots
R ead
Ġsw itch
Ġ5 00
ĠG et
Ġsk ill
ct ive
Ġtell s
Ġfl av
Ġconstit ution
ic ians
Ġste el
Ġ >
Ġnew sp
Ġsol ve
Ġrem ind
ic ide
ĠUS A
Ġrespons es
Ġeth nic
Ġstudy ing
it t
ĠAustral ian
in ction
it a
4 7
Ġopt im
Ġa x
.. ..
b ody
Ġ3 00
ĠI ll
Ġ199 8
Ġrepresent ed
Ġcor n
Ġorgan ized
Ġmechan ism
ĠDes ign
ĠD an
ĠJose ph
Ġindic ates
Ġun s
ĠF e
ĠCommit tee
rib ed
f rom
Ġsign als
Ġg al
k es
ĠA I
ĠG old
e per
st one
Ġcult ures
Ġmolec ules
p et
Ġauthor ities
Ġcomp r
Ġopp osite
Ġrepl aced
ĠC are
âĢ ĺ
it ative
b ut
Ġdesc ription
E n
ĠP eter
k i
i very
ed u
us al
Ġa er
Ġd aughter
Ġinstit ution
n y
Ġdifficult y
Ġprinc ip
Ġbe ar
Ġyoung er
Ġconsum ers
Ġfix ed
ific ations
z il
Ġd in
Ġs ight
le vel
Ġcare fully
w o
ĠSt reet
ĠPar is
Ġun able
Ġcol our
Ġhyd rogen
Ġdestroy ed
ĠL ab
Ġcomp osition
t hen
Ġalg orith
Ġd ensity
r ine
ĠRep ort
Ġa th
ĠSt at
w ord
ĠDise ase
Ġmark ed
C an
ph one
Ġf asc
Ġin ner
Ġphilos ophy
es ter
ĠM ad
Ġun p
Ġthous and
ce l
ĠB ul
ym ph
Ġf iber
g u
ut s
ĠI reland
ink ing
f ish
Ġsupp lies
Ġinter vention
Ġc art
oc y
Ġag ency
Ġref uge
ĠSou thern
Americ an
h and
g ans
Ġrem ark
Ġf alse
le ts
Ġ197 0
Ġinteract ion
Ġphot ograph
Ġla un
t ra
a it
Ã ¼
Ġvessel s
Ġout l
ĠH aw
Ġelect ron
Ġcoff ee
ĠS l
ĠCan cer
ant ly
int s
ĠStud y
Ġult imately
ell ed
Ġ18 9
ĠH all
Ġra w
0 5
Ġfew er
Ġp up
Ġarr ived
Ġwalk ing
Ġclos er
Ġch osen
se y
ab ul
Ġsh ift
Ġs od
ĠR ad
ĠH ome
Ġbo ost
Ġg one
Ġour selves
Ġfound ed
S ince
Ġdedic ated
en a
Ġsim pl
Ġimmedi ate
Ġgl uc
Ġam az
Ġhand le
Ġcut ting
ic ago
ĠG al
ĠK h
P e
I L
Ġlim its
Ġen ds
Ġpurch ase
ir ation
ĠC ult
Ġlifest yle
ste in
ĠT ime
Ġstand ing
Ġdes ire
Ġatt end
ir ty
Ġmix ed
Ġemot ions
ap ed
Ġlist en
Ġhigh light
k ins
Ġeval uation
Ġjo in
op y
Ġb rand
Ġcolle agues
Ġw itness
Ġreg ist
âĢĻ ,
Ġhe ro
ipp ing
Ġcrit ic
ĠN orthern
ag on
Ġnecess arily
Ġrat io
Ġz one
Ġm ac
Ġacc um
Ġpar alle
Ġm ild
is ters
E P
c alled
t op
um es
Ġcirc uit
ĠE th
Ġdi oxide
Ġreg ulations
Ġsupport s
f ortunately
ant a
ĠC amp
Ġatt ached
Ġgre w
ĠEx p
Ġmechan isms
ĠN atural
Ġreg ul
es is
ĠCl in
Ġcom ments
Ġp us
Ġocc asion
itud es
th rop
Ġcompar ison
ĠC at
ĠC a
ĠM ag
Ġcar b
Ġfight ing
Ġy ield
Ġknow s
Ġn ine
Ġv oc
ĠAcad emy
r ating
Ġsuc ceed
Ġal le
Ġac know
Ġtransport ation
ĠIt aly
Ġn erve
Ġhe m
h op
z ed
in ity
Ġpers ist
Ġsupport ing
Ġdeb ate
Ġparticip ate
rib e
Ġstand s
ĠSt ep
cy cl
Ġtw enty
h av
ic on
Ġne ck
U N
Ġres olution
ĠD et
Ġread er
Ġcommunic ate
ĠB rown
Ġpre val
Ġconvent ional
B l
Ġst roke
5 5
Ġsh ips
ĠAd minist
om ic
Ġun us
Ġover l
ĠFr ank
ĠI P
Ġwrit er
or ous
Ġbehavi ors
Ġcont ained
ĠV is
Ġcl ust
Ġpow ers
Ġsub s
Ġmem br
ĠVal ley
Ġun iversity
Ġrel ax
Ġbig gest
Ġwh atever
st s
ĠE xt
Ġdown load
iz er
he ast
ter ing
ĠIS BN
ut ch
ĠEx per
____ ____
ĠAd d
Ġbreat hing
Ġris ing
L et
Ġconc rete
Ġfeed ing
Ø §
c her
Ġob esity
Ġwill ing
ĠSp ain
br idge
ĠP ub
r d
Ġt ank
Ġd ent
Ġb read
Ġeas tern
Ġve ter
Ġv ote
D P
Ġf abric
ct or
Ġm old
t ic
Ġb order
ĠCol or
n ect
is k
ors es
Ġinstruct ions
Ġe ld
Ġvulner able
Ġunder lying
Ġorgan isms
ĠSc iences
ĠA S
Ġfeed back
Ġc ats
Ġdraw ing
or a
in ating
Ġmach ines
Ġmagn etic
Ġpr on
c omm
he ther
Ġturn s
Ġfrequ ent
Ġp ra
Ġ196 0
Ġe pid
ot ion
ĠS ol
I nt
Ġarchitect ure
b our
rit ing
Ġterrit ory
s uch
Ġte en
Ġex ists
ion e
ĠB ank
B S
ĠRich ard
F igure
Ġhous ing
Ġwhere as
Ġacc ident
ĠCarol ina
Ġcomp ounds
te en
Ġro of
ĠEmp ire
et ime
Ġpresent ation
Ġres erv
0 1
Ġser ver
Ġla unch
Ġgreen house
Ġgu arant
ĠRev olution
Ġl ies
ĠR oyal
ĠO cean
Ġh abits
Ġsm oking
iction ary
ro vers
Ġin hib
ĠBo ard
Ġtra ined
Ġfunction al
ir ds
st ract
Ġcont amin
Ġno ise
Ġinstru ments
Ġm ice
ri ers
ign ed
Ġpercent age
ĠE nd
we ight
Ġhor iz
ir atory
Ġ199 7
n et
Ġte a
Ġsupp osed
Ġexpl o
Ġdemonstr ated
ĠP enn
Ġp ool
Ġc row
y les
ĠâĢ ¢
Ġk it
Ġreact ions
est ed
Ġdemonstr ate
ĠR ob
Ġfund s
Ġins urance
on ia
Ġconn ections
Ã ³
ear chers
el ess
ell a
Ġpro ve
Ġjo ined
Ġb ot
Ġresult ed
Ġt aste
Ġdist ur
Ġimprove ment
Ġpsych ological
Ġcapt ure
rodu ction
Ġbut ter
Ġrecogn ition
wh ile
Ġplay ers
Ġm ent
st ruction
6 6
Ġart ificial
it tle
Ġch ick
u ps
Ġr u
ir t
Ġequival ent
Ġt all
ĠM ill
it ter
Ġch rom
Ġne ur
Ġconf idence
Ġsh ot
Ġemploy ment
4 2
Ġus age
Ġadminist r
Ġsc ript
Ġobserv ations
Ġa stronom
Ġcal ories
Ġsh ut
Ġcompet ition
Ġtiss ues
Ġst able
Ġsur ve
Ġbl ocks
Ġdeb t
Ġs ections
ir us
pl ant
ĠF ort
Ġpart ner
he red
Ġa head
Ġf u
ĠW ood
Ġr hy
Ġsh op
L A
ĠT imes
ĠP ract
Ġiss ued
Ġgener ations
Ġcry st
ĠAg ricult
Ġmat ters
ĠMich ael
ult s
Ġbelief s
Ġpre v
Ġdef e
Ġh ur
e en
h ow
x ts
ĠBra zil
Ġm and
Ġvol tage
ain e
Ġtr ials
Ġnear by
Ġen emy
Ġvari able
ĠG ard
Ġexam ine
p an
ab led
Ġsm oke
ic ious
ĠF orm
edi atric
ear ing
Ġdel ivery
Ġcustom ers
Â ·
hes is
anc hes
ĠP an
dition al
Ġc ards
Ġdel ay
Ġhyp othes
c ar
Ġc up
7 9
Ġleg s
Ġwas n
Ġman if
Ġarr ange
ĠO h
ult y
ia h
sc ale
er ior
od ing
Ġcam era
C D
Ġprom pt
N ot
ĠCh icago
Ġcon clusion
Ġent ry
os ion
Ġsp ok
Ġfl ag
Ġdiagn osed
ĠSc ott
Ġcount y
ak ed
L ear
Ġdef ine
Ġr ank
Ġpain ting
Ġpolit ics
F irst
ap h
Ġprogram ming
Ġparticip ation
Ġb oy
Ġre cept
Ġg ap
Ġestim ates
R ec
p read
Ġobject ive
c ons
ut er
ĠP C
Ġcent re
Ġm aps
oura ge
Ġlay ers
ĠF ree
ever al
i h
ĠN ative
it ivity
Ġevery day
4 3
ĠSt r
Ġins ulin
u gh
ĠB ab
Ġsw im
Ġinteract ions
Ġz ero
per or
Ġrel ation
Ġhold s
Ġexplan ation
ĠC ap
Ġcr ime
Ġstr ing
ĠSc ot
ite ly
i ability
Ġco vers
ĠKe ep
Ġdang er
Ġth y
Ġshe et
Ġfram e
ol n
ĠC reat
Ġlegis lation
L e
ides pread
Ġsett ings
ĠW ik
Ġle ct
I P
Ã ¶
et her
Ġfor get
Ġman ip
Ġp air
ĠCl imate
Ġf old
Ġbr idge
Ġd rain
ĠVict or
Ġpos itions
Ġoper ate
Ġtri p
Ġunder t
e enth
Ġsc an
as ters
rit is
Ġmod e
g ov
Ġag reed
Ġm eth
8 8
ĠII I
Ġfl o
Ġsubst ances
ĠInd ians
Ġconsum er
Ġso le
Ġaccess ible
Ġindic ated
Ġp apers
ĠF ace
Ġ7 5
Ġinvol ving
ĠP M
Ġindepend ence
% )
Ġcoast al
Ġ3 6
ĠIr ish
Ġmat ch
ĠD iff
Ġdep artment
ĠGu ide
ĠD ig
u h
ur rent
Ġphys ics
us iness
ish ment
et ics
I G
Ġsp aces
Ġele ction
Ġa ward
Ġassoci ation
Ġlaun ched
Ġbur ning
ic it
id ity
Ġn ob
Ġcateg ories
a ud
Ġcommit ted
Ġis lands
Ġrel iable
Ġpo ison
Ġm os
Ġrel ief
igh ter
ol a
Ġro w
ĠE ss
Ġbr ings
Ġrout e
Ġput ting
Ġb low
Ġsac r
Ġelect ro
Ġ199 5
Ġpass age
M ed
Ġmaint aining
Ġdo i
or ph
Q u
Ġfor th
Ġor gans
Ġcontrol s
Ġn one
ĠS ing
Ġb anks
Ġdest ruction
op es
ĠH oly
Ġfe ver
Ġf ract
ĠZ eal
Ġinteg rated
ĠB ig
Ġest imate
Ġsp ending
Ġemploy ed
O f
Ġrep air
ĠGe org
Ġob lig
I A
Ġt ight
Ġre ven
Ġmin erals
az ine
Y our
f it
Ġcon ven
and on
Ġexp ansion
Ġbo ys
I R
Ġsm ooth
Ġgluc ose
Ġindust ries
Ġrun s
oc c
Ġme al
ut rition
Ġv s
Ġcol umn
Ġt ons
Ġ ille
Ġconstruct ed
Ġh un
ploy ment
Ġend ed
ĠL anguage
Ġhold ing
Ġadequ ate
Ġon going
s he
du le
Ġcirc le
Ġcr im
ĠC re
4 1
ent ed
Ġkid ney
Ġs ke
oc ation
Ġmet ers
Ġhus band
Ġr ing
ĠP y
Ġear n
Ġ15 0
ĠH ave
O nce
Ġr ivers
Ġb iod
Ġearth qu
Ġg ram
Ġne ither
oh yd
c ul
Ġappro ved
Ġc m
Ġm m
ars h
Ġrece iving
Ġdam aged
Ġchalleng ing
Ġdep art
Ġf ashion
ĠEar ly
Ġar rest
Ġmolec ular
is dom
in ally
Ġreal ize
Ġnerv ous
Ġ199 6
op les
Ġneg ot
Ġmoist ure
ĠServ ices
Ġlov ed
Ġent ered
Ġask ing
Ġphot o
Ġintellect ual
Ġb ond
io x
Ġcateg ory
ĠE astern
um ps
Ġsou l
Ġlegis l
M L
Ġv ac
Ġro cks
Ġdist ributed
Ġexerc ises
Ġdiv ision
Ġor ient
ĠIt alian
Ġâ Ĩ
Ġpro hib
Ġmark ets
Ġst reet
Ġte xts
Ġsc ene
Ġstrong ly
Ġdra wn
Ġm ales
inc oln
Ġhistor ic
O ver
Ġfem ales
Ġdom ain
Ġtrou ble
Ġh ole
ĠZeal and
g ers
ad ing
Ġtur ning
Ġast hma
Ġwa it
Ġmeasure ments
I M
Ġw idespread
ĠFam ily
ure au
Ġpublic ation
Ġre ly
op ic
Ġvirt ual
Ġhon or
Ġmiss ing
ĠT ake
ort ion
ib l
Ġevalu ate
Ġ3 2
Ġbe ings
lies t
m aking
Ġdecl ared
ĠPart y
al m
ĠAtl antic
Ġinst alled
Ġwith d
Ġprepar ation
cycl op
et t
ĠW here
Ġdesign s
Ġdiscrim ination
Ġint ense
O L
Ġh olid
Ġvirus es
ĠJ ac
E ven
Ġk ne
V ID
Ġwor ry
Ġsh if
Ġmere ly
Ġrecommend ations
Ġsome what
Ġbreat h
Ġm ood
re y
Ġdoll ars
Ġredu ces
ĠA ccess
ĠM er
ĠKing dom
Ġstim ul
Ġn est
Ġparalle l
abul ary
ĠC op
Ġcomp osed
he rent
Ġcont rovers
ĠS up
Ġout bre
g ical
Ġtrans p
Ġf urn
Ġst rict
Ġp ed
Ġr ig
Ġtra ct
Ġconstant ly
ar n
ir al
ĠY ear
p es
Ġsignific ance
Ġrenew able
m es
r ial
Ġvictim s
C A
Ġsee king
ĠFore st
Ġthan ks
ĠMart in
ĠA cc
Ġr ice
Ġproport ion
Ġpregn ant
g s
Ġst re
r ary
Ġbab ies
he alth
Ġmechan ical
Ġesc ape
ig an
Ġseem ed
Ġguid ance
s is
all s
Ġt el
ĠE ffect
ident ial
air y
ĠP rop
op eration
Ġexam ination
Ġr id
' m
al a
ĠE qu
Ġconvers ation
Ġmathemat ics
D on
Ġphenomen on
8 5
b ra
Ġpl us
Ġfac ing
Ġag ents
Ġful f
ĠT V
Ġoff ering
ĠA ge
ĠSec urity
Ġfac ility
v a
r ite
Ġf ro
Ġcent ers
Ġeng aged
Ġmov es
ree k
Ġche st
ĠS at
C E
row ing
ĠWind ows
Ġarch ae
Ġad vert
ĠTe ac
ĠC y
Ġdepend ent
ĠD ar
Ġro les
Ġbring ing
ĠR om
Ġcomp are
ast y
Ġph arm
ĠCo ast
force ment
ive red
ol esc
Ġhe ating
ad y
onom y
Ġsc ore
Ġout come
Ġbi ology
ins on
he nt
ĠI ss
Ġann ounced
r ane
ĠP lease
B ecause
ov en
he imer
C H
os h
Ġconfirm ed
Ġvol can
ad ed
Ġcontem porary
Ġthe ories
Ġmess ages
ĠH ill
Ġrespect ively
ĠA gency
Ġinc red
Ġmeasure ment
am ins
Ġcrim inal
Ġsatell ite
Ġh orses
Ġaccur acy
Ġp ounds
ĠL ib
Ġoffic ers
E very
Ġs ought
Ġdis char
Ġthem e
S S
Ġbl ind
ĠS ometimes
ĠV iet
Ġmin ing
Ġfavor ite
y al
Ġcom plicated
Ġpass ing
h tt
Ġbeaut y
ro oms
Ġart ists
es ides
ĠBe fore
Ġdef ense
Ġpl enty
ĠRes ources
Ġfarm ing
Ġdo se
it amin
Ġserv ing
Ġfour th
Ġcarry ing
0 6
ord ers
7 1
Ġmaint ained
ĠN az
Ġconsider ing
ĠC ast
hy d
Ġra cial
Ġcrit eria
i ological
ĠP op
Ġbe es
Ġmetab ol
m edi
ĠE p
ĠCh ange
a ired
Ġc av
Ġsurf aces
ID S
ĠL ist
U T
Ġingred ients
Ġcl othing
qu it
Ġim plications
Ġd ys
Ġrare ly
Ġab andon
ĠAng el
her ic
Ġfair ly
Ġb ath
Ġscreen ing
Ġstat istics
ĠL ar
Ġcollabor ation
Ġh oney
M e
Ġcomb at
inc luding
Ġtele vision
% .
est ion
ĠTh ough
ex ample
Ġprevent ing
acc o
Ġvisit ors
ĠMore over
Ġs ession
Ġpro of
ĠM el
v ard
Ġj ump
Ġsecond s
Ġimplement ed
ĠAs ian
ĠSec ret
Ġweap ons
Ġint est
A m
Ġclaim ed
Ġexperim ental
Ġthe ore
Ġang le
Ġ id
Ġw ound
Ġsh ock
ag ram
Ġinterpret ation
Ġinf ect
ĠSpec ial
Ġfor g
Ġdef end
Ġopp osed
Ġ6 5
Ġmicro b
Ġphot os
Ġt ub
Ġins ert
ĠP olic
Ġab normal
Ġess entially
ĠChe ck
t rans
ollow ing
th ritis
vent ions
Ġtem ple
Ġvari ables
ĠHe b
Ġar ts
Ġshap es
Ġattempt s
ĠM en
Ġtown s
Ġc oc
ĠH y
Ġ19 50
Ġmin ute
Ġinfluen ced
f l
Ġconsider able
ĠI ran
ere n
ind er
omm od
Ġl ake
ĠOx ford
Ġin her
Ġprov en
Ġown er
Ġinterp re
ixt ure
ĠP o
Ġnit rogen
it ual
Ġadvant ages
Ġbre eding
ĠD en
Ġpar as
s m
Ġem pt
Ġpan el
Ġs ail
Ġdes ired
Ġimag ine
rain ing
ĠS il
Ġcare ful
Ġev il
Ġknow ing
Ġbr anches
Ġelect ed
Ġn ose
S u
Ġt ube
Ġir rit
ip edia
Ġc osm
Ġp ush
out s
Ġmicro sc
ĠChrist mas
Ġsign ed
7 2
ra q
Ġph osph
Ġover w
o om
ad der
Ġpres ents
Ġtarget s
Ġsubsequ ent
ĠW ord
Ġin n
Ġdel ivered
re ated
an i
Ġcl ar
Ġfin ished
Ġunc ertain
Ġeffect iveness
Ġor bit
og ether
Ġaim s
ĠG rand
Ġcapt ured
ĠColumb ia
Ġanal ys
g reg
Ġass ume
Ġpe ak
Ġencoura ged
ĠDist rict
Ġsurpr ising
Ġit em
Ġstrong er
Ġcre w
ook ing
Ġprincip al
Ġde aling
Ġex clus
Ġac ute
Ġdis aster
Ġinform ed
T oday
Ġcomp ound
ĠL incoln
Ġart ist
Ġr oughly
Ġplan ned
ĠPl ant
ĠDirect or
O C
Ġf er
Ġabs ence
ess ions
Ġgradu ally
Ġcook ing
Ġjud ge
ĠFurther more
ĠWh o
Ġpro ceed
Ġcomm ission
ĠO pen
Ġequ ally
the less
Ġplan e
Ġexcess ive
o ids
at ial
Ġwrit ers
Ġbr anch
Ġg ro
ap se
Ġresp iratory
Ġrad ical
Ġunivers al
Ġdef ect
am ine
ĠKore a
ill a
ri z
Ġter ror
ĠS ym
Ġmod ified
Ġprov ed
ou red
ĠP et
ĠAm ong
7 3
Ġd ates
it arian
ĠW all
ĠN on
t les
ĠAd v
ask a
ov ascular
ri end
Ġteam s
an ing
iox id
Ġt ut
Ġro ads
ĠM D
Ġstruct ural
Ġla id
Ġremov al
p rodu
Ġmin eral
am ination
Ġinf ant
Ġclean ing
ĠB ill
en ess
Ġre ward
ĠE U
Ġcomfort able
ĠM ethod
Ġreg ulation
Ġassign ed
ual ity
Ġde eper
Ġdet ection
rou s
Ġunus ual
Ġord ered
Ġfl our
Ġbig ger
ĠL ow
Ġmay be
7 4
ĠYou ng
Ġmort ality
ĠCommun ity
Ġelimin ate
Ġ4 00
ĠNet work
Ġ199 4
Ġwar ning
Ġflow er
Ġfocus es
ict ed
ĠArt icle
ĠAdminist ration
ish op
ĠSw ed
ot ype
Ġus ual
ĠF und
Ġexam ined
Ġdifficult ies
ren e
or ic
ĠCent re
ĠDo es
Ġserv es
ĠS ar
Ġl ie
em ia
6 8
Ġc ash
ĠR esp
m ers
Ġtrans lation
Ġcomp ens
Ġdec or
ol ving
Ġst ead
Ġer rors
Ġfall s
O r
ĠR ock
Ġsl a
ĠV en
Ġtrad itions
Ġf ed
e ut
Ġhorm one
Ġfish ing
Ġneighbor hood
Ġnew ly
ru ption
Ġ3 8
Ġbi om
on ym
Ġplay er
N ote
ud e
Ġemb ry
P R
ro at
Ġobs erve
Ġkil omet
ro x
Ġsp ort
Ġconcer ning
ag raph
o ir
Ġvar ieties
Ġout er
r ance
om er
ian a
Ġgu ard
Ġsuff ered
erson al
Ġed ition
Ġinvestig ation
ĠM S
Ġphysic ian
il ation
act ion
ĠF our
Ġ Ð
Ġst uff
Ġg ained
ĠAN D
Ġamaz ing
C omm
v in
b ar
un icip
Ġident ification
ĠD espite
9 8
Ġim aging
Ġfun g
Ġspect rum
Ġenc oun
Ġflow s
Ġc ab
el i
Ġinit ially
Ġconf ig
uck y
ĠG r
cl ass
ost on
Ġcor ner
ĠS und
Ġbre ed
Ġscient ist
Ġcharacter ized
z heimer
ĠInd ust
arent s
Ġf est
Ġsla very
Ġgal ax
ou nce
Ġsit ting
Ġcere mon
Ġd rought
Ġtreat ing
Ġconsum e
Ġwind ows
so ft
it als
og rap
ĠAd ditionally
Ġaccomp an
ru it
Ġro se
ĠChrist ians
i at
Ġy e
Ġch lor
l van
Ġt ropical
elf are
ĠSu per
ist ical
Ġex ceed
Ġexcept ion
ĠFin ally
Ġath let
Ġsp in
ĠFace book
Ġform ula
Ġcor rel
Ġsatis f
O M
Ġthreat s
Ġprint ed
ĠJe ff
ĠOrgan ization
Ġal ter
ĠK ar
Ġhapp ening
Ġisol ated
am ing
Ġc aught
ĠT im
pr int
Ġcop per
ĠP en
Ġinnov ation
pt ions
ĠSt ar
og a
Ġp estic
Ġstate ments
Ġmar ks
Ġtur b
Ġw ine
ĠV er
ĠPr inc
Ġre ct
Ġst ores
f ts
Ġsubstant ial
ot ton
an o
Ġear liest
Ġdem ands
og s
Ġlearn ers
Ġtrend s
Ġ )
Ġvide os
Ġsen ior
Ġra b
Ġdiam eter
Ġcom plications
Ġcon j
Ġconf erence
Ġtrig ger
ren cy
Ġper ception
Ġh oles
Ġhe aling
Ġg ut
ric ts
Ġwors hip
Ġany where
Ġp it
Ġun w
Ġshar p
oc ial
ogen ic
lish ing
Ġep is
ĠL iter
Ġdecre ased
htm l
Ġint ent
Ġfac ed
ĠSup reme
Ġfil ter
Ġvar iation
Ġdet ected
Ġprom inent
Ġconsider ation
Ġrepresent ation
b les
Ġdr iven
ĠM oon
Ġhaz ard
Ġgrant ed
ra ys
Ġinsp ired
ĠTh ree
C omp
e ffect
Ġmeas uring
Ġsettle ment
ĠU r
com ing
Ġch am
ĠW orks
Ġen orm
Ġprocess ed
isc o
ig ue
A pp
ĠE r
ĠA M
Ġmount ains
sy lvan
Ġreve al
Ġdes ert
Ġam pl
en ger
Ġc ort
Ġun ion
Ġsu p
Ġconclud ed
Pe ople
i ary
ĠE st
ic ate
ab eth
ĠDe v
Ġliter acy
ort ed
ĠI raq
6 4
ĠT ype
ie val
Ġrem ed
Ġdis abilities
Ã ¢
0 3
Ġo v
se ll
Ġcl ient
im a
Ġwhe el
Ġind igenous
Ġlist ening
th m
on al
S he
ĠCons ervation
ust ain
P er
n ight
Ġacc ommod
ĠA P
Ġsub t
ĠC ell
ĠL o
othe rapy
E d
ĠS ign
Ġdirect ed
re qu
Ġac res
Ġadd s
Ġg iant
Ġas c
all ow
ative ly
Ġr itual
ĠN ever
Ġdem ocracy
c hen
Ġmus ical
0 4
ak istan
Ġpo em
Ġm ic
Ġautom atically
A A
Ġoccur ring
Ġar ray
le te
p d
0 8
Ġl ymph
Ġsche dule
erm an
Ġcorrect ly
ro t
u its
Ġs ales
Ġed itor
ĠC ross
Ġb ag
Ġv an
Ġab ilities
ĠAm az
Ġgir l
Ġad m
Ġchann el
Ġover come
Ġidentify ing
Ġstreng then
qu ir
Ġgra in
ost ic
ane ously
Ġsun light
ĠLear n
Ġpe oples
u rolog
Ġexperien cing
Ġint ensity
Ġev olved
Ġal ph
ĠIn s
Ġcoun sel
re al
C ol
Ġb omb
Ġst ations
Ġcarb ohyd
Ġrec over
ĠS ir
aw s
Ġlight s
Ġgr id
Ġold est
Ġspl it
ĠT re
ra v
Ġag ed
ans as
Ġhead s
Ġobserv ation
Ġ199 2
ha ust
ig ate
ĠHeb rew
Ġprov ider
E ar
ĠProt ection
j ust
Ġbl ess
Ġobject ives
Ġview ed
it ure
Ġvis ited
Ġsuper ior
ĠL ead
R A
pl ing
Ġfat ty
ic ing
ĠAl zheimer
Ġn ice
d ef
es h
Ġheav ily
Ġ4 8
Ġsil ver
m od
ĠI V
Ġrel ie
ac ent
Ġvoc abulary
Ġgrow s
6 9
ĠJ o
Ġprint ing
Ġasse ts
ir ms
? "
ist ed
Ġfind s
Ġl aser
C ar
ĠSaf ety
Ġsc ar
ĠM ult
Ġcont ribution
Ġregard less
Ġmathemat ical
Ġdiet ary
Ġweak ness
Ġre aching
Ġhe nce
Ġbacter ial
ĠF ather
cent ury
Ġsus cept
Ġdis rupt
Ġext end
Ġcon qu
ot al
Ġinh abit
ple te
Ġsl aves
M ay
ur a
ĠD ou
ĠFor ce
erc ury
Ġst ability
at hered
Ġper m
Ġdynam ic
i op
ĠS and
Ġag ent
ast s
Ġpl ot
H D
ĠSim ilar
Ġdri ver
Ġplan ets
Ġquar ter
ĠP ot
' ,
Ġarg ue
Ġm ir
A B
Ġmy st
et ary
Ġp in
0 9
sylvan ia
EN T
d oor
ang er
Ġper mission
ĠCur rent
it ory
Ġcall ing
ĠRo ad
Ġh idden
ert y
ont al
ĠD utch
Ġme als
Ġ3 3
ane ous
Ġl es
em a
Ġaddress ed
ild ren
Ġwor st
ange red
Ġopp osition
Ġfunction ing
Ġpan els
un a
ĠH or
eg a
Ġemphas is
Ġcover ing
Ġwrit es
Ġst rain
ĠCh apter
Ġform ing
G et
Ġcat tle
g ence
ĠJ ul
ep ing
fore st
Ġr ational
Ġregard ed
Ab out
Ġw isdom
Ġad olesc
ur ches
hold ers
Ġp y
Ġmanufacture rs
Ġcommit ment
ic y
ĠS et
ail able
Ġeduc ators
ĠMin ister
Ġmod erate
ĠEngine ering
Ġal ive
Ġ199 3
br id
Ġengine ers
ĠM ah
Ġad vent
Ġant ioxid
b a
Ġsepar ated
d r
0 2
e or
ĠL ight
cyclop edia
P re
as ant
ap or
et te
Ġdec ay
Ġf lying
Ġconscious ness
Ġg ases
ĠPre vention
ĠAut hor
Ġpur s
Ġj ur
Ġpre ced
ĠQue en
Ġcons erv
end ment
ĠSt art
Ġinnov ative
Ġinter face
Ġvit amins
Ġphr ase
Ġprof it
Ġins ight
Ġm g
Ġaut ism
ĠCO VID
Ġcontribut ed
iz abeth
Ġthere by
Ġm ouse
ĠF igure
ic ular
Ġprov iders
Ġtrib es
s en
ang le
ne ys
ĠOn line
Ġinteract ive
P art
Ġmother s
usal em
Ġb rows
ul pt
ĠN ov
Ġco verage
ĠD C
ĠHe art
Ġ5 5
Ġchar ged
ĠB oston
ĠPal est
Ġoverw hel
Ġst ake
Ġvers ions
ol i
Ġconcent rations
he a
ĠU t
Ġpl ain
Ġarg uments
Ġantibiot ics
m m
Ġprotect ing
er ies
Ġm ixture
Ġv en
Ġille gal
Ġun iform
ĠMich igan
re ction
Ġf ats
ĠN ote
ut en
Ġcop yright
ĠO per
ĠRead ing
r at
im ents
iv a
Ġchem istry
am ples
Ġpol ar
ĠBat tle
roll ed
Ġcool ing
ĠF ire
ĠJohn son
Ġvacc ines
Al so
ograph ical
ĠT op
Ġor b
Ġse at
ĠGeorg ia
ĠA L
h ar
Ġch ap
Ġpl a
Ġra c
as ma
Ġbur ied
Ġacqu ired
ĠT able
ĠPolic y
y er
Ġeld er
Ġres id
ĠPl ay
ĠA T
ad el
Ġad verse
z ym
Ġr an
Ġsl ave
Ġstop ped
] ,
Ġappoint ed
l ines
L ast
ĠH ospital
ĠT om
5 8
Ġwhe at
Ġatt ach
pt ic
arch y
Ġaut hent
Ġtax es
Ġupd ated
are n
Ġrob ot
ĠPol it
Ġpoint ed
Ġbe at
Ġcan cers
Ġsc hed
use t
Ġ vel
C om
Ġh osp
Ġaffect ing
Ġsm ell
h us
at al
ber ry
Ġpres erve
ĠAss ess
Ġsc ores
Ġbehavior al
P r
qu ar
St ep
Ġhard ware
ĠOh io
Ġt ong
Ġfac es
ĠH and
Ġparam eters
) |
. ).
Ġt ables
Ġtum or
Ġs izes
ip her
Ġimprove ments
ĠUn fortunately
Ġqu iet
Ġl ists
Ġexp ed
Ġprotect ive
ocol ate
Ġhousehold s
Ġcontain er
il a
Ġresearc her
Ġdra g
ĠEd ward
Ġdut y
our se
Ù Ħ
Ġcommit tee
Ġord ers
ĠP akistan
Ġprogram me
Ġfar ms
Ġsp ray
Ġord inary
Ġtraum a
Ġ19 30
Ġfl ash
Ġsens itivity
ĠWith out
B T
Ġreport ing
Ġnarr ative
E F
Ġsur ge
Ġsupp lements
ĠIslam ic
. '
Ġsp r
Ġneut ral
Ġcomp rom
Ġt on
Ġdesc ript
Ġhard er
ach uset
Ġdeg rad
Ġintrodu ce
ĠColor ado
achuset ts
Ġ ;
Ġmembr ane
ra ham
Ġiniti ative
Ġmig ration
Ġen ables
Ġk illing
Ġinter ior
Ar t
ĠL ess
Ġfu els
Ġcharacter istic
th rough
ĠScot land
op her
Ġdram atic
it i
Ġin equ
ir th
Ġf ra
et ing
ut ing
Ġhuman ity
Ġl ens
ad ow
ĠM ath
ĠAr ctic
ĠJer usalem
ĠChristian ity
ĠCh o
Ġbelie ves
Ġwonder ful
Ġaim ed
Ġown ed
Ġspok en
ĠG ulf
Ġeth ical
Ġinter ventions
Ġpar ad
H ist
b ec
Ġground s
Ġavail ability
k ind
ĠHe ad
Ġd ance
Ġelse where
Ġfall ing
Ġloss es
Ġnutri ent
Ġexpand ed
u gg
Ġo m
Ġt or
Ġcommunic ations
Ġf ur
ĠO l
Ġinc ident
Ġro yal
Ġwa iting
ric ted
ĠPenn sylvania
Ġlog ic
ĠÂ £
ec ess
Ġpar agraph
Ġemer ging
ĠCam bridge
ur ning
Ġcreat ures
Ġarg ued
I F
im m
am i
id al
be an
Ġbound aries
ĠP ur
Ġc ord
as m
ĠF ind
Ġgen ome
Ġconsum ed
W here
a o
Ġtechn ological
ĠIm p
E G
r ical
Ġeven ing
Ġaud io
Ġexpect ations
ĠDiv ision
5 6
zy me
Ġphys ically
Ġequ ality
d isc
Ġsim ult
Ġpur su
Ġdefic iency
Ġexhib it
al i
Ġcour ts
Ġexc iting
J ohn
gen er
Ġther mal
Ġdirect ions
Ã ¤
ri ze
Ġsens ors
man n
ĠT ry
ĠSur vey
Ġex haust
Ġl ip
Ġher itage
Ġprob ability
ĠL ittle
Ġstre ets
Ġm ine
ĠHar vard
Ġhunt ing
Ġf ought
Ġveget ation
ad vant
Ġreason able
Ġsh oot
Ġquant ity
Ġf ellow
Ġec ological
u um
ĠBo oks
pt om
Ġdis ability
Ġtem porary
Ġatt itude
Ġsub stit
Ġmos quit
0 7
Ġent it
Ġt ort
Ġtem por
Ġf inger
Ġbo at
Ġthreat ened
Ġachieve ment
P ub
w an
ĠL ee
el ve
i ations
Ġkeep s
Ġsent ences
Ġst ones
Ġ199 1
Ġge omet
ly mp
ap es
Ġprop ag
Ġman aging
Ġprov ince
Ġheav en
Ġanaly ze
Ġb are
Ġlung s
á ĥ
Ġp H
ĠR NA
Ġgl ac
Ġflex ible
H S
R C
Ġeng aging
Ġemot ion
Ġch ances
Ġres c
Ġexpl icit
th on
Ġext ension
Ġgra ins
Ġcalc ulated
ĠW ay
Ġent ertain
ĠAn alysis
end ar
Ġestablish ment
ut ation
Ġadv is
Ġbiod iversity
g ien
Ġadd iction
og y
h ire
Ġp and
Ġf o
Ġc ure
Ġbe ans
D S
Ġd im
Ġperson ality
Ġoffic er
Ġperform ing
pl ed
Ġbut ton
Ġcolon ies
Ġl ibr
epend ent
ĠJust ice
y ou
Ġvari ations
ĠMod el
Ġnewsp aper
Ġst yles
ĠConf erence
Ġcardi ovascular
ĠC ard
Ġdis m
Ġ3 7
ut her
Ġmarket ing
Ġenorm ous
ĠSp ring
Ġur ine
Ġtarget ed
ĠC orn
ĠR h
Ġassum ed
Ġproduct ivity
Ġd imens
Ġmy self
z er
ĠId ent
al ities
ĠB usiness
Ġpain ful
ĠMass achusetts
6 7
Ġd ress
ĠO tt
Ġe ase
ri x
Ġgu ess
b ell
iv est
Ġcy ber
Ġste am
ĠC lick
Ġver tical
as hes
ĠF ar
Ġfocus ing
b ox
ĠIs lands
Ġliter ary
ig er
Ġexpl oration
Ġgod s
Ġto b
Ġinvestig ate
Ġplant ing
Ġmind s
Ġox id
Ġper ceived
ĠI T
Ġexec utive
Ġunivers ities
! !
C ons
Ġc as
ĠO bs
H A
Ġf ing
Ġher b
if ice
Ġre verse
Ġse vent
rane an
ĠFranc isco
Ġd ense
Ġatt ribut
ĠSystem s
ĠSp irit
Ġprior ity
ĠBi ology
Ġcontribut ions
j o
Ġmov ie
w orld
un ct
ens ed
ĠHaw ai
ant ed
ist ant
Ġhabit ats
Ġphotograph s
U nder
as y
en ced
Ġempt y
C o
S im
Ġfe els
Ġens uring
Ġcorrespond ing
us hing
ic ian
ĠE PA
ip e
Ġ9 5
ĠD O
Ġsett led
8 9
S m
Ġsoc ieties
Ġremark able
f oot
Ġfat igue
ĠP ass
ĠB a
Ġd uration
ain ts
Ġch air
Ġclass ified
ĠCon vention
Ġemb ra
htt p
ĠL ast
st ant
ĠL in
Ġapp eal
or ig
ou ds
ment ia
are t
Ġtell ing
6 3
J ust
Ġent ering
Ġbat teries
Ġt ick
ĠF act
M P
C P
ĠB ack
ĠJac ob
ĠB u
Ġtrans mit
Ġs ad
ĠPhil ipp
Us ing
Â ®
Ġrequire ment
ĠL y
act ions
Ġ3 9
Ġlif etime
ĠMod ern
ĠAg ain
Ġdri vers
k et
Ġref erences
Ġstri ke
en cing
Ġdeep ly
ĠTest ament
Ġconver ted
Ġg ast
Ġsum mary
Ġcolon ial
Ġwatch ing
% ,
b el
Ġcap abilities
ou l
' .
us cript
Ġsc ope
Ġcustom er
Ġprefer red
ag en
im p
Ġdifferent ly
ĠEl izabeth
Ġshap ed
Ġcontin uing
ĠH im
Ġcl ub
Ġlow est
Ġcollect ive
Ġpass ion
Ġsav ed
Ġecosystem s
Ġtob acco
Ġeng ines
Ġprom oting
Ġaccompan ied
5 9
Ġnot ion
ĠL os
Ġab stract
Ġact ing
Ġviol ent
Ġir rig
Ġg ent
ĠT O
Ġcan n
Ġt ens
C L
the w
) ||
Ġdist ricts
Ġdefin itely
Ġsustain ability
Ġf ires
Ġremov ing
Ġt ip
Ġev ident
Ġadapt ed
ĠAs se
ĠM ur
Ġcl othes
Ġcon clus
Ġgrav ity
ivest ock
Ġequ ation
ag an
R ef
Ġprom ise
Ġlo ose
Ġdr inks
ĠO lymp
Ġcoun cil
Ġmet als
ĠSen ate
Ġcra ck
A re
Ġmar g
Ġw ider
ĠPar liament
Be fore
Ġl osing
Ġcon vey
Ġ20 21
Ġmanif est
Ġf et
Ġdeterm ining
Ġdomin ant
Ġth read
ĠLabor atory
ĠOr ig
k l
ak a
hav ior
in er
Ġsc ulpt
Ġacc ord
Ġenter pr
E ach
ĠS aint
Ġwe igh
ĠTur k
N S
Ġt rick
Ġinteg ration
Ġint ention
rou d
eut ic
hem istry
bor ne
ĠP oint
Ġcl ock
Ġloc k
Ġprof ile
Ġf isher
ce ans
ĠEc onomic
Ġman ager
Ġsod ium
f ast
ĠF red
Ġcomp ost
Ġinf ants
aw are
Ġh all
ĠC r
Ġwould n
Ġer u
Ġver b
ĠW al
Ġclass ical
Ġr anging
aw n
Ġpray er
w as
Ġbe e
te xt
Ġexist ed
N e
ĠWild life
ĠIm m
Ġfacilit ate
5 3
Ġsh ore
ĠInd eed
Ġcelebr ated
um er
Ġcomput ing
ĠD own
er ts
Ġst ood
Ġapp lying
Ġnutrition al
20 10
Ġra ising
Ġwebs ites
Ġw elfare
Ġd airy
ment ation
Ġpre y
Ġwithd raw
ay a
ĠP age
f eed
Ġsp ots
at i
Ġc ow
Ġsp inal
ĠNav y
E E
u an
ch ain
Ġs essions
ĠC irc
Ġvirt ually
w ords
ĠEgypt ian
ail ed
Ġrecy cling
Ġvers us
Ġpoet ry
Ġserious ly
Ġbu ff
Ġapparent ly
Ġ19 20
Ġact ively
Ġor ange
ĠCol l
Ġass ert
Ġlab our
Wh o
ĠAgricult ure
Ġc raft
Ġsong s
Ġag ing
Ġdiff er
ĠC P
Ġob st
Ġtrans mitted
S ec
Ġ Ø
Ġt ension
M A
m ade
Ġd ies
! âĢĿ
f e
Ġd ating
Ġquant um
Ġsu it
Ġocc as
ĠPh ot
Ġagg ressive
ĠConf ed
ĠAlex ander
Ġhorm ones
ĠGree ce
Ġt ack
ĠI D
aw a
Ġsafe ly
pl ay
Ġdev ast
Ġrepresent ative
Ġresist ant
z o
Ġline ar
Ġstrateg ic
ĠAmaz on
ĠG ar
olog ically
Ġbeg un
Ġpsych ology
Ġte ens
Ġvict ory
re f
Ġg athered
Ġas p
Ġhypothes is
r h
ĠS ection
un c
Ġ3 4
Ġha ven
pl o
spec ific
Ġm unicip
ĠSund ay
ment ed
Ġco at
s ub
Ġg if
ful ness
Ġconst ra
Ġliter ally
Ġto m
ĠS olar
Ġdevelop s
Ġclass ic
Ġsens or
' d
ĠPro cess
Ġrec re
Ġbar rier
ĠSt an
Ġsac red
Ġnot iced
Ġres il
us ive
E ng
Ġc ul
is d
it ting
ĠC ub
Ġbal anced
ĠR ail
a fter
Ġw ars
Ġhyd ro
Ġpil ot
Ġneur ons
Ġ ×
ĠD rug
Ġcolon y
Ġp ione
Ġtrans c
Ġfr ust
Ġdef ault
ĠCons ider
Ġinteg r
E A
Ġco operation
p ress
ol ine
Ġcl ients
Ġeng agement
Ġcomplex ity
Ġp ill
Ġun n
ĠS S
Ġch ose
ch o
ĠAs k
Ġlimit ations
Ġc otton
d ep
Ġcont ents
Ġwe aring
Ġd il
se ction
th is
ĠB ang
Ġtel esc
Ġpurch ased
ĠMed ia
l ights
The n
ĠBl ue
Ġread ily
Ġdiscuss ions
ĠTreat ment
ĠDig ital
Ġar med
Ġfac ulty
D espite
Ġant icip
Ð °
Ġre aches
om al
ĠC ode
ĠM ax
un ning
ater al
Ġasse mbly
Ġfund ed
Ġadop t
ĠN ob
Ġm ature
Ġking dom
c in
ĠT own
ick ing
Ġsymbol s
Ġju ice
ab s
est ions
Ġfriend ly
Ġcelebr ate
Ġpartners hip
Ġw at
Ġoccup ied
ĠM ess
Ġs oph
Ġ1 20
Ġpup ils
adel ph
Ġvolunte ers
Ġt one
Ġcontroll ing
zym es
ol t
ĠH a
Ġspace craft
Ġstream s
ĠAv oid
Ġchrom os
g a
th od
Ġreal ized
Ġsh orter
Ġpriv ile
oper ative
Ġgra des
bo oks
5 2
E O
am il
od ed
Ġsol ving
ĠP u
Ġear s
Ġse es
6 1
Ġc rown
Ġperson nel
Ġemer ged
Ġinvolve ment
f riend
Ġcon vert
ĠB al
ond ay
Ġtre m
Ġvir al
Ġexpert ise
ĠN O
Ġacknow led
ĠS everal
ic ts
Ġinc ent
Ġsche me
ĠA R
Ġfore cast
Ġlog ical
Ġvar ies
Ġch urches
Ġcomp ass
ĠHer itage
Ġdisplay ed
ob ile
Ġsp an
L ike
ru e
Ġp airs
il st
ĠCont in
cl aim
Ġfin ish
al so
Ġam ino
Ġimmig rants
Ġsp oke
Ġrest ore
Ġbar riers
agn etic
ĠKe y
Ġholid ay
20 11
Ġbre aking
ĠSecret ary
at us
ĠR ight
Ġorig ins
Ġo ste
Ġsc at
Ġt act
Ġv ibr
g reen
Ġman ual
Ġspec ified
iter ranean
ĠInc re
Ġsu g
ĠG all
Ġc ough
ĠM ach
Ġsp atial
lect ed
Ġunlike ly
Ġassoci ate
Ġlight ing
S ource
Ġal ign
Ġreplace ment
Ġ19 40
m ail
Ġ198 9
Ã ±
Ġreturn s
Ġat oms
Ġopin ions
ol s
Ġan ger
Ġspecial ized
Ġs aving
Ġmod ule
20 12
: ||
if ier
20 13
Ġg ift
osp el
ĠMuslim s
Ġc ub
Ġde ploy
Ġpreval ence
Ġreg ime
Ġent hus
Ġpost s
Ġpe er
Ġcould n
Ġcho osing
ĠMus ic
r in
iz z
Ġh at
Ġg um
Ġhand ling
ĠA st
ĠF il
Ġpay ing
ne um
Ġasse mb
adelph ia
Ġrec ording
ĠC T
Ġt ap
R el
Ġn om
Ġplant ed
ino is
Ġowners hip
s we
-- --
ĠStand ard
ĠB uilding
m ond
iz ers
Ġveget able
Ġreflect ed
ĠD ie
T ra
ĠWik ipedia
U se
Ġs ons
Ġcell ular
ĠCh ief
Ġaut o
Ġcur ve
Ġh al
Ġth roat
chn ology
Ġind irect
ĠL im
Ġmeaning ful
Ġble eding
ĠAb raham
ĠTem ple
Ġtra ce
Ġmamm als
Ġs hed
Ġtra its
R ep
B M
Ġevery where
Ġrest aur
Ġdro pped
Ġb orrow
Ġre ef
Ġbreak s
Ġanaly zed
6 2
Ġche ap
Ġexpl oring
ĠViet nam
Ġas h
Ġpen et
Ġsurpr ise
Ġenjoy ed
ĠDan iel
Ġtong ue
if er
ĠK ent
o ons
Ġqual ities
Ġfif th
c ut
Ġg ly
ĠF arm
Ġdra ft
Ġoil s
Ġut ility
Ġpres erved
Ġcompet itive
ĠM ove
ass ium
G e
re ens
Ġp el
oc ated
Ġrepresent ing
Ġpass es
Ġpro x
ĠAnd rew
sh aped
Ġmax im
ĠK ids
ĠC apt
Ġsc iences
Ġann ually
se x
Ġjoint s
ov es
row th
ĠFr id
ĠIm pro
Ġchick en
Ġvis its
Ġdis advant
Ġalgorith m
Ð ¾
ĠHistor ical
Ġal arm
ĠV e
ĠPer haps
Ġminor ity
Ġearthqu ake
P s
Ġdesc end
Ġpresc ribed
f unction
Ġp ets
ĠH um
Ġworks he
Ð µ
ĠN eed
Ġp ace
Ġpract ition
T wo
Ġw ing
Ġu l
Ġres erved
Ġpriv acy
Ġgradu ate
O D
ment al
Ġt ill
Ġs ulf
ĠComm ons
ot ypes
acks on
ĠIn vest
Ġref used
Ġnut s
5 4
m ble
ac les
Ġun cle
Ġs ale
ĠC reek
Ġaddress es
Ġbur den
ĠSm all
Ġsh r
Ġadv ances
on ents
Ġrest oration
P ost
l ock
Ġsleep ing
ĠBe ing
Ġt ends
Ġatt itudes
Ġbu ying
Ġident ical
Ġmin imal
Ġwork er
Ġdi arr
Ġh am
Ġch ocolate
Ġd ict
Ġsu icide
Ġimp air
Ġper mit
b ury
ĠM A
gh an
st ru
Ġdocument ed
Ġs ister
ĠCon nect
Ġdiscipl ine
aterial s
g ments
am ps
Ġvar ied
Ġreve als
ĠPort ug
ĠL ew
Ġspecial ist
Ġgard ens
Ġmeet ings
G l
Ġben e
M ar
Ġevolution ary
ys ical
Ġbas ically
Ġrequ iring
Ġscen ario
ĠAr ts
Ġprof ound
Ġz ones
Ġover view
ĠM id
ent er
Ġo l
Ġinv asion
Ġdevelop ments
à ¥
Ġ ^
ad or
ĠA ff
Ġcl ay
ĠMin istry
Ġsav ings
p ower
u is
em b
Ġgl obe
ĠMed iterranean
Ġdi pl
Ġtransfer red
Ġdigest ive
Ġar ise
Ġprec ip
Ġmetabol ism
Ġabsor b
ibl ical
G E
ou ri
ian o
pr ing
out heast
ĠKore an
ĠV itamin
Ġcreat ivity
ira ble
ul ed
Ġtum ors
oc ity
Ġinc idence
9 3
Ġconvers ion
u ity
Ġher self
ĠL i
riz ona
ĠB ureau
Ġsur gical
ĠBl ood
Ġc ited
Ġpartic le
Ġcur rency
app ed
ĠF air
Ġentit led
Ġvill ages
Ġult imate
P lease
ĠD iet
Ġref lection
8 6
p re
ĠV ar
Ġapp lies
Ġb ought
Ġoutbre ak
ĠH indu
Ġj oy
ĠNe xt
Ġcert ific
reg on
v ation
ol k
ĠD ictionary
ĠAnt ar
Ġsudden ly
Ġstr ange
Ġmor ph
Ġmedic ines
Ġpr ime
Go ogle
Ġinflu ences
ĠÂ ©
Ġbene ath
Ġancest ors
Ġbe ach
og ens
Ġl ivestock
Ġins ights
ĠEn cyclopedia
Ġsw elling
Ġaccur ately
Ġrul ed
Ġcirc ulation
Ġdiv ine
ric ks
ur able
ast ics
sc ience
ĠHel p
er ally
Ġprov ision
z one
olog ic
Ġregist ered
i ro
Ġh ier
ra it
w estern
Ġre ign
Ġconsequ ence
f ly
Ġhapp iness
200 9
Ġaccompl ish
Ġperfect ly
Ġdistingu ish
r ust
Ġin ev
th ur
ĠV an
Ġ ion
ri p
ok ed
ĠM oses
ĠE ll
Ġen zyme
br is
op l
ĠF ield
Ġest ate
Ġsus pect
Ġto mat
Ġl akes
Ġproduct ive
S cient
Ġinhabit ants
Ġposs ibilities
Ġattempt ed
ĠO ffic
Ġ4 2
Ġillness es
m ia
Ġw al
Ġwork place
iss ance
Lear n
ĠCent ury
Ġpaint ings
Ġ( âĢľ
ĠMex ican
Ġjud gment
Ġpu zz
Ġdesign ated
quir y
Ġleg it
Ġput s
Ġaccept able
Ġunder ground
b ow
ĠCol on
T H
Ġcy cles
ĠD esc
end a
Ġcontribut ing
Ġrestrict ions
Ġaddress ing
ĠC A
ĠC ost
ĠI ce
Ġv ot
Ġiniti atives
ĠOb ama
ĠMicro soft
Ġt u
Ġprepar ing
U L
Ġs ending
Ġcalc ulate
ide o
Ġcomp os
iss ipp
gien e
Ġen cl
Q L
erv ing
s ur
ĠS anta
Ġman uscript
Ġdi ets
ĠL uc
ĠLe vel
ĠW hether
ĠInd ones
Ġreason ing
ĠH T
Ġne urolog
ĠL ater
Ġtransl ated
Ġmagn itude
Ġabsolute ly
Ġf t
Ġw ise
Ġinv ention
Ġther m
Ġtot ally
Ġmotiv ation
ĠâĨ ĳ
ab out
Ġwas h
ce ive
ĠPhil adelphia
ĠIll inois
D L
Ġassign ment
ĠM ajor
Ġ Ù
" )
9 7
Ġre vers
Ġinv asive
Ġinst ances
Ġmem or
Ġde mentia
Ġout door
Ġphilos oph
ĠA ction
rit ten
ig ious
ĠWh ich
Ġdram atically
Ġsub sc
em ies
Ġpow der
Ġdist ant
ĠS on
Ġv ig
ĠM ic
Ġdist inction
Ġconflic ts
Ĥ ¬
Ġcor on
Ġbi as
Ġper t
s k
Ġtrans plant
Ġpand emic
Ġal umin
200 6
Ġro oms
om eter
200 8
ĠO nt
ul ates
ter ior
Ġpain ted
Ġcut s
ĠAd am
Ġaltern atives
el ly
Ġwood en
Ġestablish ing
a is
Ġcre am
in ces
ĠN orm
ĠWe ek
Ġ( "
av ed
Ġthem es
reg ular
Ġcop ies
Ġvary ing
S ub
Ġro d
Ġquant ities
ĠU V
ĠAngel es
Ġchann els
ĠP ain
Ġd imin
Ġal ert
ist ing
Ġcons ent
is ations
á ¹
ĠR am
Ġdis h
Ġsubs id
or us
ĠD am
Ġsc r
es ium
Ġelect ions
Ġstat istical
Ġreprodu ctive
qu ality
Ġsurround ed
Ġbe ars
S P
Ġb onds
Ġele ph
Ġ2 50
ugh t
Ġemb ed
Ġpredict ed
ĠP oly
Ġrel ate
Ġrest ricted
ĠPe ace
ĠH ard
Ġpack age
Ġph ones
ĠTr ust
Ġcandid ate
Ġopt imal
Ġbro ke
Ġfav our
5 1
h ost
Ġattract ive
Ġsuscept ible
er as
Ġdistur b
. ),
Stud ents
Ġ ?
ol er
Ġelectr ons
ra ine
Ġsoil s
am ic
pect ives
Ġen forcement
Ġrain fall
ĠTur key
Ġreg ulate
Ġfil ms
Ġw age
in th
Ġl ob
ĠUn ivers
Ġcap s
Ġsepar ation
h an
Ġanalys es
ĠFrid ay
Ġtheore tical
Ġminim ize
ustain able
ĠB M
ĠH ence
Ġfasc inating
Ġdis ag
ool s
ict ions
Ġpen al
Ġemp ire
Ġ198 8
Ġl ingu
Ġr anges
ater nal
Ġdevelopment al
eng ers
Ġhon est
Ġl un
Ġefficient ly
ĠSt ation
e em
Ġne ural
ru b
ĠE mer
Ġelement ary
Ġhosp itals
Ġprecise ly
Ġcandid ates
Ġin herent
Ġdem ocratic
Ġcitiz en
. ||
ĠR ab
Ġse al
pl ate
Ġshe ep
Ġisol ation
Ġpros per
Ġtra il
ĠIss ue
Ġdimens ions
an while
Ġcal m
Ġcorpor ate
Ġadolesc ents
Ġw ings
ĠOf ten
Ġsch olar
ĠN utrition
ĠB ush
Ġabsor ption
Ġoccasion ally
O W
Ġcam ps
Ġoper ated
st ers
Ġse gment
ĠBul gar
Ġth irty
cept ions
Ġencoun ter
M an
Ġatt ributed
ro se
Ġcomb ine
Ġsimult aneously
9 2
w orth
ĠAre a
Ġas ide
Ġpay ment
Ġrob ust
ĠBudd h
iv ities
Ġprop osal
ol ves
Ġmed ieval
Ġallerg ic
ab ling
Ġsever ity
Ġlect ure
p os
Ġopt ical
Ġ6 00
Ġdo ors
ĠAsse mbly
om ed
ĠPro ble
ĠRem ember
ĠS qu
ĠF DA
o is
Ġjur isd
Ġpl ates
ug s
Ġsum mar
Ġend ing
Ġsurve ys
or i
Ġdischar ge
d i
Ġcl ouds
Ġsc ales
ĠT H
et he
9 6
Ġr ib
ous es
5 7
T able
ĠM ain
V iew
ĠGu ard
200 7
ĠPhys ical
* *
or ters
ĠB ased
oc a
Ġg est
Ġbl ank
rep rene
Ġconf usion
Ġer osion
Ġneigh b
K e
B I
Ġincorpor ated
C lick
Ġr ough
Ġend angered
Ġelev ated
p age
Ġb ags
Ġext ens
et ically
Ġen zymes
Ġengine er
issipp i
est hetic
ĠO regon
Ġd ried
ĠH aving
lect ric
Ġpers u
Ġcele b
r ons
Ġh o
He alth
Ġrhy thm
ĠC rit
Ġflex ibility
b est
Ġkilomet ers
Ġper pet
Ġvis iting
ĠPh D
Ġmer ch
Ġn oun
Ġ1 000
eg in
Ġamong st
ĠJ ackson
Ġleg end
el ing
oc ument
ĠL ine
pro fit
Ġso y
Ġrel ating
Ġhy brid
av en
e ven
Ġper f
Ġc able
Ġsed iment
Ġpro l
Ġsatis fact
ĠJ r
Ġallerg ies
Ġencoura ging
ĠB ern
Ġextra ord
Ġadop tion
Ġimag ination
Ġabund ance
Ġland ing
Ġcollect ions
Ġreflect s
Ġmist akes
ĠStand ards
Ġrese mb
Ġrec all
Ġf raction
ĠTh anks
rop ol
Ġbra ins
ac le
ĠTw itter
Ġrefuge es
ff e
ĠGard en
Ġver te
Ġsynt hetic
O s
Ġcontin ent
Ġdepos its
ĠH em
ĠC H
Ġple asure
ic ations
Ġemploy ee
Ġmetab olic
Ġthy roid
ĠA k
Ġpl asma
Ġpe ers
ĠP L
ĠF ed
iv ation
nes ota
Ġdut ies
Ġsp ons
ĠPl ace
Ġrepe at
Ġgram mar
exp ected
ĠMar ine
ĠSch olar
Ġswim ming
ĠM ot
Ġbound ary
Ġint ra
ov ing
ck ing
Ġst er
Ġhop es
Ġreven ue
Ġabandon ed
Ġkne e
Ġar c
II I
it ches
R eg
ur d
Ġde bris
du ction
Ġdynam ics
Ġm ask
red it
Ġbot tle
it ic
Ġin ch
Ġinvent ed
c ular
ĠD ue
Ġsurv ived
Ġab ol
ĠV iew
Ġreg ister
. :
ĠA rizona
Ġgra d
Ġatmosp heric
ĠM aster
Ġwid th
Ġt anks
ay er
Ġra ys
Ġsurpr ised
Ġde er
Ġprev ents
le ar
ĠUn like
ĠPro duct
Ġo ceans
Ġsem i
Ġh ung
Ġcry pt
is ons
rib le
Ġmur der
ĠMiss ouri
ĠL at
Ġregul atory
eli hood
Ġrespons ibilities
ĠS us
Ġsequ ences
wh o
Ġpip e
ĠAs h
Ġappro val
Ġburn ed
Ġe rect
ĠF ish
Ġcal endar
Ġmem ories
3 00
Ġmag azine
Ġ4 4
Ġmin ister
Ġexpand ing
Ġd oses
Ġinstall ation
Ġpestic ides
Ġpopular ity
Ġt ag
Ġthan k
Ġgl ob
Ġf an
Ġwhen ever
ĠAl aska
An y
Ġt ab
Ġar thritis
Ġsystem atic
ĠCor por
Ġcontamin ated
ry pt
Ġcontain ers
ol ph
Ġcont amination
Ġathlet es
Ġtw elve
ĠAssess ment
ĠP ope
Ġsym ptom
Ġguarant ee
o a
Ġg ate
res hold
ĠSchool s
is ition
Ġst ere
Ġpart ly
Ġsuggest ing
Ġalong side
Ġdiv ide
ĠR est
Ġint r
AT ION
N ational
Ġre h
Ġexp ort
i ating
pd f
Ġman agers
Ġcollect ing
Ġelder ly
Ġdi agram
Ġconsist ently
Res earchers
ri um
ĠL ook
ac on
igh th
Ġval ley
Ġspeak er
d a
ĠI de
ill ance
Ġconf ident
Ġarr ival
ĠSupp ort
2 000
b age
ang el
the y
Ġv om
Ġincorpor ate
Ġf ant
Ġtreat y
8 7
ĠO p
ĠMount ain
Ġpost ed
Ġexc lud
Ġb ull
ĠO s
ec onomic
Ġenh anced
Ġmy ster
Ġlibr aries
A ut
ĠO S
Ġdescrib ing
Ġfit ness
Ġh oly
ĠAll ah
ĠWilliam s
Ġh urt
ne a
Ġcan al
Ġstra ins
Ġc odes
ĠA C
ent i
Ġtherap eutic
Ġsuggest ions
O P
Ġent rance
Ġorgan ism
Ġlic ense
ur se
ĠM ap
Ġexhib ition
ĠL og
Ġgra ms
Ġabund ant
ow ered
istic ated
aut hor
Ġtend ency
Ġsurv iv
ĠW riting
Ġr h
ĠF er
R em
ric ane
Ġevalu ated
v ae
Ġp ale
it ate
Ġth row
Ġrece ives
Ġspread ing
Ġeat en
ĠB ell
ĠB est
Ġabsor bed
Ġphenomen a
w a
Y es
e fficient
Ġsh oes
Ġchar ges
Ġwind s
Ġachie ving
ĠB rain
Ġse w
Ġeconom ics
ĠBet ween
Ġcomple ment
Ġtrans formation
ĠR ather
Ġdent ist
Ġoff ices
ĠAn cient
Ġlib eral
Ġwe aken
ĠClin ical
en h
Ġ20 22
Ġbr on
yl on
ip ation
Ġl oud
Ġmut ations
k er
Ġdis k
ĠMiss issippi
Ġt ough
ay lor
Ġcr imes
Ġconclus ions
Ġexc av
F ig
Ġst abil
Ġhealth ier
Ġm ile
Ġm ail
Ġf iction
ĠS P
iv ate
Ġca ve
Ġstru ck
Ġprov isions
Ġseason al
Ġattribut es
Ġun em
Ġsub mit
ĠChar l
orm s
Ġpoll ut
ĠGovern or
com p
Ġpart ially
ĠO cc
Ġprodu cers
Ġirrig ation
ber ries
ĠK n
health y
Ġsoc io
de velop
ĠOther s
Ġo w
Ġbus y
Ġlik elihood
Ġsect ors
Ġconsist ing
Ġwel come
l ist
f ound
nt il
T A
Ġapp l
Ġhum idity
Ġsc hem
ĠMin nesota
Ġs elling
im en
ĠP ut
Ġtra ding
ĠCD C
as hed
du ate
ric s
Ġc ig
Ġb inding
Ġbe ll
Ġdiagn ostic
Ġutil ized
ĠP DF
Ġstri king
j i
Ġrep et
ĠPh ilos
Ġbrother s
Ġsp ine
Ġassess ments
Ġadj acent
an z
Ġal tered
Ġso vere
Ġtow er
Ġm issions
ub ble
ĠSt ory
Ġconsum ing
W ill
ĠS elf
ĠM ind
Ġaccount ing
Ġfing ers
c al
st ep
l aw
ĠThe ory
Ġinj ured
Ġret ain
Ġsens ory
ĠOnt ario
ĠEm peror
ĠN ic
ĠM other
Ġstra w
imens ional
Ġp ose
Ġg erm
Ġhoriz ontal
Ġclass ification
200 5
Ġtoler ance
Ġmil it
Ġcivil ization
C he
Ġ198 7
Ġaward ed
per t
ult ure
Ġ8 5
ĠJ ack
Ġsome where
Ġfib ers
C op
ĠW ed
Ġoffic ially
f old
Ġa ster
ct ors
Ġp ond
ĠL ocal
Ġplatform s
Ġpro long
Ġatt ended
ĠCar ib
Ġpun ishment
ore r
ar ks
Ġn inet
Ġpart ial
Ġstret ch
A c
ĠT urn
ath an
Ġapprec iate
y es
Ġnum er
ĠSc ript
ĠP rom
Ġadministr ative
Ġrepresent atives
9 4
um ns
Ġimp r
ĠN OT
Ġimpro ves
ĠNet her
Ġf les
Ġpat ent
Ġarg ues
Ġrep utation
Ġfree ly
n ia
er b
Ġkit chen
Ġcham ber
Ġp ine
ĠW atch
Ġdefin itions
ple x
Ġweek ly
ĠPract ice
ĠR en
Ġconven ient
Ġmolec ule
Ġphysic ians
ĠM onday
ĠW ales
Ġprom ising
Ġp ediatric
ph al
Ġcont rad
ĠAf ghan
Ġsett lers
T rans
ĠIs a
Ġaff airs
ĠJer sey
Ġm isc
ĠL uther
Ġdes k
d ess
ĠTh ird
ĠBer lin
ĠN eg
Ġconnect ing
ĠMat thew
Ġintegr ity
Ġm uc
Ġequ ipped
com pass
Ġprison ers
Ġorient ation
Ġp roud
Ġinf in
Ġp od
ĠH yd
9 1
in ery
ĠM rs
ĠCl ub
Ġd ying
ĠH it
Ġdevelop ers
Ġflav or
ĠU k
Ġed ges
itz er
ĠE S
ard ed
ob ic
ian ces
ĠCle an
Ġfat al
Ġbroad er
Ġval ve
Ġ198 6
Ġb its
Ġvel ocity
Ġpl acing
ct u
Ġsubsequ ently
Ġw ake
T P
Ġsh ares
Ġfact ory
Ġfore ver
ell er
ĠR isk
Ġgra ce
Ġche ese
Ġass ault
y ard
Ġh ol
Ġworks hop
ra id
epend ence
ĠBudd ha
F inally
Ġbl o
Ġsal mon
th ood
C N
ĠB ol
gra de
j ud
le ton
Ġ6 4
Ġcoll apse
qu es
Ġspeak ers
Ġon set
Ġprevent ed
ĠG DP
ade qu
ios ity
B ack
8 3
Ġret ail
Ġcamp us
R NA
ĠC N
Ġdev oted
i ac
Ġsacr ifice
ĠS av
af e
uls ion
Ġpass word
Ġfin ance
Ġcarbohyd rates
A ss
i y
ĠD yn
form ed
Ġdisc om
Ġc ourage
Ġcirc ular
R S
Ġm ira
ĠSh ould
Ġimplement ing
Ġmir ror
b urn
ar ios
ĠA ud
Ġb orders
Ġres idential
ĠWil son
ĠTeac hers
ut ical
Ġse iz
ac her
Ġgent le
ap ing
ĠOr der
Ġt ied
Ġsym b
ĠCult ure
Ġwire less
f lies
ig m
Ġpot assium
Ġpar ks
Ġflu or
ook ed
Ġassist ant
Ġagg reg
ĠN Y
Ġacc idents
Ġinter medi
Ġke ys
Ġoper ational
Ġsoph isticated
ĠH ig
Ġv ine
ĠL ED
ious ly
ĠPr ince
Ġdial ogue
Ġbr ush
Ġgr an
Ġ194 5
Ġp or
Ġex ch
Ġpred omin
T ER
est one
ĠMc C
Ġinfect ious
at ories
ĠA h
ĠC S
Ġalg ae
ĠSt ill
yp ically
ĠRes erve
Ġassoci ations
Ġparticip ating
8 4
Ġp est
Ġpr iest
Ġattack ed
Ġbul lying
Ġfertil izer
Ġmal aria
ĠH ot
ear ly
Ġshel ter
Th rough
8 00
C al
Ġre nt
ĠVol ume
c or
uss ion
ĠComp uter
ĠJ ones
Ġlo an
ĠApp lic
Ġwas hing
Ġsp erm
Ġdel iber
Ġvacc ination
Ġalgorith ms
Ġdispl ays
Ġindepend ently
t ype
at oes
Ġf irms
ĠY es
ons in
the re
Ġmet eor
Ch rist
Ġacqu ire
Ġsh ade
ĠJeff erson
M od
Ġn odes
Ġv ice
art en
Ġtrib e
Ġinvest ments
ĠMary land
ik a
Ġappoint ment
Ù Ĳ
ist ically
Ġavoid ing
Ġlo op
in ch
Ġsub str
Ġdesign ing
isc onsin
Ġfem in
Ġinfluen za
orig inal
Ġn ort
Ġret urning
Ġan throp
Ġ19 00
Ġnurs ing
Ġcor al
ĠTe xt
Ġindic ating
ĠF ac
ĠW W
Ġapp s
ĠPr int
Ġavoid ed
Ġre nder
vel ength
gg ed
Ġconf used
Ġeduc ated
ĠS ud
Ġbe aring
iot ic
b ul
d d
Ġth reshold
Ġper mitted
ĠTra de
ou lt
ĠC all
Ġess ence
urs day
ĠNe uro
ĠT enn
ĠMars h
r un
em or
Gen eral
ĠB on
Ġassess ed
Ġp ink
ct s
Ġun expected
Ġdist ribut
Ġdep r
ĠCor ps
Ġcy l
Ġspeed s
B A
b ro
Ġapp et
Ġbroad cast
os aur
Ġhome work
Ġinsp iration
v ol
Ġgra y
effect ive
Ġmin i
Ġhistor ians
a ver
ecess ary
Ġreview ed
ĠSimilar ly
Ġcl oth
Ġbl adder
Ġlast ing
ĠWith in
id ae
Ġclust er
Ġhy giene
Res earch
ub le
Ġshe ets
gen eration
Ġdr ives
ĠN G
it us
Ġv ag
Ġres olve
Ġart istic
Ġsp ark
ues day
ĠAr m
ropri ate
ĠH om
Ù Ĩ
Ġrout es
thod ox
v y
friend ly
c led
on ly
ot ten
Ġel abor
ned y
Ġtherap ies
ĠInt roduction
Ġoccup ation
Ġ4 3
Ġ ~
ĠF ig
Ġcar ries
Ġimmig ration
Ġconcent rated
ĠTe aching
P L
Ġref rig
Ġarr ive
ĠInd igenous
Ġtravel ing
Ġobvious ly
Ġpurs ue
ĠDem ocratic
c ase
u y
Ġst ems
Ġthor oughly
ĠP aper
an ol
old s
sec urity
Ġax is
et erm
Ġwor n
, '
Ġcol ored
Ġpres ervation
ĠPr im
ĠNether lands
az z
Ġsucceed ed
ĠN ation
ĠDi abetes
Ġexc ited
Ġ8 00
Ġdecre ases
abil itation
Ġp neum
ĠF uture
ps y
dom inal
Ġdrop s
Ġprot est
comm un
Ġteac hes
Ġdisp ers
ĠT ree
Ġmed itation
ĠInt eg
Ġreject ed
u ine
Ġb ills
pl an
Ġmob ility
Ġinject ion
Ġind oor
Ġk g
Ġess ays
ĠO N
Ġb ark
Ġel ig
ĠGerm ans
roph ic
P V
ĠN a
Ġcont rary
it le
Ġb uck
ace utical
Ġmonth ly
ĠScient ific
Ġh arsh
Ġcomple tion
ĠS ab
Ġhard ly
Ġh ide
akes pe
Ġve ctor
Ġch ron
ĠFranc is
Ġdiarr hea
u v
Ġh ills
Ġimportant ly
Ġdistingu ished
P D
ĠCar l
Ġm apping
Ġauthent ic
ĠT ib
Ġimp ressive
H ave
Ġtradition ally
Ġir regular
at ile
ne g
8 1
te enth
ĠStud ent
Ġceleb ration
Ġdiscom fort
Ġpred ators
Ġreview s
Ġmanufacture r
ĠT raining
for ced
Ġtrack ing
ins ula
ĠS em
Ġall ergy
ĠTh ink
Ġaccompl ished
Ġy es
Ġstrugg ling
ĠWork ing
ĠW alk
Ġadapt ation
ĠRed u
Ã ¨
ag le
ass es
Ġfa ult
Ġadminist ered
akespe are
Ġtal ks
i atric
ĠRom ans
Ġtox ins
Ġmon ument
Ġexpress ions
f ire
Ġthe sis
Ġunder go
b at
n als
ĠEx amples
, âĢĻ
F urther
Ġb ind
ĠM es
Ġen abled
D ef
s pring
ĠCent ers
Ġcam eras
quar ters
Ġtrem end
d is
âĢĿ )
Ġwrit ings
nes day
ĠS n
Ġconf ront
ucle ar
ĠF a
ĠF ull
Ġen lar
Ġtra cks
ĠRes earchers
do ors
Ġhe al
Ġconstitution al
inc ome
Î ±
Ġbe et
ĠSh ort
Ġrad i
Ġear ned
sequ ently
C I
om atic
anc he
ĠDav is
Ġsitu ated
Ġr ats
Ġgovern or
ĠSy ria
ĠM arc
ist ent
reat ment
Ġg aps
Ġpr one
Ġatt ain
Ġdisc l
st ic
Ġent reprene
Ġupd ate
Ġconfig uration
Ġb ite
an ium
Ġdead ly
Ġext inction
ĠPol and
Ġbe am
ĠDiff erent
Ġfound er
Ġafford able
D ep
ip h
Ġnerv es
Ġ es
ĠF ollowing
Ġrel atives
Ġtransform ed
Ġimpl ies
Ġdemonstr ates
ĠLew is
ĠCarib bean
hed ral
greg ation
onym ous
Ġexpl ored
ay ing
ĠQu estions
Ġf ate
Ġre ar
Ġle ak
ĠAn imal
ĠStep hen
ic ides
Ġre nd
Ġh ill
Ġhaz ards
Ġprom otes
f are
ã ģ
Ġ4 1
Ġdef ines
ĠT ar
ĠC ore
Ġpersist ent
Ġh ack
D R
ĠT el
ĠN ep
Ġ198 4
Ġpath ways
Ġarr anged
Ġantib odies
Ġdefect s
4 00
ro le
Ġsynt hesis
ag ger
Ġdest ination
ĠH o
Ġsp ir
f ront
Ġn ic
ĠM uch
Ġfeature d
el a
Ġcr ust
Ġm i
th al
ĠH arr
ĠScient ists
ov ed
Ġlab els
Ġport ray
ĠW ars
act ic
ĠInt erest
Ġqual ified
Ġhun ger
Ġcount ies
ik ing
Ġeth ics
Ġpublic ations
Ġoccur rence
Ġsam pling
Ġp ock
ĠW isconsin
Ġpresc ription
C s
ch ron
ra c
Ġexped ition
on in
up iter
ĠRe al
ron aut
Ġprogress ive
Ġcontrovers ial
Ġcol umns
s ch
Ġflood ing
v i
Ġrecomm ends
Ġsearch ing
ar ians
Ġstead y
ĠK ansas
Ġdist ract
Ġemploy ers
amm ad
Ġin ver
erm at
ĠQ ur
Ġindic ators
Ġrob ots
Ġutil ize
B D
Ġp ests
d on
or ney
ress ing
az e
Ġhistor ian
j a
Ġsub mitted
Ġoverwhel ming
Ġout line
Ġaccomp any
ĠC R
Ġprog ression
Ġlar vae
he astern
ce eds
ver ages
Ġextraord inary
W ell
ĠH on
rel s
Ġaf raid
ĠH op
Ġillust rated
Ġemp ower
Ġm art
Ġsust ained
H igh
Ġg ear
ĠE nt
Ġfall en
ĠD uke
Ġrul ing
Ġmist ake
Ġrub ber
Ġp ap
Ġ9 78
Ġcompl iance
d ate
h igh
Ġc ope
ĠB io
ĠA z
Ġdoct rine
ĠProt est
ĠMat hemat
W ater
Ġencoura ges
Ġb er
Ġorgan isation
Ch ildren
ĠD id
Ġtour ism
Ġdefe at
um bers
Ġterm in
o il
Ġ `
Ġcontinuous ly
ĠG M
ĠIm port
Ġshall ow
L S
Ġ198 5
Ġm ercury
ĠD al
Ġr ide
H is
Ġt orn
ĠArab ic
Ġinf lation
ĠFr ont
Ġbox es
ĠS ource
Ġem it
Ġconduct ing
ĠJ on
ĠKen nedy
Ġ rom
Ġen act
ĠJ im
ĠEx ec
Ġnot able
Ġfe ather
Ġdist ances
Ġsaf er
Ġcomp aring
Ġcalc ulations
ĠBudd hist
inf lamm
Ġembed ded
Ġan at
Ġprec ision
ĠPy thon
Ġbrows er
Ġname ly
Ġsens es
ĠHis pan
ĠS ac
Ġassum ptions
ur ated
Ġinst ant
Ġpar liament
ĠVictor ia
swe red
vel t
Ġpr ies
Ġflu ids
Ġelectron ics
Ġepid emic
Ġmyst ery
Ġv oting
200 4
ĠAm endment
ĠJ un
Ġsub tle
ivers ary
Ġaccord ance
Ġw ed
Ġde leg
au c
Ġalumin um
s chool
Ġgen etics
Ġreg en
Ð ¸
Ġdi ver
Ġgener ating
Ġmet ap
ĠInd ividual
Ġtim ing
ĠPro per
in ian
Ġl ying
Ġhigh lights
ĠD un
Ġorgan isations
Ġcap ability
IS T
bur gh
Ġpros pect
ĠH ur
Ġgen us
Ġas ks
ĠJ ava
Ġshould n
Ġvac uum
Ġobs er
Ġgun s
Ġbr id
ĠNaz i
at re
Ġcirc les
ĠMon th
Ġthr ive
Ġdrain age
Ġat omic
ĠO il
ogn ition
Ġar bit
Ġsw allow
Ġres erve
Ġsur re
erc ise
Ġnecess ity
ĠInt ellig
are r
Ġfert ility
Ġal ike
ĠR ay
Ġinv ited
Ġmodel ing
EC T
ĠPhys ics
enti eth
Ġl unch
ier ce
Ġs le
Ġ4 7
Ġmet er
Ġpus hed
Ġcy cl
Ġlif t
ĠApp le
ĠEc onom
n ings
ree ment
ĠBe havior
Ġimper ial
Ġm ud
ps on
Ġexclus ively
Ġ %
Ġn ick
Ġhe ter
own ers
ĠDar win
Ġpub l
ĠP ath
ĠNever theless
8 2
P DF
Ġwa velength
Ġ à¤
Ġl oyal
ul ator
em et
ust er
s ome
og ram
Ġdiscover ies
ĠC ase
Ġwh ales
ĠCh ap
Ġlo ans
Ġtele phone
Ġthick ness
y an
ĠLe ague
Ġin adequ
ar ium
ĠAn ne
Ġto ys
Ġre plic
Ġmark ers
ĠC it
oc ent
ose velt
Ġintellig ent
Ġover weight
Ġshould er
Ġgather ing
Ġvom iting
ĠH ung
Ġart if
Ġassum ption
Ġdin ner
Ġd ow
Ġdet erior
Ġt ape
ry ing
Ġlib erty
. -
Ġspec imens
Ġemer ge
Ġinteg ral
E V
h ard
h ops
Ġj aw
Ġop ens
Ġsevere ly
ĠR og
ak h
Ġthor ough
Ġcons ensus
20 17
Ġcateg or
ĠD aily
end ers
e ared
ig ration
Ġrefer ring
Ġattract ed
Ġreserv oir
ĠLin ux
ĠM oh
ĠB ow
ĠHit ler
Ġleg acy
Ġgold en
ĠS her
Ġscen arios
Ġg ains
Ġsole ly
Ġfro zen
x ic
Ġse asons
ĠM P
ond ition
Ġh ang
ĠH as
ĠDe ath
er ness
ĠG iven
Ġen compass
tern oon
Ġ4 6
Ġf oster
ph ones
Ã³ n
ĠP A
Ġen emies
Ġdom inated
erg arten
Ġadvert ising
atur day
och ond
b et
Ġr ings
ĠG re
Ġrest ored
Ġpoor ly
Ġc erv
an as
Ġh ip
Ġf rog
ĠE vent
ĠInd ex
Ġarrange ment
Ġto ile
olec ular
ik i
ĠF low
ik es
Ġreal istic
Ġstake holders
Ġsp elling
et ry
ĠSwed en
! )
Ġexec ution
ĠSam uel
Ġf illing
ĠH u
Ġ197 9
Sp ec
Ġpip es
Ġinequ ality
n on
ĠÂ °
Ġcontribut es
f ather
Ġan ten
Ġir re
ĠAv ailable
Ġm arch
Ġdoll ar
ĠThe rapy
ĠCh all
Ġreserv es
ĠDie go
re strial
on ics
st ration
us hed
ĠK im
Ġloc ally
Ġscen es
ĠEth iop
B oth
Ġal k
Ġsusp ected
e av
Ġj ew
Ġdegrad ation
Ġport ions
h uman
go vern
Ġcorrel ation
Scient ists
Ī Ĵ
Ġres on
Ġsk ull
Ġqu ote
Ġext rem
Ġfac ial
Ġrot ation
H T
Ġcomm od
ĠAl tern
. ]
Ġo ught
Ġde hyd
â Ĥ¬
ĠT ro
ge red
ĠST EM
ĠTurk ish
i ors
are st
Ġweap on
feed ing
Ġm akers
Ġmass es
ĠUnder standing
Ġmult ip
Ġimmun ity
Ġal ien
E l
ut y
Ġco inc
Ġinvestig ated
Ġst rand
ĠH an
Ġen abling
ick ed
Ġbo ards
as ures
ow a
Ġdistinct ive
f irst
or b
Ġch a
e z
Ġ18 00
Ġstop s
ĠUr ban
Ġcon g
Ġan swered
Ġprotect s
ĠF ive
Ġsim ulation
Ġcounter part
ĠC old
ĠOb ject
ĠTib et
Â ©
Ġdesign ers
emet ery
ar ter
ĠUn it
Ġins u
Ġmat rix
J an
Ġor n
20 14
Ġstim ulate
Ġfif ty
Ġincred ible
g rim
â Ħ
ĠB alt
Ġcas ual
Ġth inks
Ġge ographic
ĠLar ge
Ġs el
im als
d imensional
l ings
Ġpat ri
Ġnewsp apers
on ent
or ie
Ġv ow
Ġem ission
ĠSpec ies
ĠSym ptoms
ly n
Ġclass rooms
a ft
ĠT aylor
Ġmut ual
ĠScott ish
Ġm es
Ġpro state
ount ered
Ġgen etically
oles cent
Ġcook ed
Ġmarg inal
art s
con f
ĠStat istics
Ġint ensive
Ġqu ad
Ġvol umes
Ġpick ed
Ġfurn iture
ob s
Ġpolit icians
Ġver se
AR T
Pro f
n atural
on ing
an th
ot yp
Ġcare g
ĠBar b
A nt
ĠC hemical
In stit
Ġmom ents
Ġrep ublic
Ġconsider ably
U M
n ected
ĠT alk
ess ional
Ġmagn et
G u
as se
ĠSh akespeare
Ġstorm s
r ange
Ġo vers
Ġtrans actions
onom ous
Ġcat ast
ĠCon c
Ġdism iss
ra red
ĠH ay
Ġuncertain ty
ĠMove ment
im edia
Ġsurve illance
Ġy ard
20 15
Ġdang ers
Ġc ensus
Ġb or
Ġbeh alf
A F
ef its
Ġcond em
Ġorigin ated
Ġrepeated ly
Ġincred ibly
Ġaccept ance
Ġdiscuss ing
Ġhazard ous
Ã §
ĠR ose
Ġpay ments
Ġp itch
ĠRepublic an
Ġhyper t
! "
om on
ĠIm per
Ġbul k
ol it
Ġanal og
Ġdeterm ination
ĠB h
ĠG ir
form ance
r ass
ig ma
Ġv iable
Ġv on
Ġinflu ential
ĠGu id
Ġcat al
ĠW HO
Ġign ore
Ġl apt
Ġpro sec
Ġfil ters
Ġbat tles
ĠN umber
v als
Ġimp ression
ĠLe on
Ġper ipher
ĠCon stant
W orld
ĠL iving
Ġad mitted
or ient
iv als
ĠF ram
Ġillust rate
Ġmeth ane
A g
F ind
Ġsy ll
al o
ic ting
ac ular
Ġcomp at
Ġlic ensed
su pp
Ġfles h
Ġchap ters
Ġbr ill
Ġenc ountered
atch ing
Ġpack aging
Ġexec uted
ĠF OR
Ġtrans f
Ġincl usion
ul us
Ġout doors
Ġpres chool
Ġmet res
ĠPsych ology
ĠN i
ine a
Ġrelie ve
m ic
Ġh orn
Ġdecl ined
Ġign ored
Ġacknow ledge
Ġunt o
Ġpu pp
Ġk ings
Ġorgan ize
ĠA IDS
Ġpres um
m akers
is ible
un s
ann a
Ġstress ed
Ġv apor
Ġris es
Ġinstitution al
Ġins pect
ĠF le
av irus
Ġph ases
st ud
ĠU lt
Ġsupp lied
Ġsing ing
Ġpers pectives
se ud
Ġconvers ations
Ġalph abet
Ġfor b
el and
Ġgen uine
ĠTrans port
osp here
ard ing
ĠBr idge
Ġaqu atic
Ġp ec
Ġview ing
Ġcompens ation
h our
k h
ĠM ong
em ed
Ġeconom ies
ĠEduc ational
Ġapplic able
200 3
Ġapp le
Ġdisapp ear
Ġappet ite
Ġw ages
Ġtext ure
Ġfrequ encies
Ġpreval ent
a us
Ġpr ide
in ition
Ġg ums
ĠF ord
ĠN ame
Ġun ity
Ġover se
Ġphr ases
Ġch ains
ru p
Ġreprodu ction
Ġcompass ion
Ġ4 9
Ġpow ered
ĠS ix
Ġcoord ination
Ġrac ism
Ġterrit ories
Ġp anc
ic ut
Ġcritic ism
Ġresc ue
Ġphilosoph ical
ĠM and
Ġdig it
Ġcardi ac
Ġpo ems
Ġdeterm ines
Ġtub es
p m
il er
ĠQ uality
Ġinterpre ted
Ġeduc ate
Ġinvest ors
Ġparticip ated
ĠRo osevelt
Ġsh ield
Th ough
Ġ ic
oc hemical
ĠY ears
ĠÂ ·
ash ing
Ġceremon y
Ġmain stream
els on
u ilt
ĠI ron
anc ial
B ased
ĠN ap
reat ing
Ġflow ing
Ġpath way
Ġdiagn ose
Ġconclud e
ĠP ap
Ġfl ed
Ġmagn esium
ĠJ upiter
Ġepis ode
A ug
u ct
Ġg au
s ized
ol as
Ġsatell ites
Ġconserv ative
E W
y o
Ġn as
ke ys
Ġdis put
Ġexp end
isp here
Ġantibiot ic
Ġexp enses
ose x
In tern
let ter
Ġ198 3
Ġpoll en
Ġso ap
Ġca ffe
Ġfest ival
Ġconj unction
ause a
Ġcat aly
Ġan ch
ĠW in
Ġtim ber
F A
Ġwh ilst
ak i
Ġbl acks
Ġdim ension
Ġaccess ed
Ġbu gs
Ġinher ited
Ġsee ks
the ning
ĠZ h
g ood
Ġt ang
Ġsc al
Ġexpl aining
V D
Ġground water
Ġdepart ments
re ll
ĠS leep
Ġepid em
Ġgalax y
st ead
Ġ9 9
Ġlim iting
Ġdam aging
ĠP ear
Ġincor rect
Ġy ields
vious ly
Ġarchitect ural
ĠFred er
Ġequ ations
Ġw ax
Ġgu ides
ĠJe an
Ġprotocol s
ĠIndones ia
p ur
T ake
il ateral
Ġn urse
ĠE le
ĠTreat y
G S
ĠIn iti
ĠL ower
Ġheart s
Ġcheck ing
Ġprec ious
Ġmount ed
b ral
ĠJ ane
Ġfol k
Ġem peror
sc reen
Ġt ired
Ġbow el
int on
Ġwealth y
ĠDef ense
au g
Ġninet eenth
ĠS ep
ruct ive
rict ion
ĠG h
ĠN S
Ġextra ction
N ext
Ġrevolution ary
B el
R L
e ous
Ġb in
h r
Ġb ands
arm a
Ġbelong ing
f u
ĠS ex
ew ater
y t
Ġdirect ory
ĠBel g
Ġsh adow
Ġdream s
ĠM aking
Ġcost ly
Ġrock et
ĠL t
au nd
Ġaf ternoon
b in
l ob
oth y
Ġsk illed
ĠB or
v asive
Ġcomm ands
role um
H z
op t
Ġep it
ĠCreat ive
ĠBuddh ism
s l
ĠO pp
Ġdis hes
Ġbiom ass
ĠEss ay
Ġarrest ed
best os
Ġhead aches
Ġsh ipping
Ġpass ive
Ġpath s
Ġcheck ed
g on
or se
Ġst uck
ĠMount ains
Ġtransp arent
Ġw ra
Ġl ith
ĠDep ression
h as
ĠM os
ĠM ission
Ġab dominal
Ġ5 1
ĠAD HD
Ġinterview s
ĠG rant
w hen
ĠF lu
Ġgr ants
ĠEn ter
Ġb eds
ĠC e
Ġmut ation
ĠS a
ĠB an
ĠR ub
Ġox ide
Ġcrow d
âĦ ¢
Ġtravel ed
Ġod d
Ġfar mer
Ġinit iated
sh ore
Ġst iff
ĠY ellow
p ost
z ant
ĠT en
Ġdec ent
ipl inary
oult ry
Ġcross ing
lar ation
ĠKnow ledge
O ct
iff erent
Ġpath ogens
c m
ile y
Ġres idence
Ġfe as
Ġdescript ions
p y
ĠM ental
ĠF A
Ġab road
Ġch ip
ĠSo ft
Ġrec overed
M ake
Ġbel t
ĠB apt
ĠF all
act ivity
Ġexp ense
Ġcomb ust
Ġdefe ated
Ġpollut ants
p o
he ld
is hers
Ġpat ch
Ġindic ator
Ġrecy cled
Ġ icon
Ġg aining
ĠC ra
Ġgovern ance
ĠAcc ount
Ġneighb ors
n i
il ly
Ġinflamm atory
Ġrecept ors
ĠC ape
ge bra
Ġpul led
ĠS M
Ġint u
at tle
op ter
Ġext ends
ĠCapt ain
O b
os ity
Ġprop os
Ġglob ally
wh ite
Ġcompar able
Ġye ast
ĠPr ime
Ġc od
Ġgre y
Ġcolle ges
Ġpal m
ĠV ers
Ġpass engers
Ġattempt ing
w ill
Ġsk et
ib ration
Ġme ets
Ġwar mer
app ropriate
Ġclust ers
ĠAfghan istan
Ġdec omp
Ġ5 6
ĠM uh
ĠG reg
Ġres ur
Ġprogram mes
ord an
Ġgra ve
Ġmult ipl
Ġste ep
E urope
P at
Ġg land
Ġsmall est
ĠEn c
Ġ @
osa urs
ĠA ges
ĠO m
Ġad ul
ĠS earch
Ġz inc
Ġhost s
Ġat om
ĠâĢ Ŀ
Ġens ures
Ġdisp osal
Ġfle et
Ġa ids
ont o
Ġto mb
ĠE dition
ĠAr thur
Ġelect rom
Ġrelig ions
ĠPhil ip
F L
ĠD om
Ġdis asters
ĠPhilipp ines
ass ment
less ly
ed uc
Ġdevast ating
t wo
Ġs orts
ro ck
ab etic
Ġob ese
Ġexam ining
ĠMill er
iot ics
Ġign or
ĠRep resent
ĠP oll
Ġposs ession
ES T
osy nt
Ġvolunte er
u z
Ġdis par
Ġmanufact ured
g ram
it ored
Ġang les
Ġarchae ological
Ġ5 2
Th ose
eg u
Ġshort ly
Ġphys iological
ĠIndust rial
G od
el d
ĠAr ist
Ġgast ro
ĠL ind
Ġperson ally
O rig
ĠR us
Ġfe e
Ġsubstit ute
Ġunn ecessary
v o
ab ama
Ġr ic
ĠCar bon
Ġabs ent
Ġver bal
il ty
Ġdocument ation
Ġnucle us
s or
20 16
l ink
Ġautom atic
Ġover t
do i
Ġfra ud
in stein
ĠO pt
Ġ198 2
ris k
Ġfulf ill
um ing
Ġr ou
Ġfollow ers
ĠP rize
Ġtalk ed
inflamm atory
ĠS ens
Ġingred ient
ograp her
U D
ĠS ite
Ġfoot ball
ĠArch ives
Ġs au
Ġst ack
ĠR and
Ġvo ices
Ġmur d
Å į
Ġco ins
o en
Ù Ĵ
Ġman kind
Ġtremend ous
war f
E X
Ġ ions
Ġsurviv ors
Ġart ic
Ġann iversary
Ġbott les
Ġpractition ers
ĠP arents
Ġshop ping
ĠC ut
ast ing
Ġk in
ol ly
Ġimp osed
Ġob sc
Ġgu ided
Ġden ied
Ġgif ts
Ġv ocal
Ġag enda
Ġgraph ic
in ced
ĠCh am
Ġ5 3
Ch ar
f at
erv es
Ġcol ours
ĠSp e
Ġpot atoes
Ġbreak fast
ĠFre edom
Ġb rick
Ġdigest ion
am ily
or ious
ote chnology
Ġquant itative
Ġcollabor ative
emb ered
Ġcon ce
Ġ197 5
Ġcar cin
ĠN ort
i ens
last name
Cop yright
6 00
Ġ Ï
app y
Ġdiscuss es
Ġcorpor ations
ĠPers ian
Ġsched uled
g iving
Ġ196 9
Ġgalax ies
Ġcon vention
C urrent
A v
ĠGra de
n ut
s un
ĠP R
ag ine
Ġinc idents
ĠK at
Ġ5 7
Ġut er
Ġang ry
Ġsn ake
T O
Ġent ity
Ġmotiv ated
F S
âĢ ł
te in
Ġann ounce
ĠP ow
Ġhe pat
Ġs ore
Ġse arc
Ġspeak s
Ġcomp act
Ġl ig
Ġper sec
200 1
Ġprolong ed
c re
Ġreg ulated
Ġpract iced
tt es
ĠCl ark
Ġconsist ed
Ġpoly mer
Ġtelesc ope
Ġab d
Ġsl ide
Ġthr one
ĠDou gl
im eter
Ġde als
Ġblock chain
Ġin quiry
ĠC ensus
ĠSt one
ĠComm and
ĠCorpor ation
ri ends
io let
Ġcampaign s
Ġsug ars
Ġpharm ac
Ġfl ies
Ġequ ity
ra ge
ĠAr k
Ġspecial ists
Ġend eav
Ġbo ats
d am
on duct
ĠL ove
Ġbas ics
Ġmicrob es
ug ar
Ġrespect ive
Ġtun nel
ĠTeac her
m outh
Ġindu ced
Ġast ronaut
ĠArch itect
Ġantioxid ants
ra de
ail ing
ES S
Ġh ind
ur red
th s
ĠD ub
Ġmov ies
ĠGen esis
200 2
Ġemp ir
Ġprecip itation
ac re
Ġad mit
Ġche aper
Hist ory
il ib
Ġst atic
Ġmethod ology
Ġfail s
ĠKen ya
Ġalle ged
Ġpress ures
Ñ Ĥ
M D
es see
Ġb ay
og ene
ou b
ĠTh ursday
Ġsubstant ially
ĠCre ate
ĠO d
ĠCont act
Ġacqu isition
Ġnurs es
ation ally
ĠG er
Ġsp ell
ros ion
Ġbelong s
Ġmean ings
ot ional
ro ach
ĠK ong
ĠPer iod
Im age
ĠTor ah
Ġhistor ically
Ġcoord in
D id
Ġmach inery
Ġeffic acy
Ġunem ployment
b one
ĠM aterials
Ġprom oted
Ġoper ators
M on
f ol
j amin
ĠN ich
Ġmen u
ĠT uesday
Ġterm inal
Ġenterpr ise
Ġsurv iving
Ġom ega
t est
Ñ Ģ
Ġcommand er
ĠProt ocol
ethe less
Ġtit les
ĠH ong
Ġpublic ly
ĠMem orial
Ġth rown
ok es
he res
Ġcomb inations
Ġlun ar
Ġhead ache
ĠMon itor
Ġwet lands
ĠT y
ang ers
sp e
Ġfor ty
ĠB ru
Ġpur ple
Ġcaffe ine
port s
Ġmembers hip
Ġrespond ed
Ġhe ated
Ġprom ised
ĠMar g
OR D
ĠCult ural
Ġun com
inc ial
ĠGold en
Sec ond
Ġsec re
Ġseem ingly
Ġrad ar
ropol itan
Ġmon itored
Ġb ases
Ġneed le
ĠPol ish
Ġpoison ing
Ġvolcan ic
ĠE N
Ġinf l
Ġher bs
Ġstrength s
b acks
Ù ı
is er
Ġd ign
Ġprof its
ĠN at
Ġrel ates
Ġent ers
Ġde ple
Ġautom ated
J une
k o
Ġind ication
Ġb es
ĠH ad
rou ps
ĠNew ton
ĠZ e
Ġre n
Ġacc used
Ġins ulation
Ġmiss ed
r int
Ġimm ense
E m
Ġintrodu cing
Ġconstra ints
ĠCh ile
ĠV ill
we et
Ġdraw ings
ĠExec utive
ven ue
Ġkid neys
ĠDec laration
Ġd irt
Ġbe ef
ig s
Ġ7 2
Ġproject ed
Ġext ending
Ġcur ious
Ġcomprehens ion
Ġch amp
Ġoff spring
Ġent ities
Ġser vers
ul ative
ad ian
ĠCommun ication
v ar
Ġint act
Ġassign ments
w all
op athy
Ġcontract s
C M
I O
Ġconv inced
ar se
Ġl y
Ġwas t
Ġmen stru
Ġpus hing
Ġar teries
Ġnorm s
Th us
ĠConnect icut
Ġlaw n
Ġhead ed
Ġimag ery
Ġvot ers
ĠG ro
ĠP H
ĠE s
pl us
Ġneigh bour
ĠHawai i
Ġdef ining
ĠObs erv
Ġar tery
v ity
Ġbe er
lic t
aw ay
Ġsym met
il ton
ĠW rite
ĠUt ah
Ġpla que
D isc
c r
f ive
ol ia
ĠB ody
Ġloc ate
Ġconsider ations
Ġprop he
he el
Ġdark ness
Ġb ike
ĠG il
Ġaff il
Ġfoot print
Ġread s
ĠKent ucky
Ġb om
Ġb ars
Ġsoc ially
ER S
Ġanaly zing
ang ular
for ward
ĠFrank lin
ĠPM ID
ĠB ad
Ġfe at
Ġcann ab
ĠD u
Ġbet a
ĠEv olution
kl ah
Ġev ac
Ġbas in
ĠGree ks
Ġsacr ific
Ġm im
Ġint ens
ĠAl abama
Ġland f
Ġt ender
Ġconstit ute
Ġh ate
Ġed ited
Ġaff irm
P res
Ġfound ations
Ġsec ular
Ġwin ning
Ġpl ug
Ġtra ins
Ġ5 4
ĠHealth y
Ġrail way
ol lo
ĠP resent
ib li
Ġrel iability
Ġconcent rate
co in
Su pp
in ence
Ġ196 8
ap ore
Ġrepl acing
b its
Ġdat as
Ġconstit u
ĠMark et
D is
Ġdo zen
Ġcomm emor
Ġinter rupt
ĠAr gent
Ġbuild s
Ġge ographical
ĠH unt
Ġdisp ute
ĠEffect s
Ä «
it ance
ol is
Ġcons p
Ġco in
Ġdist ress
Ġclos est
ĠAff airs
ĠT ax
ĠL G
ĠL ic
Ġ197 2
Ġstay ing
ĠElect ric
Ġgeomet ry
ĠNob el
Ġadv ised
gra duate
ĠSer ies
ĠU C
Ġpurch asing
organ isms
Ġrefrig er
augh ters
ĠP ay
Ġc her
ac cess
Ġexpl os
Ġstruct ured
Ġworks hops
h is
Î ½
v ance
Ġcast le
c at
ĠC ass
Ġmag ic
D ec
Ġbl ame
Ġm ul
Ġ197 3
Ġelev ation
Ġin k
ĠB ot
Ġle an
ĠFore ign
Ġcertific ate
ĠR out
Ġtem pt
as is
ist ence
Ġch im
Ġd rew
Ġsat urated
ĠPat ients
Eng lish
Ġte ch
Ġdemon stration
iz ational
In ter
sy stem
ĠTe am
ĠMal ays
Ġbut t
ex ts
Ġinadequ ate
Ġd ual
Ġinter vals
Ġpar ish
ĠProp het
Ġbrill iant
Ġsymb olic
Ġenvironment ally
Ġneurolog ical
Ø ±
Ġg ang
ĠD at
Ġim bal
Ġinteg rate
Ġchalleng ed
h ave
Ġqu e
Ġtw entieth
form ing
ĠBy zant
Ġassess ing
Ġupd ates
ou ch
ĠR od
Ġdecl ar
ĠWed nesday
Ġimpr ison
Ġoper ator
Ġcust oms
Ġfound ing
ĠPart icip
Ġc oding
Ġcar p
ĠTenn essee
F T
Ġ198 1
Ġvirt ue
Ġveter in
ĠPolit ical
ors hip
Ġcount s
Ġflu ctu
Ġemer gence
Ġpen cil
Ġdiscipl ines
ĠIntellig ence
g rad
Ġb old
Ġpig s
Ġaccum ulation
Ġundert aken
Ġasp ir
Ġresil ience
Ġy oga
ĠIndian a
Ġwor ried
Ġstat ue
Ġflo ating
ar p
igh ters
ath ic
Ġmar gin
U p
ĠE val
ĠAl bert
Ġjurisd iction
P ublic
Ġm ines
Ġd ated
Ġless er
Ġcomb ining
ras ound
p erson
Ġra ces
Ġact ors
Ġca ution
ĠSat urn
ĠImper ial
sw er
indu ced
Ġenthus i
on ge
Ġun healthy
ĠLiter ature
F l
Ġc er
ĠC ertain
ĠRes ource
ĠPl ants
Ġ197 6
C ent
Ñ ģ
ot hel
ĠG ames
Ġregist ration
Ġsp here
Ġvolunt ary
Ġhighlight ed
f our
ĠD or
ĠF isher
Ġcor ruption
Ġsold ier
Ġexpl osion
lu x
ĠS aturday
ad ic
ĠB esides
Ġcross ed
ĠLouis iana
klah oma
ĠG P
Ġprov inces
Ġlabel ed
Ġth umb
Ġpeace ful
ĠAdv anced
forest ation
ur ally
ĠH ell
ĠAr men
ĠSe lect
Ġ197 8
oca ust
Ġb ore
Ġpan ic
Ġdatab ases
Ġse gments
Ġd ictionary
ĠT ok
Ġgr at
ĠTr ump
Ġfresh water
ĠIniti ative
ĠP as
ke ley
Ġtest im
uls es
u ana
Ġm ant
ol utions
am ents
ĠSt aff
b led
Ġp ix
Ġlack ing
Ġextract ed
Ġres ident
Ġcalc ulation
Ġdepend ence
Ġlegisl ative
es y
Ġteach ings
Ġsatisfact ion
h ot
ĠB ird
ĠMar x
Ġfear s
Ġelig ible
M arch
ĠM agn
Ġcare ers
Ġter rible
Ġcr ash
ĠMar ia
Ġpro claim
ody nam
Ġsl ope
y ers
Ġdis in
Ġra ises
en ergy
ig ion
Ġimport ed
Ġvari ability
Ġdecre asing
Ġsn akes
ĠCast le
am ous
Ġcount ing
Ġlo ads
k ay
m ill
t r
est inal
ow ed
P ar
ĠK ings
Ġcirc uits
Ġrail road
ĠT ri
Ġrequ ests
ĠRe qu
Ġt ale
Ġbas ket
ĠBas ic
Sc ience
ult ural
Ġadvoc ates
ĠC ru
ĠF em
Ġintermedi ate
Ġext inct
Ġto dd
Ġ197 1
Ġcert ified
Ġb icy
ĠB all
Ġpl astics
Ġrele ases
ĠRel ations
Ġbreat he
Ġtrig gers
D ata
M at
vel ation
Ġnum b
Ġchem otherapy
Ġcompet e
Ġstim ulation
Ġt ear
et on
Ġtri ps
ĠLaw rence
Ġpries ts
ĠT ai
ĠE M
Ġrem embered
Ġillust rations
L C
ĠM it
Ġwere n
Ġ7 00
Ġpref erence
em an
ĠMil itary
Ġpra ise
ĠN ig
ced ented
Ġnob le
Ġdys function
ag us
Ð ½
Ġad min
Ġcontrovers y
Ġsu ited
ĠV o
Ġec ology
Ġtherap ist
Ġmel an
eng u
Ġconcept ual
Ġpharm aceutical
n ames
Ġ1 30
ĠH al
Ġv otes
Ġsure ly
Ġf art
Ġg el
Ġinform al
ĠCount ry
Ġcru el
Ġwaters hed
Ġscat tered
u ate
Ġp iano
ĠS ustainable
Ġde ce
Ġde emed
Ġlater al
ĠHistor ic
Ġch ips
ĠAust ria
f il
ĠI b
ĠM u
Ġsub ur
Ġ6 6
Ġinvestig ations
Ġprem ature
Ġpron ounced
Ġt ies
ast ed
Ġcont exts
In f
Ġdep icted
Ġobst acles
ĠConfed erate
ĠStan ford
S ign
T HE
Ġas set
ues e
Ġload ed
Ġnav igation
ĠL ie
Ġpract icing
let al
Ġelimin ated
Ġshell s
he nd
Ġis ot
Ġ196 7
Ġg ross
Ġmod est
Ġcomple ting
Ġsw ord
ĠL ady
Ġrel ies
M us
Ġtr ies
ĠCol lection
plic it
Ġb ats
iff s
Ġsens ation
e ur
v as
Ġpo le
op or
Ġcomp ression
Ġmod ules
Ġcreat ure
Ġbank ing
Ġradio active
Ġles ions
im ity
ĠD ur
Ġprom otion
Ġfunction ality
ĠS i
ul ent
Ġoff set
Ġnegative ly
Ġfram es
Ġtack le
k m
m us
o ard
ar b
ĠS el
Ġwh ites
Ġle ts
Ġed iting
Bl ack
Ġrecept or
ĠPalest ine
is l
Ġg lands
Ġsp ite
hem atic
Ġdiv isions
Ġfrag ments
imm une
is a
Ġn ausea
ad ays
Ġtra ged
Ġcar ing
c ription
l ades
Ġl ighter
Ġkn ock
Ear ly
al g
ed ge
em pl
ĠF acts
ĠV eter
ien cies
Ġobserv ing
Ġslow er
( )
m other
od ge
Ġunc ons
Ġreb ell
he at
Ġcurrent s
D i
ĠS O
ĠU pper
Ġ197 4
Ġge ography
ĠO R
Ġmod ify
ilib rium
Ġm a
ĠR aj
Ġcontin ually
Ġwound ed
pl ane
ress es
Ġinter val
Ġgl ory
Ġmosquit o
ĠA qu
ĠSc i
ĠSh ow
Ġconsult ation
Ġactiv ists
Ġ196 5
z ens
it ives
ic iency
Ġwar rant
Ġoper ates
Ġuncle ar
Ġimpl ant
ĠVis ual
Am ong
Ġs or
Ġnot ably
Ġj et
Ġworld s
Ġpoint ing
Ġadvoc ate
Ġexclus ive
Ġlegit imate
m atic
ed ed
ĠJ oh
Ġjour nals
ena issance
F eb
ĠUs ually
Ġexplicit ly
in us
om ething
ĠB oy
Ġup set
Ġtrans it
sc ill
Ġsimilar ly
Ġalt ogether
Ġfung i
Ġatt ending
ĠUS DA
Ġagree ments
Ġdam ages
iet al
ann el
Ġcert ification
ĠAuthor ity
C or
d ated
Ġn ode
Ġexam s
az a
Ġharm ony
Ġdescend ants
ĠInd ependence
Ġdiv or
Ġunp re
Ġwithdraw al
w ind
Ġat e
ffic iency
Ġstay ed
Ġin ability
Ġpredict ions
W ork
Ġcon sec
Ġ19 18
we alth
Ġdes irable
Ġfirst name
mon ary
Ġcryst al
aren cy
itzer land
Ġinsu fficient
Ġmark er
Ġbow l
Ġbit ter
ĠCom mer
Ġforg otten
ur ring
um a
Ġexplan ations
or ical
ĠB ob
Ġread ings
B L
Ġneg lect
Ġmel ting
Ġbrief ly
P M
Ġwell s
m ates
Ġsc reens
Ġinput s
S ometimes
u ly
Ġinterf erence
Ġco ating
Ġinterf ere
Ġentertain ment
Ġo zone
al in
Ġret ire
Ġshif ts
Ġst ir
vers ion
t ically
lement ary
Ġstri kes
Ġdiss olved
m ind
Ġp oultry
Ġb inary
ĠMuh ammad
Ġtra p
ier ra
Ġimpact ed
ĠOr d
Ġgas oline
Ġsepar ately
Ġartif acts
Ġban ned
b ird
o z
Ġc ups
Ġident ifies
Ġcy t
ĠVir t
th ird
ĠPub lishing
Ġlandsc apes
b ound
Ġcl osing
Ġqu ot
Ġfre ed
G A
T ube
Ġpresent ing
ĠIsrael i
Ġto ll
Ġol ive
Ġsh o
Ġbas eline
Ġ194 4
Ġalt itude
Ù ħ
ĠM aine
ĠR ap
c ount
ar ity
ather ine
Ġperm its
Ġc el
Ġill um
M M
Ġl uck
ĠC hen
ĠCons erv
ĠTer rit
os ures
oc occ
Ġgu ilty
Ġantioxid ant
as ia
ĠR a
Ġind ivid
Ġextens ively
Ġcont ra
Ġb ip
Ġ194 1
K now
u i
ĠB it
Ġfund ament
over ty
Ġmix ing
Ġimpair ment
Ġl ux
Ġse ats
Ġtru ck
unc iation
ĠMathemat ics
Ġhypert ension
H er
Ġb on
Ġbill ions
F C
Ġ1 10
Ġind o
Ġret ained
Ġapprec iation
ar ms
Ġl enses
Ġex ert
ĠArch ae
Ġrow s
est eem
ĠSc he
Ġbreak down
Ġjud ges
Ġsynt hes
ĠT al
all ing
Ġstrict ly
Ġfung us
Ġbrid ges
Ġatt ribute
Ġleg ally
Ġ196 4
Ġreform s
Ġmit ochond
it ational
Ġlong est
Ġgraph ics
p ers
we ed
uc ks
Ġfe es
P C
Ġconf ined
ze ch
Ġpresident ial
Ġg ay
Ġmod es
Ġsimilar ities
Ġwalk ed
Ġtit led
b en
ĠP ict
op ing
ĠV ery
Ġsil icon
ĠBen jamin
Ġunpre cedented
D es
ol ith
Ġwar fare
ĠSy ndrome
Ġcompr ised
S ur
Ġsome how
Ġstandard ized
ing ing
ound ing
ĠNe v
Ġtravel s
Ġalle v
O V
e u
ĠO klahoma
Ġc ows
Ġal leg
Ġimp aired
Ġ5 8
ĠP ast
Ġpat ches
b es
Ġpro be
ĠP ediatric
ĠG ospel
ĠJ ordan
Wh ich
eren n
K ey
ra ined
ĠP a
Ġwhe els
Ġsc rew
Ġmyth s
t ics
Ġch at
ĠSt ock
Ġmill enn
ĠPark inson
Ġtrib al
Ġintest inal
Ġworkshe ets
art icles
Ġdes per
Ġchar ging
Ġthreat ening
Ġ193 9
ĠDem ocr
F ood
Ġplace ment
Ġreh abilitation
G reen
ĠSing apore
ix ed
reg n
ĠÂ »
ĠB ah
Ġinsp ire
Ġaut umn
ĠH ind
S everal
Ġsystem ic
ĠCol lect
ĠAb original
Ġdest ructive
ĠDep ending
Ġsil ent
ĠHT ML
Ġint rig
N et
Ġcoll aps
i pt
Ġrec ru
Ġunder m
Ġfoss ils
Lear ning
Instit utions
as a
ĠYou th
Se pt
p in
Ġb apt
ĠG as
ĠD omin
Ph oto
Ġm ast
ĠTe le
Ġphot ography
Ġevalu ating
ĠW y
Ġche cks
Ġdelay ed
ĠCop yright
th reat
Ġfather s
ocy tes
Ġm elt
Ġf its
ĠA ra
Ġse as
Ġnegot iations
P E
ĠF at
Ġjo ining
Ġs ink
Ġtrig gered
Ġgro cer
Ġaccommod ate
ĠC redit
Ġnav al
Ġwh ale
Ġbeh ave
ĠDe ep
Ġflood s
ĠRad io
d em
ĠC ook
ĠC ert
Ġblock ed
Ġattach ment
Ġo ct
ĠP ra
est het
Ġref ined
ĠImp act
Ġc in
ĠB road
Ġdis se
ress ions
ov a
Ġval ued
pro cess
Ġexplo itation
ĠBe ach
Ġas bestos
Ġrein force
Ġachieve ments
Ġg er
ĠS ri
ĠPop ulation
Ġdel ight
Ġv ic
Ġout standing
Ġtoxic ity
Ġpref erences
ĠBro ok
V is
al ine
ĠSwed ish
Ġw ires
Ġd ump
ul ous
ĠP il
ĠAl ways
Ġlik es
oven ant
Ġinsert ed
ĠVen us
ion ed
Ġab ortion
Ġwast ewater
ĠW inter
Ġdial ect
Comm on
Ġappl iances
p ath
Ġrul er
Ġcav ity
Ġhung ry
Ġcon form
Ġ197 7
Ġwat ched
Ġsubstr ate
im ination
ĠB BC
em at
Ġrev ised
ĠR oss
Ġuncons cious
Ġeconom ically
Ġ ||
Ġv oy
lud e
Ġgra b
Ġund ers
ĠT B
Ġ194 8
ĠReg ional
Ġcitizens hip
b uilding
Ġl ining
ĠC ab
Ġnew born
Ġsurround ings
ĠPlan ning
ĠTor onto
opor osis
ĠL u
Ġreal m
Ġd edu
Ġsp ont
ĠSy n
ĠR enaissance
id th
ĠP ersonal
Ġr ating
ul iar
ĠIn nov
av y
Ġpositive ly
ĠSum mer
ar on
ĠOr thodox
pro of
ĠSw itzerland
r ish
ĠI owa
ĠD ick
Ġper ceive
âĢ¦ .
enn is
Ġsequ encing
G ood
d ec
Ġc ous
int estinal
ĠMc G
Ġl act
ĠS D
ant e
Ġstri p
Ġf ool
Ġor th
Ġr ival
un es
Ġtut orial
ĠPhilos ophy
ĠG ame
Ġmicro bi
fort able
p res
ĠP V
ĠB egin
unct ure
ĠS A
Ġoccas ions
h ol
Ġchart s
ing ham
Ġse af
ers hip
ĠB ox
Ġ194 2
Ġcra fts
ect or
mar ks
ĠNor way
S ym
st orm
eth yl
Ġplan es
ĠAnt on
H el
Ġr anks
ĠK y
Ġwork force
ert o
ĠWh it
an ic
ĠW as
ru bs
Ġev olve
arm ing
Ġnav igate
rox imately
Ġincent ives
ĠR ain
amm a
omet ric
ĠSk ills
ĠAgricult ural
ĠT ogether
red ict
Ġsufficient ly
g roup
Î ¿
Ġw ounds
ĠR ac
Ġinf o
Ad d
Ġmac ro
F ollowing
ĠP erson
int erest
cell ular
Ġdisapp eared
Ġscar ce
V I
an ia
Ġd well
id el
isc al
ĠIm age
Ġprosper ity
og ical
ĠC ro
f und
h ome
od ia
ag a
Ġexpl ores
ven ile
Ġunc omm
h al
sec ond
T C
od s
Ġinv isible
Ġmon aster
Ġpack ed
Ġpure ly
r ator
Ġen rich
i w
Ġun ions
ĠAll en
Ġinsp ection
osc ow
Ġacknowled ged
A ct
Ġactiv ated
ĠRes ults
Ġincl usive
Ġharvest ing
Ġelectro ly
ĠP it
b ial
ĠT our
Ġ19 14
Ġtrans cript
Ġelimin ating
am bo
est ab
ell ar
Ġ20 30
Ġgener ates
Ġsaf egu
Ġtransport ed
Ġparas ites
Ġtempor al
Ġinfin ite
pro t
Ġdeploy ed
Ġe ternal
ĠN ut
ogen esis
ĠBang lades
ĠUn iverse
Ġinv al
Ġlast ed
ĠMe anwhile
Ġsubject ed
ill es
Ġmob il
Ġstret ching
v ised
Ġm aternal
Ġqu oted
ĠV ideo
ins ic
Ġgener ator
B en
Ġs ake
ff icking
Ġconcept ion
Ch apter
Ġce ment
ĠProtest ant
D own
Ġc ram
Ġf ired
ĠA stronom
ĠC M
ĠB ishop
ĠH ans
ry ption
Ġbur ial
ĠV iol
Ġwar ned
Ġdiam ond
Ġsan ct
Ġoutl ined
re ach
Ġg ently
ĠM un
ĠH un
ĠTh ings
Ġintest ine
ĠR oc
Ġbr ut
Ġpul se
ĠStr ateg
A pril
l ip
re a
ĠD ak
pt on
Ġformer ly
Ġcons iders
Ġen erg
Ġtra pped
ĠAl f
Ġtraum atic
R et
iz oph
Ġpass ages
Ġsec ured
ĠAn aly
Ġbul bs
Un fortunately
im b
ad i
ĠM IT
Ġj ack
ij uana
Ġindivid ually
te ch
Ġtour ists
ur u
ĠH art
ĠL oss
com a
Ġw ool
ĠP RO
St art
ĠDen mark
ĠCub a
ĠPrim ary
Ġal b
Ġcomp iled
Ġcons olid
Ġben ch
Ġrecogn ised
Ġgall ons
S E
S ch
ĠA ward
Ġkey board
ĠSim on
ĠC amb
ĠB ud
ĠB uild
Ġwe eds
ĠAl cohol
Ġret rie
ĠMag azine
M r
th a
we ek
Ġve ins
Ġpl ural
Ġfail ing
B O
Ġr iding
ĠY O
ĠSy d
ĠNap ole
ĠAll iance
d y
ĠS outheast
Ġpe an
Ġ6 3
Ġsix th
Ġselect ing
Ġcombust ion
Ġo ak
ill ery
ens ing
Ġcou pled
Ġarrange ments
F e
ĠT itan
ad ows
Ġcrit ics
Ġpe as
ĠG PS
Ġmunicip al
a uses
Ġst ro
ĠE V
og lob
Ġ6 2
ĠAnt i
Ġinev itable
Ġr ip
Y et
d ig
ĠG ive
Ġsettle ments
er k
ut ers
Ġpre jud
Ġdraw s
ceed ings
Ġroll ing
Ġcultiv ated
ĠPortug uese
w ich
Ġaut onomous
Ġcompet ing
Ġinstruct or
Ġlingu istic
s ite
Ġmaint ains
Che ck
Ġhepat itis
Ġt et
ĠCon n
Ġearthqu akes
izoph ren
Ġqu een
ĠBi ological
d irect
sel s
% ),
st an
ĠK it
Ġcultiv ation
th an
Ġat he
Ġph on
Ġmod ifications
ĠCol omb
Ġspir its
orient ed
S M
Ġar sen
Ġdry ing
st able
se ts
ys ics
Ġhop ed
Ġinstruction al
ĠOlymp ic
A f
ir k
Ġsu cc
erv ice
D C
ĠV erm
ĠDise ases
ĠCap ital
t w
dr iven
b ot
Ġb iblical
oc ate
r ative
Ġ196 3
it ime
ax is
Ġun su
ĠV I
Ġabd omen
Ġ6 7
D T
Ġy og
Ġsm ok
Ġcryst als
P oint
Ġs ends
Ġwor ms
Ġres olved
Ġactiv ation
ĠBer keley
Ġtr illion
Ġprot otype
ĠS ound
Ġen roll
Ġhoriz on
Ġmicrosc ope
Ù Ī
ot le
ĠE aster
ĠMay be
f ram
ir ie
ob acter
Ġl iber
Ġs emic
Ġp our
Ġass ass
Ġrest ing
rolog y
ar bon
Ġstr ings
Ġsurge on
Ġcomprom ise
Ġcerv ical
j an
ĠCom par
ig o
Ġr ated
Ġcl ot
Ġinvestig ating
Ġdemand ing
Ġadjust ed
Ġcrit ically
P T
ĠL akes
per ature
ĠMe chan
Ġtable ts
Ġh ub
am el
Ġlay out
ĠBab ylon
Art icle
p ack
ĠL uke
ĠPer u
ig nt
iv ic
Ġra m
Ġinter con
Ġcent res
light en
Ġastronom ers
Ġmicrob ial
Ġmetap hor
R ed
ĠP rior
Ġreg ards
Ġtu ber
re hend
Ġc ock
Ġj un
Ġcondition ing
Ġpec uliar
rag on
Ġhand ful
B et
t em
ĠSt ress
Ġsol ved
Ġvulner ability
ĠN urs
Ġ5 9
Ġexam ines
Ġproblem atic
Ġut ter
Ġmechan ics
Ġrestaur ants
D oes
ĠS ant
ias is
ĠA y
res istant
oth s
ĠDis order
im ated
Ġtra ces
Ġcar rier
uss ian
N on
Ġc ro
Ġhigh way
Ġland ed
10 16
ĠE at
ĠGen erally
hes s
it ar
Ġdesign er
Ġillust rates
Ġemphas ize
oc ene
M in
Ġf usion
ĠC hemistry
pl er
Ġdo zens
ne e
Ġmed ian
Ġdr illing
Ġpass enger
Ġpress ing
Ġpropos als
Ġepis odes
S ocial
Ġd ot
ĠCal c
199 9
ĠH ou
Ġth ou
Ġr um
ag u
ĠAp ollo
Ġmand atory
p ose
p ub
Ġd warf
ir s
Ġstop ping
ĠMc K
ĠFreder ick
Ġhas n
ĠK al
Ġden y
p op
ĠD og
Ġr het
ĠF ollow
Ġprocess or
Ġsupport ive
Ġconnect s
Ġ19 17
Ġsc rap
Ġter rain
th y
Ġinter ven
ĠSyd ney
Ġret ention
Ġtransl ate
w riting
ĠB rig
Th ree
Ġdr um
Ġsusp ended
De velop
M c
p it
Ġb esides
ĠT u
ot ive
ĠF un
ik h
ĠCo al
Ġaster oid
ĠAd ams
Ġpost ure
Ġd aughters
Ġsh ame
Cl ass
Ġdow nt
s im
ĠHol ocaust
Ġoutbre aks
H uman
Ġa rom
com put
Ġritual s
Ġperipher al
f in
ĠFor um
Ġprom ises
c ap
ĠL es
Ġcount less
Ġinnov ations
ĠAng lo
ĠAccess ed
W hether
Ġb od
Ġunt reated
Ġhom eless
s ource
ĠM RI
Ġdis abled
Ġcar go
Ġt ears
ĠH ope
Ġbl ade
ĠEurope ans
dep th
Ġuncom fortable
l ie
ron es
ret ion
ĠLt d
Ġ q
en c
Ġam ph
cer pt
Ġport able
Ġpip eline
ch a
Ġgr asp
Ġaccording ly
Ġd amp
ĠBl ock
f ood
on ut
ĠT ool
ĠS C
AN D
ĠTra vel
Ġwitness ed
Ġinc ub
Ġuncomm on
ĠF ried
ĠH ug
Ġret ired
Ġ9 7
Ġparam eter
or rh
ĠE instein
hes ia
ĠTe ch
Ġnetwork ing
Ġelectrom agnetic
Ġform ally
Ġsim ulations
Ø§ ÙĦ
Ġshoot ing
p owered
Ġgard ening
Ġcoord inate
L O
ð Ł
ĠC zech
ĠD ate
ĠYou Tube
Ġret reat
Ġglass es
ĠEthiop ia
Ù ĩ
ĠC ON
Ġ18 50
Ġgod dess
rep resent
Ġprohib ited
Ġelabor ate
re as
ater n
Ġobt aining
ĠSm art
ĠArch ived
Ġclim b
Ġoblig ations
W omen
n est
it ated
st ock
Ġpub lishing
Ġmoment um
ĠExt ension
Aug ust
ch i
im ental
ul se
us ually
Ġrec ruit
P P
Ġd ye
ĠC E
Ġwas hed
Ġdes cent
ul atory
Ġsign aling
im eters
Ġappro aching
e er
ab ase
us ions
Ġmod ification
Ġafter wards
Ġs its
Ġinc ons
Ġcar ved
Ġlay ing
Ġstreng thening
ĠBas in
Ġtomat oes
Ġdisag ree
O ut
Ġfail ures
Ġspot ted
Ġrecip e
ĠCurrent ly
Ġmyster ious
Ġform ats
ĠAl ong
Ġur gent
Ġneighborhood s
are ttes
Ġdispl ace
g ic
Ġc ater
anc ies
Ġel ite
Ġdyn asty
Ġod ds
T ime
ĠM oscow
Ġmon etary
any on
Ex pl
Ġpy ram
Ġmosquit oes
Ġdies el
ed e
em en
Ġquestion na
ĠHar ry
u ated
Ġsupp l
Ġst ocks
Ġwild erness
Ġrequest ed
ĠMo ore
Ġindo ors
at ivity
Ġsex ually
Ġanx ious
Ġstrugg les
Ġcryst all
Ġfro st
Ġfol ks
op hers
ignt y
L ife
Ġun ited
Ġevery body
Ġlit ter
Ġmem orial
aut ions
cont rol
Ġtom orrow
Ġcounterpart s
ur ities
Ġas ym
ond er
Ġdisc iples
Ġpub lish
Ġbre eds
br ates
Ġbirth day
at is
ra ce
ĠB rad
Ġlim b
l og
Ġtr unk
eng ine
ccess ful
Ġsing ular
Ġflu x
Ġsil k
elt a
Ġillust ration
ĠBel ow
Ġfeather s
w alk
Ġr ust
ĠL anc
Ġinf rared
Ġimm ers
Ġapp les
Ġsatisf ied
Ġcounsel ing
Ġo un
le ans
ĠS ong
ĠAn th
Ġpresent ations
AT E
Ġvari ants
Ġrecon struct
Ġunw anted
) )
Ġstr at
Ġdel icate
Ġa u
ĠC ust
Ġr ash
ĠR E
ĠG i
ĠY e
Ġprim itive
Ġpneum onia
Ġprior ities
Ġperman ently
Ġa esthetic
Ġbe aches
Ġpre lim
Ġam bit
ores cent
Ġl in
Ġhe s
ĠF ile
un ks
Ġwhere ver
ĠDe b
if iers
Ġlear ner
Ġadul thood
Un iversity
Ġfirm ly
m ay
p iece
v ia
Ġint im
Ġbl oom
sp eed
Ġd os
ac erb
ĠF ox
yp ical
Ġdep ressed
ĠPat rick
ĠHispan ic
ĠLG BT
b ling
Ġn urt
ĠT rib
Ġco h
Ġtur tles
. (
im ore
Ġsm ile
ĠPro ceedings
il ies
ĠN ile
ĠU ntil
Ġ18 80
st yle
Ġsil ence
TS D
Pub Med
Ġschem es
Ġspec ify
Ġappropri ately
Ġrecommend ation
Ġpet roleum
li hood
D av
F ree
er ce
ĠU g
Ġsn ack
roph y
Ġburn s
ĠTest ing
Ġneighbor ing
Ġrecip es
ĠSar ah
Ġv ascular
Ġoccas ional
T op
k g
od us
ĠR os
Ġlower ing
Ġf ans
new s
Ġchromos ome
S O
is ol
ep s
ES CO
Rel ated
ĠEx cel
ĠSoft ware
Ġst amp
Ġplanet ary
Ġwel ding
Ġprelim inary
n ote
Ġw ishes
The ir
ail and
Ġtrans action
ĠReg ion
Ġcosm ic
ef t
mon th
Ġseiz ures
Ġin exp
ac ity
ĠH ud
Ġorgan izing
Ġlect ures
Ġinc om
plic ity
Ġcool er
Ġworth y
ĠAntar ctic
m l
Ġver ify
= =
re ck
ĠB ron
Ġemploy er
Ġsod a
ĠImm un
ĠMach ine
J uly
ĠCon sequently
Ġmor ality
Ġtrou bles
Ġmuseum s
Ġmat ching
Ġtem ples
ros is
bre v
Ġpil grim
ol en
ĠP s
St ate
ĠFin ancial
w elling
Ġe ager
Ġre pt
ĠS now
Ġfle e
e an
ro st
str ong
Ġtoile t
ĠTh om
Ġperiod ic
ĠMan ual
ĠPlan et
Ġclar ity
ard o
Ġequ ilibrium
Ġur inary
Ġbare ly
art z
ĠL ive
ĠL ink
ĠEconom ics
Ġwe ed
ĠTh or
Ġed it
ran ch
Ġremed ies
ĠNig eria
ĠBanglades h
ĠD raw
ph a
Ġdef ence
Ġlet ting
B o
Ġl iability
Ġdr ill
Ġcomb ines
Ġjud icial
oler ance
A ust
in ar
ing e
Ġfree zing
ke eping
ĠF unction
Ġ18 0
On ly
le ys
Ġac re
Ġmon arch
ĠCommun ist
ĠHam ilton
m ath
Ġp orts
Ġatt raction
Ġanim ation
ĠChar acter
Ġdram a
Ġbe verages
Ġ6 8
Ġmin istry
Ġhead ing
Ġap ost
ĠPre vent
Ġmembr anes
ĠWal ter
p ret
ĠDi agn
ĠCh air
l av
Ġst ew
ĠE ve
Ġgrass es
es ar
Ġgra zing
Th anks
Ġclin ic
cul osis
Ġsp ill
ight ing
Ġsupp orters
Ġtarget ing
Ġaltern ate
Ġd ens
Ġal igned
ĠNev ada
Ġth ir
ĠM as
ĠO K
end ix
Ġharvest ed
p hen
Ù Ĭ
ĠC anyon
op oly
og rams
Ġpet ition
Ġastronom y
Ġt ie
ri ans
ĠO w
ace ous
ĠVictor ian
Ġreef s
all ic
au x
Ġsc ans
Ġerect ed
I H
ĠT ob
ĠC yp
Ġan k
Ġad olescent
Ġatt orney
ĠAl ber
ĠMarsh all
H aving
ow ing
H ar
ĠG rowth
Ġ10 1
Ġadvent ure
Ġbuff er
p her
ĠN elson
Ġrel uct
Ġany way
Ġfif teen
ĠP ack
ĠO ak
ĠEx ercise
We b
ut o
Ġ19 10
Ġj ar
Ġspec ially
Ġpal ace
op sy
ĠW right
ĠUnivers al
A IDS
ct ica
ĠB att
lim ited
Ġtou ching
s hip
Ġp ound
ra ul
Ġbus h
iat ry
Ġembra ce
izophren ia
ore st
Ġphosph orus
c ost
Ġpro c
Ġindu ce
Ġfor cing
Ġan a
Ġdes ires
ĠOr leans
Ġexc ite
Ġbul b
z es
ro ts
ĠH az
Ġne arest
Ġbu g
Ġcor rupt
ĠCle ar
Ġcort ex
m ans
Ġmat ches
Ġflow ering
ĠIm ages
Ġreprodu ce
ĠPen insula
Ġremed y
ĠCho ose
Europe an
Ġpart ition
Ġfact ories
Ġcivil ian
o vers
he rence
Ġf riction
Ġwater ing
Ġmicro organisms
Ġtour ist
Ġrig id
Sim ilar
Ġt ent
pp ers
Ġsh ops
Ġdisc ount
Ġreflect ing
Ġstraight forward
Ġgrav itational
Ġa ug
Ġm ol
ĠP i
ĠPh arm
ĠOtt oman
ĠI C
ac hers
ĠPart ners
Ġex acerb
au nt
ject ive
get s
Ġpract ically
ĠProgram me
Ġpursu it
Ġst ain
pro f
Ġ196 1
Ġtransp arency
Ġy ards
od d
Ġantib ody
ester day
Ġper ceptions
Ġgo ver
Ġ6 1
Ġinvest ing
Ġdefin itive
Ġnation wide
Ġinvent ory
ĠB urn
Ġapp ar
Ġanaly tical
S D
ĠA er
now ned
Ġprior it
ĠDel hi
Ġs ie
ĠRef erence
ĠN C
Ġprox imity
Ġeleph ant
ĠW at
ast ically
Ġauthor ized
Ġdemand ed
Ġfriends hip
Ġp umps
Ġhop ing
ĠBapt ist
Ġambit ious
S um
ar an
ĠBet ter
uten ant
Ġalign ment
Ġs our
il age
Ġl augh
Ġnot ing
ous ing
l en
Ġb ureau
ĠC L
ĠNorth west
ĠS ierra
Ġcomp elling
Ġter restrial
Ġcompan ion
ĠE sp
Ġtreat s
Ġhuman itarian
Ġfil ed
ĠP ent
us c
hat t
Ġcompr ises
Ġentreprene urs
Ġp erenn
ĠF est
Ġdeliver ing
Ġabnormal ities
ur g
ad ers
ex pl
Ġstress es
Ġveter ans
Ġt ide
ĠW olf
ell o
Ġder iv
Ġtrust ed
Ġresp ected
Ġlight ning
Ġsuper vision
Ġclaim ing
Ġexcept ional
RE E
d ependent
ĠO ri
Ġinf erior
Ġcur iosity
Ġprof iles
RO M
Ġvent ilation
ĠAnn ual
Ġ âĢĻ
ig e
ĠW ords
199 8
ĠCour se
ĠIndust ry
Ġpres erving
D ay
ric ular
ĠChrist opher
L a
am an
Ġfl ame
Ġcr ude
Ġutil izing
Ġa rose
ĠS eed
Ġst oring
ĠN uclear
" ;
c op
Ġd a
Ġo scill
os itory
min ute
ii i
________ ________
ĠMic hel
S y
enn y
Ġphilos opher
Ġspect acular
Ġassemb led
Ġpuzz le
on ed
ry st
Ġeas iest
Ġpot ent
Ġexclud ed
Ġfart her
F P
p ot
ĠT ell
if iable
Ġ18 90
ĠDougl as
E duc
mark et
Will iam
te g
Ġcontact s
Ġult rasound
Ġcommunic ating
W S
ro d
Ġfr ight
Ġtri angle
Ġgradu al
Ġdign ity
l aim
w idth
it ably
ĠT a
ĠD ental
Ġs q
ard less
Ġall ies
Ġhand led
ĠAnd erson
Ġexpress ing
ĠE ye
Ġhier archy
Ġtraged y
r idge
ol ics
Ġen velop
ile psy
al ry
Ġar ises
Ġwell being
Ġorgan izational
Ġholid ays
Ġtempor arily
Cons ider
Ġbur st
Ġveterin arian
ĠR u
ri ages
Ġ9 8
Ġlast s
bre aking
Ġagg ression
Ġdefic it
ĠIsa ac
G s
ĠS QL
Ġinf est
ĠSw iss
Ġswitch ing
Ġguarant eed
? )
b irds
ĠK ind
Ġrev ision
omet ry
Ġexcept ions
spec ies
o in
Ġdifferent ial
Ġpot ato
Ġnut rit
ĠBro ther
7 00
ĠR on
Ġparticip ant
Ġwood s
E v
b oth
Ġtr ash
Ġtem plate
ĠKh an
ab el
Ġrespond ents
ache lor
Ġod or
Ġsulf ur
ch ildren
ĠD ocument
Ġparent al
Ġl ion
Ġg low
Ġsh ark
up uncture
Ġce iling
AR S
n ational
Ġspec imen
ann y
ĠRec ent
Ġsub mar
Ġpred iction
ĠEv idence
Ġtime ly
ant ry
Ġinst inct
ĠAl b
ĠHow ard
Ġmus h
ĠLe v
Ġdin osaurs
Ġempir ical
p a
ĠT erm
Ġ196 2
Ġunc on
ĠSaf e
Ġnest ing
Ġfant astic
1 50
Ġcom et
Ġ20 23
ĠAg reement
ĠPol ice
Ġteen agers
Ġsatisf y
ĠT aking
Ġhot el
Ġclick ing
Post ed
ul as
Ġdeterm in
Ġconsist ency
Ġg ig
ĠE ric
Ġcl ues
Ġjust ify
Ġdet rim
Ġbrand s
Rem ember
ĠUk raine
Ġfluor ide
âĢ ²
Ġam mon
Ġoff ensive
Ġacid ic
Ġv oted
ĠG ram
Ġab st
ag rams
ĠV ien
Ġcor rosion
Ġcru c
Ġexhib its
Ġemphas ized
Ġh anging
Ġre ass
ĠG round
Ġ18 60
Ġrecre ational
Ġle ather
ĠTh ailand
Ġrad ius
Ġlive lihood
ĠJud a
Ġlapt op
B ook
n utrition
Ġup ward
h ouses
ĠS alt
Ġad hes
in ters
ĠIn it
Ġconf using
ĠAct s
ĠAct ivities
ĠQue bec
osynt hesis
Ġu pt
Ġmat urity
Ġcou ples
ĠGuid elines
it ol
Ġdom ains
Ġ196 6
ĠQu estion
Ġshar ks
Ġdisapp oint
Ġoblig ation
s ens
Ġm ad
ĠT s
am ation
Ġcon ve
ĠH ait
Ġres ort
ĠColumb us
S chool
t i
ĠT ower
Ġpl ag
Ġvalid ity
he art
ch y
Ġst ating
ĠPro b
ĠQue ens
Ġd y
ch ild
op a
ĠEd itor
Ġminor ities
Ġtestim ony
× Ļ
ĠN an
00 00
old ing
Ġdisc ont
ĠPl us
Ġaccess ibility
ĠEmer gency
p ublic
w orm
Ġ7 4
ĠCit iz
A V
ĠT R
Ġk et
Ġstrong est
ĠTr uth
Ġpull ing
threat ening
l ad
ĠT ips
Ġor ch
Ġdiff ers
Ġlink ing
Ġdocument ary
k rit
og ly
ĠK a
Ġvari ant
Ġlik ed
Ġfo am
F r
L ess
t ar
Ġex it
ĠIn v
we g
Ġep ic
Ġmanip ulation
g ly
Ġh ob
il i
et ric
Ġcont est
Ġcolor ful
ĠProble ms
oub ted
o T
ĠB ase
um m
ĠF oot
Ġdec k
Ġrul ers
Ġinject ed
ĠImpro ve
ĠSqu are
ĠMalays ia
Ġ 000
ĠI U
Ġan ts
ĠB ull
Ġ7 7
Ġlim bs
Ġpark ing
is an
ĠSp orts
Ġchar ity
acter ial
ĠTai wan
Ġfl ags
ĠAd ditional
There fore
ann ah
Ġrespond ing
Ġsurprising ly
Ġparad igm
L ist
im s
ĠTh ank
Ġact ed
Ġed itors
ĠFed eration
Ġm arc
Ġexp orts
ring e
Ġport rait
Ġbreak through
Ġbackground s
aret te
du e
ific ant
Ġpos es
ĠAd vis
Ġdestro ying
Ġnas al
Ġshould ers
Ġterm ed
Ġjew el
B as
v ic
Ġb ol
Ġn a
op ard
Ġpat ron
sc ient
Ke ep
l an
Ġexerc ising
Ġpun ct
disc iplinary
c hem
on i
Ġcomm erce
Ġappro ached
lighten ment
ĠC ond
us er
Ġprodu cer
Ġoccup ational
d ose
ill er
ĠB rand
Ġimper ative
Ġber ries
Ġsurre nder
á ¸
Ġg ym
Ġsign ature
Ġfast est
Ġmaxim ize
ĠE C
ĠL ank
Ġweek end
Ġshel f
Ġsan itation
Ġcompat ible
D NA
Ġ ]
Ġp ad
ĠD ark
ne ath
Ġul cers
Ġm asks
ĠUS S
Ġviol ation
uls ive
Ġstimul us
ĠS ans
ĠR A
Ġ19 19
ĠAmeric as
Ġrele vance
c ard
i age
ab y
S w
ur ate
Ġprevent ive
Ġsum mit
Ġsimpl er
ĠV acc
ĠM olecular
Ġaut onomy
Ġple asant
head ed
f lu
Ġ194 7
Ġload ing
Ġt y
Ġl ucky
ĠI M
ĠM i
Ġrun off
Ġbat t
Ġan emia
ĠG ib
Ġcop ing
Ġfract ure
Ð¾ Ð
n osis
om ics
Ġoverse as
ĠF riends
ĠPl ato
Ġdecl ining
Ġball s
ĠNich olas
ro sc
ĠC art
Ġtra ced
Ġ18 70
Ġke en
Ġo ven
Ġd ermat
Ġnumer ical
op en
ĠH yp
ĠN AT
Ġrecogn izing
ĠAct ivity
Ġconc ert
Ġd olph
20 18
Ġlaw yer
Ġ14 0
ĠComp an
Oct ober
Ġent ries
Ġrestaur ant
Ã ¦
ĠS ay
Ġgl uten
Per haps
199 6
Ġembry os
Ġtact ics
ĠEvent ually
er red
ur b
ĠRec on
Ġdrag on
ĠD h
ĠSp ect
ĠCur riculum
ij ing
ĠCons ult
Ġinh ab
Ġadmin ister
Ġinexp ensive
Ġf ox
le m
ĠAm b
ĠMor ris
Ġmit igate
cons cious
ĠB lu
Ġse ism
char ge
Ġrelax ation
u pp
w ick
em ics
Ġtru cks
Ġgar lic
iv ated
eral d
Ġlov es
Ġsculpt ure
ĠBulgar ian
Ġin appropriate
Ġrefuge e
Ġadvert ise
V ol
Ġdon or
ĠHig her
S uch
iqu ity
Ġcub ic
olit ical
Ġst ays
Ġhead quarters
Ġhar assment
Ġcommerc ially
ĠAntar ctica
Ġcannab is
ĠHud son
Ġs ins
Ġser um
Ġ194 3
ĠPub l
I d
Ġlike wise
ĠCom ment
ĠMem bers
B rit
W H
ar o
Ġfol iage
Ġprivile ge
Ġp ile
Ġfit ted
Ġarm ies
Ġped est
Ġen force
Ġdec iding
Ġfl ights
199 7
Ġt ags
he w
in cess
Ġright eous
ĠCl inton
Ġmar ry
ixt y
Ġrend ered
ul ph
iz able
atur ated
Ġincorpor ating
Ġroutine ly
Cont in
h n
ĠL oc
Ġprot ests
ĠW ould
Ġadapt ive
Ġfert ile
c ience
ly wood
ĠC EO
ld er
ĠE u
ĠF ocus
Ġ8 8
Ġprop ri
Ġsal vation
Ġnav ig
Ġd irty
ot er
Ġv iv
Ġi P
ĠBC E
Ġunder water
Ġredu ctions
ĠAlex and
Ġbutter flies
ĠMethod s
J apan
he um
ĠI g
Ġv end
ene z
Ġhost ed
Ġgrocer y
Ġt ales
ot te
ĠG ab
M et
Ġh its
Ġharm on
Ġcommission ed
ĠW rit
Ġaccount ed
Sept ember
U C
Ġp seud
ĠI R
Ġfinanc ing
Ġlegisl ature
T E
f ting
ĠT her
ĠB art
Ġmod er
NA SA
hold er
Ġemp athy
ĠT ypically
ir ts
ĠB ry
Ġ7 8
Ġbroad ly
Ġs ap
um ble
ĠWe ight
Ġdeal t
Ġcook ies
Ġshif ting
Ġfisher ies
Ġcomp ly
ĠWe ather
Ġreact or
Ġmedic inal
ĠNapole on
H ome
Ġp rize
Ġl ag
Ġas leep
Ġcontin ental
Ġeth anol
Ġdecl are
Ġdepth s
Ġradical s
D esc
Ġcompl aints
ĠAcad emic
Ġdepos it
% ).
Ġhe ll
est hesia
ĠR ow
ob ia
Ġcourt esy
Ġqual itative
Ġkn ife
Ġpenal ty
an alysis
Ġtre asure
ĠProv ince
Ġscholars hip
ig uous
Ġcon gest
Ġhand ed
Ġpot s
Ġdeclar ation
th irds
Ġap nea
Ġbase ball
ĠTechn ical
Ġbul let
point s
Ġgau ge
Ġf ut
Ġd ancing
ĠA venue
ĠD er
ĠN ight
ĠJ oint
Ġsubject ive
Ġadministr ators
Ġh ay
ĠC and
ĠG and
Ġkind ergarten
Ġprec autions
Ġconclud es
Ġrecon struction
f a
Ġto y
Ġde ployment
Ġchar ter
O K
h u
Ġconst ipation
eg ree
Ġfree ze
m n
Ġwe ights
ĠW ang
ĠCh ron
Ġover night
itud inal
Ġembry o
oubted ly
G iven
Ġ Å
Ġintrodu ces
ens is
Ġbl end
Ġut ilities
ĠScript ure
iv ia
Ġcar n
Ġstress ful
â ĪĴ
is ive
ĠP le
ĠH PV
Ġme g
Ġpredomin antly
Ġar row
Ġrese mble
Ġtal ent
Ġsupp ress
ĠSe attle
Ġhar ness
ĠHar bor
mit t
Ġtut or
L ong
ĠE ating
Ġec o
Ġve in
icult ural
Ġl ips
ĠP un
âĢĿ ).
ards hip
verse ly
ĠHop kins
A tt
Ġ7 6
Ġant im
ĠEc ology
it o
Ġappear ing
Ġtext book
ER E
Ġbelong ed
M E
oc ide
Ġcolor ing
Ġgover ning
ĠL iver
Ġher d
ĠPh oto
ĠTo o
Ġshort age
Ġc ues
Ġh ollow
Ġtri um
ĠObserv atory
Ġn ights
ist le
Ġqu otes
Ġmet a
Ġdem ographic
Ġsyn chron
organ ic
Ġsimpl est
Ġcarbohyd rate
Ġs lic
Ġd ive
Ġg host
ĠG ord
ĠInstit utes
Ġdemonstr ating
Ġirrit ation
Ġd orm
ĠS kin
Ġadequ ately
ic ism
Ġhe ct
Ġsh ower
Ġad mission
ĠClin ic
ĠDet erm
ĠArist otle
Ġ ib
re port
ĠE L
Ġadv ise
Ġ194 6
Ġinstrument al
Ġpray ers
is ite
Ġf ost
se arch
ĠR un
ĠSo il
ĠDes ert
Ġcontamin ants
Ġthe or
Ġp ist
Ġm ate
ĠFre qu
gener ative
ore sc
Ġconst ell
ĠEvery one
Ġsovere ignty
h um
Ġb aking
lear ning
Ġcomp ress
Ġwhere by
ĠAn imals
Ġdel icious
pro v
Ġdehyd ration
S C
Ġt ire
Ġfe eds
Ġinvest ed
199 0
Ġesc aped
Ġdecor ated
R N
x iety
Ġsp ider
Ġmat hematic
Ġcra w
Comm un
Ġup coming
Ġbo om
Ġclean er
rate gy
Ġt ended
ĠB os
ĠY ale
Ġvers es
ĠPar ks
Ġremain der
ĠDak ota
ĠB eng
Ġblood stream
Ġacceler ate
ur as
ĠS in
Ġserv ants
Ġmic row
ĠC rown
Ġk ick
Ġprov incial
Ġexec ute
ĠHou ston
at ics
ĠA le
Ġ9 6
ĠA B
Ġex empl
Ġz o
Ġob struct
Ġpost er
ĠCom b
Ġoste oporosis
Ġcyl inder
Ġgastro intestinal
Ġele g
Ġsal ary
Ġcapital ism
Ġclim ates
Jan uary
Ġt we
Ġpr inter
Ġel imination
Ġassist ed
ĠT rue
ist a
Ġide ology
Ġel astic
Ġlif ting
Ġball oon
Ġround ed
ĠExpl ain
Ġeleph ants
F R
Ġde forestation
ĠD ra
Ġmis under
Ġhur ricane
N O
ĠP ed
ĠF eed
oll en
Ġhon our
Ġmist aken
Ġpick ing
ĠBen efits
Ġcor rection
Ġmet ric
ĠSol omon
ĠPu erto
ay ers
Ġfaith ful
Ġton nes
Ġto es
le ading
ĠJ oe
Ġmark ing
Ġcontroll er
Aut hor
L Y
int o
ĠDe ad
Ġacceler ation
Ġglac iers
ĠMarg aret
Ġnutrit ious
Ġn ests
ĠFl ore
f n
s ize
Ġc ables
ce phal
ĠJ osh
Ġcol i
Ġac ne
Ġhist ories
Ġsecret ary
aud i
Ġcareg ivers
Ġ esp
20 19
Ġfun gal
Ġuter us
h ad
ĠI BM
ĠP os
Ġserv ant
Ġdeb ates
Ġsou ls
Ġlabor atories
âĢł âĢł
Ġh iding
ĠG IS
ast es
Ġcount ed
ĠAl most
ĠSh ah
Ġcoron ary
r ings
pl ants
Ġcur t
ĠProf essional
ĠPal ace
Ġnob ody
x x
ĠH ills
ere rs
lud es
ĠZ ion
ĠUS B
Ġsqu ir
Ġrig orous
osex ual
ĠF if
ĠArt icles
Ġath lete
ill ary
ang a
Ġsoc ietal
Ġgl ue
Ġcr imin
Ġthr ust
Ġdepos ited
Ġp ear
ign ant
Ġ7 3
Ġ8 2
Ġshif ted
ĠHy per
S QL
Ġd op
ĠT itle
id ation
ĠB ed
Ġex otic
Ġend less
Ġ7 1
Ġenh ancing
Ġunf ortunately
ĠArgent ina
ro it
ĠS ic
Ġpre st
Ġpol es
ĠCommon wealth
ĠCP U
B ar
Ġb ishop
Ġe cc
ĠG a
ĠK u
Ġam endment
Ġviol ations
Ġauto immune
ĠB irth
ĠSt age
Ġtomat o
ĠBelg ium
el ong
Ġdef ensive
Ġn m
Ġdisc ourse
Ġselect ive
Ġsevent h
ĠN ear
Ġrel ied
the ir
Ġconstit utes
ĠÃ Ĺ
Ġremind er
G M
it ched
ĠM O
Ġse als
Ġ19 15
20 20
Ġest rogen
ĠCl oud
Ġconsequ ently
trans mit
rav iolet
Ġwal ks
m id
Ġwh it
Ġcompar ative
Ġbutter fly
Ġl ady
Ġhe x
Ġemb arr
) ?
Ġqu ery
Ġref use
p i
Ġcomp osite
ĠPh ill
ĠSer ver
Ġstimul i
Ġev olving
Ġvis ually
Ġmus cular
Ġpestic ide
Ã º
ĠM ember
ov al
raul ic
O h
Ġn our
ĠD ry
Ġcl ause
Ġsp rou
Ġco operative
ĠAd m
Ġmusic ians
M ark
w ere
Ġp osed
ĠC as
ĠProg rams
Ã £
Ġt ense
Ġtrans m
Ġver bs
yl um
ĠRober ts
Ġment ally
Ġ3 50
p ox
Ġg rief
ad er
ri ors
00 1
Ġim plicit
Ġcal orie
ĠCont ent
Ġadjust ments
ĠMem ory
Ġpock et
am ics
gen cies
Ġpast e
Ġnever theless
ĠDis orders
Ġre wards
Ġr if
ĠR at
ox ic
Ġped ag
ĠByzant ine
s ky
z i
se a
Ġcor related
Ġge ological
Ġinterpret ations
Ġdis ruption
Ġtw in
ĠPr ice
ĠCom plete
Ġ194 9
Ġ193 8
Ġpool s
G reat
un ing
Ġphilos ophers
Ġnovel s
ĠBalt imore
Ġrebell ion
Ġb ub
th ree
Ġunder neath
ĠProble m
Ġabol ition
ĠO t
Ġcor p
Ġopp osing
ĠCan al
Ġchick ens
H R
Ġu mb
Ġwith stand
Ġfavor able
T I
e at
Ġs isters
Ġin ert
less ness
ats on
Ġbad ly
ĠCath olics
Ġastronaut s
Ġsupp ose
Ġswe at
Ġrat ios
Ġanticip ated
Ġincom plete
ĠA round
Ġde af
Ġk ern
Ġ19 12
ord in
Ġprol if
p ill
he it
Ġdi abetic
Ġve t
Ġpolit ically
ĠGu inea
iling ual
Ġcong ress
ĠG ender
Ġcent ered
Ġst icks
Ġv ivid
ĠL ORD
Ġsh rubs
Ġstead ily
p ent
Ġu plo
Ġper me
eb ra
Ġpack ages
ĠTok yo
b ian
other mal
ĠIss ues
Ä ±
Ġk ills
Ġ8 4
Ġmar ijuana
Ġtow ers
E c
Ġinj ust
ĠInstit ution
al ion
ro ads
ĠAp ost
ĠFram ework
S I
Ġcoll ision
Ġ193 3
ĠThrough out
Ġaer ial
ĠM ercury
ĠJ ob
read ing
Ġaccept ing
Ġenact ed
ĠDat abase
Ġre nowned
ec hes
Ġsl opes
Ġcra cks
ĠArab ia
Ġmisc on
Ġt une
Ġqu it
ject s
Ġdist ribute
ĠEx ample
ĠAll ied
ĠTra il
ĠCommun ications
ĠPrinc iples
ĠR io
Ġ19 16
son ian
Ġmagn ific
Ġaud iences
199 5
Ġterrit orial
flow er
G R
ĠAt hens
Ġur ge
pe ople
Ġ195 9
t own
es ome
ĠR ule
ĠSt ew
Ġintern ationally
ĠGal ile
Ġsh ots
Ġab oard
ound ed
Ġnorth west
Pub lished
ĠRail road
ĠM ort
oc hemistry
Ġunder graduate
Ġreg ulating
Ġprec urs
Ġtou ched
Ġfract ures
Ġtight ly
Ġturb ine
re tt
Ġnew er
ĠVol unt
Ġweaken ed
fol io
f erence
is ure
Ġg amb
ĠI L
Ġdetect or
e lect
ĠFour th
Ġalph a
h ind
Ġinc omp
Ġwant ing
ias m
Ġancest or
ĠMult iple
w al
Ġw olf
ke ep
Ġmon uments
Ġ6 9
ĠBe yond
+ +
n as
Ġrecogn izes
ira cy
Ġpartners hips
ĠRel igion
Ġfib re
ĠLeg isl
Ġclub s
an ical
ĠS E
ĠMin or
ĠVirt ual
Ġa pt
ĠM ason
um en
ag g
ĠU l
ix on
Ġgu ilt
Ġsl ides
Un like
ro v
et ed
ĠSt ra
Ġbo ot
over ing
Ġparent ing
Wh ite
Ġhun ters
Ġnort heast
Ġse aled
Ġref lex
Ġspr ings
D ate
Ġc ens
Ġh ired
am er
ĠP overty
Ġhe d
Ġj ury
Ġworkshe et
ĠPortug al
ĠT otal
Ġcle ared
Ġgovern ed
Ġter r
spe aking
ĠJuda ism
d ata
em bers
ĠProt ect
W A
W est
Ġlim estone
Ġbreast feeding
Ġcart ilage
ot ine
ĠM s
Ġch op
ĠGe ographic
Ġsoon er
Sym ptoms
il ia
Ġche w
Ġcollect ively
M R
h o
ĠG ate
Ġany more
Ġgen re
Ġtrans ist
Ġext r
Ġ9 3
Ġopp onents
ĠPre p
Ġblock ing
J ew
Ġw and
Ġor ph
ip es
Ġman ure
Ġop io
ĠBe ijing
ĠRec ords
ĠIS S
Ġspons ored
ut ter
ĠI l
ĠAl t
ĠInd o
Ġcred ited
Ġrandom ly
Ġgar bage
Ġadvoc acy
Ġaccompany ing
Ġfeas ible
b ecause
as i
id ency
el come
ĠP ier
ĠLe ban
Ġf iscal
Ġ7 9
Ġhost ile
Ġmer cy
m ount
Ġc itation
Ġl amp
Ġset up
ĠPro duction
Ġ8 1
D I
T R
a ic
el le
Ġse am
te es
Ar ch
Ġlith ium
Ġint ric
low er
ĠUN ESCO
Ġscr atch
ĠC hem
ĠD elta
ĠL am
ph y
ne x
as ury
ĠP oor
ĠAl low
ock ing
Ġ195 7
Ġrestrict ion
Ġthe ft
if ting
Ġadv ancing
rad es
ĠRec ord
Ġwond ering
Ġmit igation
Ġconven ience
ĠResp ons
ĠProduct s
ĠOcc up
Ġcorresp onds
th ink
Ġtra ils
Ġgl ad
raph ic
ĠFl ood
Ġeru pt
Ġg ospel
ĠS L
Ġj e
Ġfe ast
Ġprop het
Ġrepresent ations
Ch o
Ġlif esp
Ġe cho
Ġn atives
Ġex clusion
Ġ16 0
ĠMan ufact
ĠDel aware
ĠVien na
Ġc aves
Ġd ub
ĠJ os
Ġall iance
Ġ19 11
Th ank
Ġcommand ed
ĠPolit ics
m ont
Î ¹
ĠU RL
Ġres in
Ġexp ose
Ġbo iling
Ġadvance ment
Ġsew age
Down load
Ġh ipp
ur i
ĠB and
im ation
Ġtr im
Ġsuggest ion
Ġexhib ited
Ġpun ish
Ġfeat uring
vironment al
az ines
Ġaccount ability
Ġrecogn ise
Ġprompt ed
U RE
Ġp onds
Ġmar ble
Ġsens ing
Ã© s
Ġfit ting
ev a
Ġa ver
Ġf ence
ĠG H
Ġgu est
Ġdon ated
Ġsqu ee
Ġearn ings
ĠArk ansas
Ġp iv
om nia
ĠF ah
Ġcomput ational
Ġsqu ares
Be ing
Ġscan ning
Ġsemic onduct
i ography
Ġdispl aced
Ġoverl ooked
ĠP TSD
Ġqu iz
Ġrem n
Ġquar ters
ĠVis it
Ġru ins
Ġarbit rary
F i
M icro
Ġth rowing
Ġclim bing
b ath
Ġth under
Ġlov ing
Ġrom antic
en er
ed a
Ġlist ing
Ġvacc inated
Ġcred its
Ġ193 6
Ġoutl ines
Ġdisturb ance
b ad
an ning
ach ment
row se
Ġmultip ly
at to
Ġcomp ressed
Ġass im
be y
ĠBr un
Ġbra ve
Ġliqu ids
De cember
Ġdece ased
Ï ģ
Ġthe ology
ĠW i
Ġtra it
ĠFor ces
Ġpack et
Ġmyth ology
amil iar
n orm
Ġplace bo
P op
m ination
Ġ iv
Ġm asters
ĠC ould
ac ies
Ġcan on
Ġun int
Ġcar riers
bl ack
ĠFood s
ĠR idge
Ġen rolled
Ġsouth west
Ġb ites
ĠSe ven
Ġlock ed
Ġdivor ce
Ġb ru
aw ed
Ġmain land
cl er
Ġheav ier
Ġcl ergy
ĠRe form
Ġenc ryption
Ġreason ably
Ġexplo it
Ġanten na
p ine
ĠF ortunately
Ġra pe
Ġfl ora
Ġbr ushing
br ate
Ġtra fficking
Ġdifferent iate
Ġassum ing
ĠSud an
Ġexcite ment
c ourse
Ġre use
ub ric
rop ortion
ĠMe asure
Ġfrag ile
Ġcomprom ised
Ġcatal og
m i
ĠB uff
ass oci
oth ic
ah a
ĠCon cept
Ġaqu arium
Feb ruary
Ġgu itar
ĠZ one
Ġrece iver
Ġtable t
Ġfle w
Ġment ions
Ġturb ines
Ġdisput es
c hest
d ays
ĠPh oen
ĠÂ §
ï ¬
ĠS ad
Ġal gebra
ĠRel ated
Ġnan op
ĠCh i
ĠV ision
Ġgu ests
Ġclean ed
Ġmid st
ograp hers
ay an
Ġbl ast
ĠÂ ±
Ġspread s
Ġcav ities
ĠLiter acy
Under standing
1 10
E xt
Ġn aked
ĠT ask
Ġex terior
Ġprop ose
Ġaud itory
Un ited
ĠT ut
ĠB eth
Ġrele asing
ĠUp on
Ġbron ze
U P
Ġpop ulated
ĠSh are
work ing
Ġsou p
ĠRus sell
Ġc um
st ra
Ġby pass
ri pp
Ġpl ots
Ġjust ified
Ġart work
Ġvolcan o
ĠOffic er
m ir
ĠL ate
Ġro pe
Ġgl oss
ĠZ oo
Ġsch izophrenia
c ultural
Ġcomp rehend
ere r
Ġhum id
ĠOrgan ic
Ġpursu ing
ambo o
2 50
sc ape
w ritten
Ġt sun
Ġju venile
ĠAlber ta
Ġm aj
Ġd ots
ĠE t
g age
or o
ĠL ang
ĠShe l
Ġbehavi ours
ĠResp onse
Ġsuppl iers
ut able
Ġvit ro
Ġpup il
Ġterror ism
1 20
B re
P N
T reatment
Ġc ant
Ġpress ed
Ġkne es
Ġparad ox
Ġmenstru al
N ovember
Ġp m
oun ter
Ġlaw yers
ĠVill age
ĠT ypes
Ġfor um
Ġex agger
Ġmar row
Ġcivil ians
ĠNot es
ĠFin land
ĠGreen land
Ġcoord inated
Ġinn ocent
D ig
Ġc ivic
ĠA CT
Ġ19 29
ĠSt rategy
Ġ8 3
Ġpul monary
Ġvent ure
Ġeru ption
st ory
Ġflu orescent
Ġ193 7
zz le
Cont act
Ġinher itance
ex per
bo ards
ĠSim ple
Ġanat omy
Ġsuccess ion
Ph ot
Ġstro kes
) (
ar in
ain ted
og g
cc oli
Ġexpect ancy
ĠAtl anta
Intern ational
ĠN ag
Ġher bal
Ġdet er
ĠMan ager
Ġul cer
Ġappar atus
le vant
Ã¼ r
Ġv est
Ġwor m
Ġtechn ically
Ġend emic
Ġprob able
Ġ195 6
ara oh
ĠGall ery
Ġfavour ite
ĠM oney
un n
Ġpe at
Ġrec omb
vent ional
ĠAct ive
Ġdefin ite
Ġlength s
Ġhem isphere
' '
m ap
ĠIn j
ĠK id
Ġro oted
Ġdes erve
pat ient
ĠHand book
Ġne urop
ĠCh annel
Ġac ou
Ġemb od
Ġbod ily
O H
ĠC row
Ġan not
lo ads
Ġfast ing
Ġtoler ate
ĠPan el
m un
Ġa il
Ġo y
is ers
Ġvis itor
Ġadop ting
ĠR oth
Ġimmig rant
Ear th
ĠThom pson
ic he
Ġd urable
ary n
Ġperform s
ĠP ale
Ġimp ly
Ġpat ience
Ġintent ions
Ġpreced ing
ĠNorm an
Ġscholar ly
Bel ow
G B
ĠL aur
Ġer ad
K ing
ĠH orn
ov irus
Ġmon itors
ĠCar ter
Ġrecip ient
Ġindirect ly
ĠBM I
oglob in
h alf
Ġm ating
Ġarch ive
oster one
ĠSil ver
Ġb ent
ĠP ic
ĠD ream
ĠK er
iam i
Ġdivid ing
Ġcomment ary
ĠCre ation
T M
Ġhe lic
Ġreve aling
Ġhous ed
hist oric
ĠMad ison
ĠNep al
Ġtrium ph
Ġt rop
Ġcon ceived
ĠAd vent
Ġ195 8
Ġcast ing
E nd
e lectric
ed ience
Ġ8 7
Ġair port
ĠMont ana
ĠRog er
/ .
T ype
y g
f uel
Ġe ll
est ial
ac cept
Ġart illery
Ġsurvey ed
ĠCat al
Ġretire ment
op ause
Ġtrans g
ĠQu ant
ĠTechn ologies
Ġ195 5
Ġadjust ment
pos itive
ĠFa ith
" ).
Ġ19 13
ĠInf lu
Ġn od
ĠR ot
ĠAn at
Ġdro ve
Ġbless ing
Ġpropag anda
olith ic
ot onin
ul ing
ĠL en
ĠCh ronic
Ġcr an
yl ogen
Ġrein for
Ġcha os
ĠColomb ia
ic us
Ġan th
Ġav iation
Ġarchitect s
Ġproport ions
N orth
m aker
Ġl ad
ĠR F
ĠAgain st
Ġchromos omes
Ġes oph
Ġignor ance
s ocial
Ġb end
Ġd row
Ġd awn
ĠT ow
Ġsp iral
ĠO wn
Ġbu nd
ĠPh ase
Ġattend ance
= "
N ever
Ġm arsh
gen ic
ĠPl ate
ĠUs ed
Ġautom ation
y our
se en
Ġinv ite
ĠCa esar
ĠS W
ĠOver all
Ġalt ar
Ġrecre ation
rib ing
ateg ory
Ġur anium
ĠAut ism
Ġenthus iasm
u ce
Ġam end
Ġhero es
Ġcoc onut
Ġdesk top
s ign
Ġthe atre
rit ical
Ġbel oved
Ġdown ward
Ġple ased
Ġrot ating
Ġinstall ing
Ġperf ection
Ġc emetery
Ġh atch
Ġr ush
ĠCh anges
eg rad
Ġsuccess or
Ġreject ion
Ġmicrosc opic
Ġsup reme
Ġrepet itive
Ġhol istic
Å «
Ġf iring
ĠP apers
ind ex
Ġcle ver
ĠProg ress
ĠSte ve
ĠD a
ĠD oc
ile m
Ġsome body
Ġdifferent iation
Ġenjoy ing
ĠNor weg
ed y
ign ment
Ġgener ic
Ġemphas izes
ĠPrinc eton
ud a
Ġoff shore
Ġche wing
Ġcap ita
Ġsick ness
ĠGre ater
ĠC C
Ġrep ly
Ġallev iate
P H
Ï Ħ
b irth
us hes
ĠL ith
Ġsh aft
Ex per
Ġconv ince
ĠRef uge
S outh
Ġresearch ing
Ġconf idential
Ġ8 6
Ġbelie ving
ĠSy rian
Ġkill er
Ġbless ed
D s
Ġs outheast
Ġinst antly
Ġlog ging
ĠVal ue
Ġtransl ations
la very
or ia
Ġle mon
Ġdis l
Ġtra gic
els ius
ĠBl og
Ġcy cling
Ġneg lected
Ġengine ered
Ġru pt
Ġmeth yl
Ġd ough
Ġse gregation
Ġend urance
Ġlearn s
ĠDo ctor
ĠMor gan
ĠFest ival
cess ion
Ġcur ves
Ġrepl ication
ĠRob inson
ĠStr ong
Ġweakness es
ĠDyn asty
c irc
Ġo re
Ġpl ague
Ġfe ared
ĠRec omm
Ġ193 5
pat hetic
ĠDisc overy
A I
Ġunderstand s
Ġpig ment
ĠLess on
Ġcomplement ary
Ġvoy age
c ur
Ġb acks
ĠDon ald
ĠAnton io
Ġ20 50
Ġstri ps
Ã¡ n
Ġmanip ulate
Ġrou ter
Ġcompar isons
Ġnotice able
Ġpersec ution
M al
Ġl oses
Ġman eu
Ġun stable
ĠCon struction
Ġ12 5
ĠAust in
IT Y
ĠLaw s
Ġ195 1
G erman
f amily
m o
Ġhe red
Ġer r
Ġ195 4
Ġimbal ance
ĠBit coin
Ġin land
th alm
Ġhand y
ĠAnd roid
Ġgovernment al
Ġdetect ing
Ġenterpr ises
ĠChall enge
Ġre nal
ĠM t
Ġlow ered
Ġhem orrh
Ġl acks
Ġcons erve
Ġparas ite
Ġintr insic
Ġbicy cle
oc l
ĠL A
Ġsol uble
Ġkilomet res
Ġsovere ign
ĠJoh ann
L ook
l anguage
o ys
ic idal
ren heit
ĠAn na
Ġcor ners
Ġpsych iatric
Ġutil ization
Ġblo oms
Ġd ip
Ġmon keys
ĠSo on
ĠLike wise
S L
od a
ĠHarr is
G I
ĠM end
ĠHe at
Ġback ed
Ġpain ter
Ġfort une
Ġacceler ated
ĠD anish
Ġequ als
ĠCanad ians
iot he
Ġthe ater
Ġan terior
Ġab brev
atic an
Ġinvestig ators
icular ly
ĠS ugar
Ġstud io
Ġlog s
Ġpul p
mind ed
st op
ĠAl ban
Ġur ged
ĠPer formance
Ġrob otic
enez uel
j e
ĠR ange
Ġinform ative
ĠAl an
ĠAb d
Ġcoal ition
ĠPalest inian
S te
Ġw are
Ġu pl
Ġme ats
Ġev apor
Ġgrow ers
Ġrisk y
Ġnon profit
Ġspecific ations
ĠPr ivate
. [
h oe
ĠS ent
ĠB L
ĠW ard
ĠRail way
tern s
Ġ9 2
iber ia
Ġrespond s
ĠProv ide
Ġtort o
ĠSus an
ĠAlf red
b earing
g rowing
ĠP arent
ĠB ec
ac ial
Ġpost erior
ĠOr ange
ĠCong o
Ġsubsid ies
× ķ
ĠE ver
Ġout ward
Ġbl ades
Ġdep osition
val ue
IN E
Ġtur tle
Ġsmart phone
Ġdisplace ment
ĠGord on
Ø ¯
Ġimp ose
ang les
Ġtra ps
Ġdet ox
Ex ample
ĠIll ust
Ġundert ake
ĠApplic ation
ĠLank a
Ġth irst
Ġun ch
Ġco il
ĠJu an
ĠM R
Ġgr ate
Ġhyp ot
Ġjournal ists
ĠSt alin
In stead
Ġsl ip
Ġarr iving
Ġund oubtedly
Ġwin ner
ĠBrazil ian
Ġe ch
ĠA th
ĠA BC
ĠS audi
Ġder ive
ĠCat hedral
Ġpron unciation
Ġopp onent
Ġflo ors
ĠCrit ical
Ġb ibli
Ġse ized
ia e
Ġdark er
ĠEgypt ians
ĠIce land
Ġdetrim ental
E lect
on ian
Ġy esterday
Ġcle ans
last ing
bour ne
Ġc ite
ct ory
ag os
Ġgen ius
Pro v
Ġcompr ising
Ġdisadvant ages
Ġed ible
Ġair plane
Ġceremon ies
Ġemit ted
E st
he im
ch t
ĠC av
ad os
Ġinc on
ric anes
ple asant
Ġrelax ed
Int erest
ĠL yn
Ġmon ks
B R
ra ment
Ġunder going
Ġfertil izers
Ġrank ed
Ġreven ues
Ġinev itably
f ed
Ġgl ut
ĠReg ular
g ro
ĠCh ris
Ġbre w
ware ness
ĠEar l
ĠRel igious
ĠS ax
ĠS ave
iv ism
Ġsum m
ĠAss istant
ĠEvery thing
Ġdu ct
ĠKar l
Gl obal
as ers
alth ough
ĠCamp aign
Ġmanuscript s
ĠTerrit ory
c ott
Ï Ĥ
Ġc age
Ġ( $
ple ment
ĠReg ister
ĠLet ters
osa ic
Go vern
ĠCa uses
D ue
c f
j u
ĠM ol
Ġcit rus
bol a
Ġunf air
Ġneuro transmit
Ġgall ery
ĠAnth ony
Ġg ates
ert ility
of ten
Ġmot if
Ġtravel ling
OR E
Ġhar bor
ĠRepublic ans
Ġrab bit
Ġepit hel
Ġc os
ĠT ools
Ġover head
Ġimpro per
Ġaccum ulated
ri el
Ġass ay
ah o
Ġhyd roc
Ġfet al
Prof essor
Ġo t
Ġb unch
ĠA bs
ĠS ky
and al
Ġser ial
port ant
Ġsed iments
ĠÎ ¼
Ġreson ance
oresc ence
Ġass ured
Ġmot ors
Ġunc ont
Ġrock y
ĠCamp bell
Ġincent ive
m ile
Ġdem ol
icro bial
Ġprint s
Ġvisual ization
Ġinterf aces
Ġthe e
ict ional
Ġbirth s
Ġpossess ed
Ġemotion ally
Ġf ocal
ra wn
Ġtransc ription
---- ----
Ġmerch ant
Ġwed ding
ĠTransport ation
Ġactiv ate
Ġdam s
? ?
N ET
s um
Ġdevelop er
pr ising
ĠCl aud
Ġassum es
ĠSans krit
ĠM anche
Ġcont ag
Ġstr ive
Ġident ities
Ġens l
ĠSen ior
Ġhit ting
ĠSmith sonian
Ġaccum ulate
Ġoxid ation
Ġgrad ient
S et
ĠAl ice
Ph one
Ġimpl ants
ĠTel esc
ed es
ĠM aj
ps hire
ash i
Ġpass words
Ġmag azines
ĠGet ting
Ġinhab ited
m el
Ġt in
he ads
ĠGl ass
Ġoverl ap
Ġcoc oa
orth y
Ġopp ression
Ġmurd ered
L ondon
ĠH erm
Ġco ach
Ġcur ved
Ġide als
Ġinit iate
Ġtri ple
Americ ans
ĠColon el
ĠMot or
Ġintu itive
p resent
s er
Ġd ur
Ġimport s
Ġgener ous
Ġgener ators
Ġgre ens
Ġpath ogen
ĠHigh way
cont rolled
Ġobser vers
Ġp s
ot ted
ĠB irds
Ġun e
Ġmin ers
yr us
Ġep ilepsy
Ġrein forced
Ġcasual ties
Ġtext books
Ad ditionally
Ġshap ing
Ġdescript ive
Ġdeliber ately
ĠDemocr ats
F F
Ġa ph
Ġo kay
Ġde eds
Ġle isure
Ġbel ly
sp ace
Ġhope fully
Ġcou p
Ġmand ate
d in
Ġp ays
ke e
Ġinter section
Ġ9 4
Ġast on
ĠHor se
Ġcoordin ates
Ġamph ib
F orm
ĠB iblical
Ġsign ing
Ġcreat or
Ġarch ives
Ġstret ched
Ġconqu ered
Ġorb its
Ġc roc
Ġb ubble
vel and
Ġult ra
ĠLib erty
A ccess
re r
Ġf ont
ment ioned
Ġra ins
Ġgot ten
Ġoccup y
Ġappe aling
Ġconver ts
ĠThe od
art icle
Ġlab s
Af ric
Ġn ail
ate ur
ĠN one
Ġpe aks
Ġyoung est
ĠHam pshire
Ġcab in
Ġu b
Ġam id
els h
Ġcorrespond ence
il is
ot ics
ĠB ear
ĠE X
Ġgra vel
Ġ195 3
che ll
Ġdin osaur
Ġorient ed
Ġspr ink
at ter
Ġl one
Ġreg ression
ĠAre as
Ġesc al
ĠLa ure
ixt ures
Ġblind ness
v oc
Ġ 00
il ization
qu in
out heastern
Ġpron oun
f ires
Ĺ ı
Ġcl ip
ens ation
Ġup grad
Ġfront ier
199 4
Ġrenew ed
Ġprem ium
Ġinhib it
H C
Ġw ives
Ġto e
ĠB aker
em br
ĠW aste
ĠE pid
ĠE lementary
ĠR ace
Ġph y
Ġbo il
Ġorgan ised
Ġopen ly
Ġsal iva
Ġthreat en
Ġsynt ax
ĠP ages
ĠSt op
Ġyear ly
Ġcent r
ĠSur gery
Ġmig rants
f ig
ĠD in
Ġun rest
Ġob l
ĠAr n
Ġ8 9
Ġ9 1
Ġsuper vis
ĠEth ics
ĠArchitect ure
ĠEval uation
W atch
Ù ĳ
Ġm ould
lud ed
Ġwell ness
abit at
in burgh
ĠE ight
Ġpe pt
ĠSing h
Ġfrust ration
ĠOpp ortun
Ġbip olar
Ġtuber culosis
ro b
ul ators
Ġun h
ĠF u
ide press
Ġgl oves
Ġrepl ied
Ġcompr ise
Ġwitness es
Ġresemb les
t elling
Ġex ile
Ġrec alled
Ġey el
Ġlif elong
ĠClass room
Ġproport ional
in formation
Ġst olen
op ol
ĠRep orts
Ġ195 2
g one
Ġt ires
Ġris en
Ġmat ched
br aska
ĠApp lied
Ġord in
ĠCr ime
ĠFah renheit
il k
Ġinf ilt
Ġposition ed
ĠWork ers
b rain
ĠA ch
ĠC ov
Ġex cerpt
Ġneg lig
Ġgradu ates
ĠIran ian
f requ
Ġm our
ĠM ig
Ġun aware
ĠInd ependent
w ear
Ġgra pes
Ġequ ator
ĠBe at
Ġcommod ity
Ġmagnific ent
Ġh ook
ĠS ide
ĠH old
Ġcult urally
hy l
mod ern
Ġcig arettes
heum at
ĠM iami
ac ious
ant i
ew able
Ġdown stream
Ġdel ays
Ġbi opsy
Ġimag ined
Ġcontem pl
is y
ĠC elsius
Ġconqu est
L ow
Â »
Ġb ass
st ones
ac ulture
ĠV ice
Ġdon ation
bi ology
NA L
C re
am y
ĠGe ological
Ġtermin ology
d iv
ĠM ir
ĠK ash
Ġdisc on
Ġca ut
Ġpsych ologist
Ġattack ing
Ġcand y
Ġclar ify
izz iness
Ġsu ck
ĠH E
ĠW a
Ġpr ince
Ġdipl omatic
N atural
Ġf og
pl ess
Ġland mark
Ġphys iology
Ġarg uing
Ġbra ck
Ø ª
Ġw ard
est y
Ġfun eral
Ġ186 1
it ous
Ġad ren
Ġj ail
view ed
Ġdisp roportion
ĠApplic ations
Ġ ..
ĠHe aven
Ġant igen
Ġnews letter
ĠDis ney
Me anwhile
Ġbes ide
ĠLic ense
Ġperenn ial
T est
r ong
ĠM ike
ĠIS O
Aust ral
Ġm asc
Ġch ord
Ġenlar ged
Ġse aw
Ġup right
ren cies
Ġwond ered
Ġcelebr ations
hist ory
Ġgif ted
Ġmonaster y
Ġout s
Ġwork out
In formation
Ġval ves
Ġ15 00
Ġconnect ivity
ĠEst ab
Ġpione er
Ġmim ic
Ġe ighth
Ġpl ains
Ġra mp
Ġdi agrams
cl ock
ĠAt mosp
ĠSu ccess
ĠGh ana
L ooking
p arents
ĠD ogs
iz ard
Ġbl u
Ġret ina
Ġtend on
Ġpurch ases
Ġconver ting
ĠNaz is
Ġproceed ings
Ġcham bers
Ġw ore
Ġn ails
ah n
ĠTra ditional
ĠBra h
ĠPub lished
Ġlob by
ĠBarb ara
y on
Ġw olves
Ġst ool
ĠIn fect
Ġeduc ator
ris is
Ġjump ing
Ġlifesp an
E s
V ar
ã Ĥ
in os
ect ar
ort ing
Ġinc omes
Ġman ually
au coma
Ġsimilar ity
O pen
Û Į
Ġsur plus
ik ipedia
ĠJohn s
Ġult raviolet
ĠEc onomy
g ate
g rowth
Ġpe pper
Ġgen eal
Ġob ey
Ġrecord ings
ÃŃ s
Ġapprec iated
ĠIndividual s
Ġobser ver
er os
Ġ18 40
ars on
Ġday light
Ġfort un
F act
ĠN am
Ġaffect ion
lo or
Ġmiss ile
Ġmag ical
D O
M ult
Ġh ire
ĠP eters
ill o
Ġinteract ing
ĠEngine ers
Ġethnic ity
f s
Ġhe el
ĠB rief
oy d
col or
Ġpil ots
Ġrecon cil
W ar
Ġc ognition
ĠD ays
ie ve
Ġindu ction
ĠAt hen
Ġbi ography
Dav id
ur ia
ĠF L
Ġsh rub
ĠAl i
Ġremov es
Ġones elf
Ġaer os
occ up
Christ ian
Ġcatast rophic
Ġweak er
ĠHur ricane
h ill
Ġ ).
Ġfin ite
Ġmarg ins
Ġgly c
ĠNeg ro
Ġf ake
ĠT an
Ġsc roll
Ġelect oral
ĠAust rian
AS T
uke mia
add le
K E
Ġcon gen
ort ium
Ġsw itches
Ġsn acks
Ġpros pective
ĠIdent ify
Ġvic inity
Ġinv aded
own ed
Ġclear ing
Ġmig rate
Ġchlor ide
ĠWalk er
Ġ ðŁ
Ġp ave
Ġd ug
ĠC ool
ish ops
cl amation
ĠGen eva
year s
Ġqual ify
Ġtort ure
Ġaggreg ate
ĠUg anda
Ġde ar
Ġexp on
Ġfa una
Ġunc overed
ĠOther wise
Ġcelebr ating
Cl imate
Ġstret ches
ĠVerm ont
rib es
ograph ies
ĠAb use
Ġcompet ent
Ġtim eline
ĠPC B
om orph
ĠC ant
Ġtra ject
Ġdoub led
ĠE D
Ġimp art
Ġar ising
Ġ9 00
à¤ ¾
New s
hatt an
ab a
Ġf ierce
Ġst unning
ĠO ral
AC T
ĠLeg al
E ffect
P I
Ġin qu
ĠL eft
Ġdr astically
Ġ186 5
Ġdiscont in
G H
Ġc ake
Ġsp iders
Ġprov es
le an
ut ri
ĠB iod
Ġaccess ing
Ġham mer
auc as
F our
Ġun pleasant
ĠSt ore
ĠCh and
Ġdisp os
Ġpresc ribe
top l
Ġyog urt
ĠV II
ĠV enezuel
Ġback up
plic ate
ĠNo ah
With in
Î µ
ou ver
Ġm esh
se tt
Ġde le
Ġanal ogy
Ġfore most
Ġdepart ure
Ġcab inet
Ġdop amine
i ates
r ise
ro f
Ġher pes
Ġdon ors
Or gan
ĠBru ce
c ode
Ġg am
Ġex empt
be at
Ch ina
Further more
Ġv ibration
av ailable
Ġgraph s
Ġdecor ative
names e
esthet ics
S earch
à ¦
ĠP S
Ġint imate
Ġautom obile
ĠDisc uss
Ġbeet les
d oc
i ably
w orms
ĠS N
Ġann oy
Ġinteg rating
Ġwond ers
ĠDub lin
ĠPediatric s
v able
ĠH ob
ĠSt ructure
Ġwilling ness
ĠVers ion
ĠTelesc ope
g rass
Ġen er
rote in
Ġang el
Ġdro pping
ibl ings
P age
Ġso f
rim inal
Ġinvent or
Ġfrag ment
ĠDet roit
Ġcyl ind
Ġl ava
ĠD A
Ġne at
Ġall ocation
Ġprofess ors
Ġdistur bed
Ġ Ø§ÙĦ
ĠR ivers
ĠJ ay
umb ing
Don ald
Ġresil ient
Ġrender ing
Ġexpend iture
i ots
ap olis
ov ol
bor ough
Ġcapt uring
ocr ine
ĠLet ter
W ash
f ields
ul u
ac a
ĠR ole
ĠG ent
ass ed
Ġar ist
ĠMonitor ing
Ġarsen ic
S em
a ire
ble m
form s
Ġbenef ic
Ġreported ly
Ġgrand father
ĠElect ronic
Ġspin ning
ĠRab bi
ĠM aced
ĠP CR
ĠV A
Ġback ward
Ġimm ort
Ġwar riors
Ġveter inary
Ġorb ital
n c
v iol
es ters
al is
Ġre lying
ol uble
ĠC ognitive
ĠH imal
em ption
ĠF alls
ĠPro tein
ĠTe ach
à¥ į
Ġl ubric
Ġcon e
ĠB P
ĠR oy
âĢ¦ âĢĿ
Ġbal ancing
Ġdemonstr ations
Ġdefic iencies
ĠSol utions
ĠInnov ation
V al
m ass
Ġc ovenant
ĠC ow
ĠB uck
ĠN H
Ġkind ness
Ġprolif eration
J es
ĠB eck
ĠJ am
hel p
ĠSpec ifically
.... ....
W ind
an us
ess ed
us p
ĠE R
ĠF light
Ġpl um
Ġcl osure
lic ted
Ġhost ing
ero ids
Ġdiscover ing
osc opy
Ġremind s
Ġremind ed
Ad ditional
Ġtooth p
car bon
Ġp ir
ul ence
ĠP erm
Ġpo ets
rop he
ĠAc id
Ġnation ally
ĠSim ply
Ġconv inc
Ġsc ler
Ġ193 4
Ġ186 2
ĠNorweg ian
Ġad en
ĠAfric ans
Pro t
Ġcere bral
ĠDO I
ĠM L
ĠV atican
Ġinst ability
Ġcaus al
Ġwar nings
Ġunp redict
Ġresid ual
Ġcig arette
e le
Â ²
he tt
Ġw rap
Ġp ie
Ġinstruct ed
Ġterror ist
Ġparagraph s
Ġdisadvant age
Q U
Ġs ized
Ġde generation
ĠK ra
Ġref ine
be it
part y
Ġcompens ate
Ġbutt ons
ĠB Y
Ġmult itude
coh olic
ogene ous
ut t
ĠJ enn
Ġform ulas
pr ints
omet ers
ĠDiv ine
ĠâĨ Ĵ
ĠIncre ased
ar ound
ĠL ud
Ġfrog s
É Ļ
ĠW H
Ġexp osures
Ġel ong
Ġcertain ty
ĠDem ocracy
Ġroll ed
m aster
Ġ á
Ġcons cience
Ġconf erences
ĠCon cer
Ġele ven
Ġmen ing
Ġlat itude
ĠSp eech
Ġplant ations
ĠMar ie
ĠEd inburgh
Ġtransl ates
ĠBern ard
Ġener get
M s
V A
h ole
Ġto ss
ĠM ade
Ġro ver
Ġclin ics
ĠChar ter
Ġdial og
Ġ18 30
sc he
bs ite
Ġcorpor ation
o zo
Ġc ad
Ġc ents
Ġun equ
int end
Ġlove ly
A ng
Ġb id
id en
ĠC ole
Ġgen ital
Ġreact ive
Ġd ressed
ill ation
Ġdec ides
ogen ous
Ġrandom ized
Ġband width
ed ication
ess ive
ĠH R
ant ing
Ġsh out
St ill
ĠGen etics
na issance
ĠSte in
ĠDown load
ĠImport ant
r atory
Ġs ixty
Ġin acc
ĠA x
Ġcont ing
gen e
Ġperform ances
Ġmind fulness
Ġhyd raulic
199 3
Ġ193 2
bl ood
Ġunf amiliar
ĠPhot os
l ived
âĢ ³
Ġsp ike
Ġear ning
Ġcr ater
Ġce ase
ops is
ĠRet urn
Ġsin us
Ġportray ed
M aking
Ġbe an
ĠH end
ĠR ud
ĠLab our
ĠBab y
Ġsel dom
t ec
Ġl id
Ġfl oss
Ġske letal
ĠHung ary
Ġcontin ents
ĠRuss ians
Ġdro ple
Ġven om
ĠManche ster
R ad
ĠP D
ĠP el
Ġreflect ive
Stud ies
ĠT am
iv an
ph thalm
ĠCo oper
ĠCom plex
Ġstim ulating
Ġsupposed ly
f illed
Ġre velation
Ġv ague
ĠW atson
Ġmer it
Ġconvent ions
Ġtelesc opes
Ġfundament ally
I X
a an
od ium
ĠCl ay
Ġquestion ed
ĠGen etic
Ġdom inate
Ġharm less
ĠNav al
Ġloyal ty
govern mental
D em
s ki
ith m
ĠTh inking
ĠSt ruct
ffect ed
Ġpast ure
Ġcolon ists
Ġchap el
Ġshr ink
Ġmerch ants
I E
M art
Ġschool ing
ĠSc and
Ġopt imum
ĠEm ploy
ĠRevolution ary
st age
ĠF ast
Ġfold er
ĠLead ership
ĠVe get
ĠC atherine
ĠO k
ie g
Ġseed lings
Ġbron ch
N C
o ar
t ail
ing le
ace ae
ĠSt yle
Ġref eren
Ġgu ards
Ġannounce ment
ĠA wareness
Ġmet ast
Ġproject ions
br ush
ĠSouth west
Ġlif ted
ĠPract ices
ĠOrig in
F ollow
b as
Ġst igma
ĠB R
oc ur
ĠF el
ĠG ran
ĠL ack
Ġsp are
Ġrec k
Ġmet allic
Ġpur ity
ĠPublic ations
Ġoutl ook
Ġinfant ry
is en
Ġf ame
ĠJ our
Ġad s
Ġ19 22
ĠIntern al
ĠMe eting
ĠSum mary
Ġseaf ood
Ġg olf
Ġsupp ression
ĠVar ious
Ġammon ia
x ia
Ġt iles
ap le
Ġeth n
EC D
Ġpurs ued
Ġic onic
ĠViol ence
l iness
ĠM orm
Ġ1 15
Ġenc rypt
Ġwa ist
ĠCle veland
ÃŃ a
d ale
le en
Ġn u
ĠI oT
Ġcon gregation
ĠSt ay
ER T
Ġcollabor ate
Ġsand y
ĠSen ator
Ġsket ch
lip se
Ġch i
ĠN othing
Ġloc om
Ġval leys
ĠSc reen
Ġcommit ments
Ġs ulph
it ations
ĠP ick
ĠN early
AL L
ĠJosh ua
t is
ĠW oman
Ġall ocated
ĠAr c
Ġjournal ist
Ġfest ivals
T ypes
X X
Ġm ph
ĠN ik
ĠRec overy
ĠFl ash
Ġhorm onal
Ġcort isol
develop ed
Ġl ent
ĠI F
ours es
ĠCreat or
Ġcondem ned
Ġviv o
Ġst ip
ĠI Q
ail ure
ĠNe braska
ĠAut om
Ġinject ions
Ġcomp uls
Ġact or
ĠEn s
Ġoffer ings
Ġjud ged
Ġgradu ated
Ġhomes chool
Ġdomin ance
Ġinhib itors
Ġsau ce
ĠM aur
Ġrod ents
Ġsanct uary
n ish
Ġst ub
Ġcons on
Ġrevers ed
a a
o op
du p
ĠV in
Ġve ctors
Ġsun screen
Ġvine gar
ĠTibet an
Ã£ o
> >
in av
ig hed
pl ain
Ġback yard
Ġrab bits
fram e
g raph
Ġp ork
Ġm ars
ĠA part
ĠM obile
ruct ose
Ġlim itation
ott om
Ġchlor ine
Ġad vers
Ġstat istically
elt ic
Ġexpect ation
Ġeight eenth
Ġtrad ers
Ġske leton
Ġcompos er
Ġsearc hes
L ar
ur rence
Ġwh oles
Ġtr an
Ġgr inding
Ġmind set
Ġcompan ions
Ġenh ances
Ġin security
le ft
ĠC ou
Ġmar vel
ĠShe et
Ġpresum ably
M ich
or able
um atic
and o
cy cle
Ġembry onic
Ġcertific ates
Ġproclaim ed
Ġrept iles
U ntil
m ium
Ġconv iction
Ġd ilem
Ġl av
ĠL em
ĠPro ced
Ġphot osynthesis
ĠQu arter
co al
ĠBre ast
Ġrepet ition
Ġp ills
ĠS ah
ĠD R
ew orks
Ġover th
ĠY ah
ĠMo z
ĠNO AA
ĠJon athan
ĠD ent
ract ed
in ctions
ĠT un
ol ation
ĠM aterial
ri ad
Ġen amel
urn al
Ġ10 5
Ġbus es
Ġcountry side
Ġ193 1
Ġflo at
ĠCell s
Ġfluctu ations
Ġlux ury
Ġgamb ling
s ix
Ġn ons
ĠS V
Ġactiv ist
Ġveget arian
Ġmal icious
ĠScient ist
bet ween
G old
O ld
st art
Ġn ectar
ĠF ew
Ġsp aw
so ver
ograph s
Ġspecific ation
Ġencl osed
i Ã³n
Ġrep airs
Ġeng ra
Ġrest oring
ĠAd ult
hy thm
Ġaccount able
ĠRo om
Ġcollaps ed
Ġsie ge
ĠAdm iral
P ort
p athy
Ġg on
ĠJ ama
Ġ19 21
Ġdev iation
Ġphosph ate
Ġathlet ic
Ġmicrow ave
D irect
Ġre nov
ad ium
Ġex ceeds
ĠD E
Ġthere after
Ġemb ark
Ġpla us
Ġpractition er
onge vity
Ġs aint
ath s
Ġcar bs
ĠSur v
Ġscr ut
Ġenerg ies
b ee
w ave
Ã ´
Ġ iod
Ġt yr
ot or
ĠIsrael ites
Ġisol ate
ĠCorn ell
Ġdimin ished
Ġcel estial
R ich
n uts
z ema
ll a
Ġneed ing
ĠPr iv
Ġver ification
Ġ190 5
Ġuns afe
Ġprivile ges
or f
Ġin aug
ĠL inks
ĠK am
Ġsim plicity
ortun ate
Ġ190 6
Ġdipl om
Ġg em
Ġsy rup
Ġcharacter ize
St and
IV E
agon al
ĠColl abor
Ġresur rection
st ance
the m
Ġgu iding
Ġnot eb
Ġref ere
Ġmar itime
ĠWell s
ĠWorks he
Ġforb idden
e ger
en z
Ġbe ads
Ġ3 60
Ġscient ifically
Ġsuccess ive
Ġcompl aint
Ġsupplement ation
Ġmul ch
Ġh ast
if est
ĠP ole
Ġimp ressed
Ġperiod ically
Ġstat ues
Ġcompet ence
Ġgrand mother
ĠC el
Ġpro st
Ġdisc ern
Ġref lux
ĠWar ren
aff e
ĠBre ak
Ġo lig
Ġb ricks
de v
en ium
Ġl uc
Ġcont raction
Ġinstit ute
Ġconv icted
Ġcritic ized
sell ing
i oma
p ace
ab e
Ġr idge
ĠEx change
sm all
Ġpassion ate
Ġdisturb ances
Ġsocio economic
Ġnick el
pher d
Ġseism ic
Ġs iblings
en ers
ap hyl
Ġdep icts
Ġcor rid
Ġtemper ate
hib ition
Ġcoll agen
can cer
Ġtal ents
Ġmultipl ication
ad ata
ord inate
ĠMan hattan
ĠBul let
ĠAS D
Sm ith
ĠColl ins
Ġsof ten
n els
o an
ĠM att
we b
Ġunder way
Ġadd itives
Ġpred isp
Ġsuper f
Ġlength y
Ġsusp ension
ĠRepresent atives
Ġintrig uing
l ov
Ġinc ap
Ġapp rent
Ġreg iment
Ġreward ing
Ġlandf ill
Ġjewel ry
ĠS it
ĠB rian
ore ct
Ġhum ble
Ġnow here
Ġec lipse
Ġline age
ĠGo als
Ġang els
Ġmilit ia
Ġanch or
Ġcrimin als
. âĢĶ
Ġhe ights
um ption
ount ain
Ġdisc oura
Ġbas al
Ġgradu ation
Ġger ms
ĠN E
Ġout reach
resp ons
Ġ186 4
ĠFact ors
ĠCost a
he ster
in as
Ð »
Ġt idal
ĠJ oy
Ġout let
ĠLy me
Ġs ores
Ġp agan
anc ouver
Ġsent iment
ĠAra bs
Ġw rist
te chn
Ġsur pass
Ġsk ip
Ġdesign ation
ĠPark er
Ġinver te
Ġgrat itude
Ġab rupt
ĠSt ories
Ġcommun ist
Ġair way
Ġcompet itors
Ġinsp iring
Ġadministr ator
Ġvibr ant
d ist
Ġd ull
ĠT anz
Ġsu its
ri k
Ġinstruct ors
Ġcere al
h ab
ol o
Ġsh ipped
ĠSp rings
Ġcorrect ed
Ġupt ake
Ġhect ares
A nal
ĠC aucas
ĠR osen
Ġben ign
Ġpred ator
Ġreact ors
pe ace
Ġincl ined
Int roduction
Ð º
Ġt ours
Ġp ains
ĠR ules
ĠK enn
Ġfav ored
Ġmeant ime
Ġnarr atives
ĠMur ray
J ames
Â ´
ĠE gg
Ġtyp ing
Ġed s
Ġblood y
Ġport folio
Ġvers atile
ĠViet namese
ĠContin ue
Ġa wards
Ġp ars
ou x
il iary
Ġpo orer
Ġpoll in
Ġsexual ity
Ġastronom ical
Ġtens ions
Des ign
rop s
Ġmin isters
ĠAn throp
af ety
Ġsem ester
Ġcous in
b ishop
s olving
Ġl ap
ĠC over
ĠK ath
vent h
Ġser otonin
ĠReg iment
Ġ190 8
Ġbath room
Ġeditor ial
Ġpenet rate
Ġenlar ge
Ġtransf ers
Ġdatas et
F O
M C
w er
Ġo vere
at itis
Ġins omnia
clus ive
Ġprepar ations
ĠGra ham
produ ct
ĠOper ation
Ġlip id
F rench
M I
Ġd ome
Ġg ad
ell ite
Ġvis ibility
ential s
Ġsw ollen
ai ro
Ġsuff ers
Ġdecl ines
eal ous
Ġmal nutrition
Ġwavelength s
s a
on ium
Ġdig ging
rim p
Ġgeomet ric
Ġthread s
ĠNAT O
ã Ģ
ĠS AT
Ġst ance
and y
ĠN ar
Ġjust ification
Ġfun ny
Ġeduc ating
Ġpot tery
pr ise
Ġge ology
ĠMont real
ĠCoast al
Ġmicrosc opy
ĠQueens land
Ġtsun ami
Ġc uis
Ġgu y
ank ing
Ġprof itable
Ġcapt ain
Ġclim atic
Ġfet us
Ġp engu
ĠE uro
Ġshort ages
Ġtherap ists
Ġcontribut ors
Ġsusp ic
Ġblog s
Ġhighlight ing
Ġdeterior ation
g om
Ġk its
ĠV III
Ġwar n
rim ination
Ġank le
ovol ta
l ook
il ated
ĠW et
ĠTh reat
Ġra v
Ġsuccess es
Ġmass age
Ġswe pt
Ġconstruct ing
Ġoxid ative
Ġvig orous
ĠNG Os
Ġwra pped
Ġrhet oric
Ġneed les
Ġsw ift
ĠInst ruction
ĠCreat ing
e ffic
m ain
ĠA G
Ġcav alry
Ġoverwhel med
Ġvag inal
Ġmart ial
K S
c ounter
Ġrespons ive
Ġlib ert
Ġd rones
Ġha w
au er
Ġj unction
ric hed
Ġag rees
Ġav en
Current ly
Pres ident
T ry
i our
in ians
bo at
Ġwet land
Ġexplo ited
Ġille g
e very
rom b
ĠE bola
ort ic
CD C
ĠBulgar ia
Ġmant le
associ ated
l ined
m g
Ġin effective
Ġab used
gg ing
Ġend orse
Ġplant ation
As k
ĠFl ag
Ġpra irie
ĠAP I
Ġt ricks
Ġm ites
il dup
Ġcan vas
Ġsh oe
Ġlib eration
Ġregul ators
Ġstere otypes
Ġdecent ral
" ),
he ll
Ġs aints
ĠAd apt
Ġprotect ions
ĠPat ri
Ġpubl isher
S al
Ġthe ological
ĠT ol
ĠR AM
ĠF ern
ĠK ant
Ġoptim ize
Mod ern
Ġprejud ice
j ar
Ġg ri
ĠA A
ud al
Ġph ylogen
Ġexam inations
Ġlear nt
Ġgu ys
ĠEx cell
Ġbi ologists
Ġrecy cle
Ġamb ient
Ġrecruit ment
or p
Ġm aker
Ġn ull
osp ace
ĠPsych ological
Ġthir teen
1 12
l ated
ĠS ure
Ġimp ulse
Ġpolic ym
ĠCo ff
Ġpod cast
S an
f eld
Ġw ished
ab us
ĠR O
ĠG I
Ġuse less
Ġeven ly
Ġlit eral
sh ire
Ġ186 3
Ġremark ably
ĠAL L
Ġinjust ice
k ill
r ines
Ġbe ats
Ġdiff ering
Ġquestion ing
Ġjud gments
Ġdetect ors
Over all
Ġbom bs
L ead
T em
k it
on el
ĠExper ience
Ġkern el
ĠD VD
Ġle ver
ag ic
ĠK le
ah u
Ġcirc ulating
Ġbar g
con duct
Ġtail ored
Ġbond ing
P O
p ool
at ar
Ġinc oming
Ġun ified
Ġgo ats
Ġdesc ended
Ġtop ical
Ġregen eration
Ġquestionna ire
O x
p rop
w ent
ĠT ang
Ġcra zy
Ġencoun ters
e ks
l ishes
r ill
w ig
Ġt icks
ĠG A
ĠN umbers
Ġbr ass
Ġbelie vers
Ġvol atile
ĠWall ace
Ġpean ut
B E
Ġm erc
ĠG ray
Ġauthent ication
O ff
n ik
Ġw iring
ul ose
Ġan onymous
ĠJ ere
Ġtreat ies
uss ia
ĠUnder stand
Ġaccident ally
Ġcaps ule
ĠP ul
ĠH ousing
Ġmot ions
ĠMay a
Ġsal ts
Ġcalc ulating
ĠArt ificial
Ġfract ions
nd s
Ġd izziness
ĠS ources
Ġv oid
Ġdec isive
Ġpersonal ized
Ġ190 7
ĠCam er
Ġdistur bing
1 18
N G
s ac
ic ans
ir i
ĠD iversity
Ġpo orest
Ġsol ids
Ġemail s
Ġbright ness
Rec ent
H y
U ST
b ach
Ġb ored
Ġb aked
ĠN um
red ited
ah l
oun cing
Ġbre ach
oll ar
Ġund erest
Ġbank rupt
ĠSign s
Ġcer amic
Ġp a
Ġp ic
ĠC osm
th ms
Ġstat ute
Ġnurs ery
Ġrobot ics
Ġnic otine
Id ent
ĠD iam
Ġle ap
ĠBut ter
ĠComp et
Ġheav ens
roid ism
Ġgrate ful
h art
Ġe uro
Ġst up
Ġfin est
Ġpsych ologists
Ġwarm th
Ġtrick y
Ġborrow ed
ĠGreg ory
ĠParticip ants
1 000
r ators
ĠA F
Ġrec ession
ĠGen e
Ġancest ry
htt ps
ĠOd ys
d el
d oms
Ġb amboo
In cre
Ġsoc cer
Ġmight y
With out
Ġb other
ĠC her
ĠR ice
ĠF ra
Ġyour s
ĠAr g
Ġnow adays
Ġremember ing
ĠP ant
ĠR ico
ĠK an
de hy
ĠConfed er
otyp ing
M uch
Ġp ins
ult an
Ġant idepress
Ġpoison ous
Ġstrengthen ed
Ġhier arch
o ffic
u ador
er ion
Ġs aves
ĠSt re
Ġtw ins
Ġem ig
eg al
Ġben z
Ġce ased
Ġinn ate
Ġoun ces
ĠGand hi
C ount
ĠM ine
op ia
ĠD all
Ġbro ccoli
Ġfol lic
ĠHol land
Med ical
Ġcoron avirus
D ist
N R
Ġst air
ĠD ragon
ud ed
Ġj elly
Ġover load
ject ion
Ġcontin uity
ploy ed
ĠIm agine
Ġund es
Ġhur ricanes
ĠC I
ĠR w
Ġred d
ĠOlymp ics
f i
Ġsu ng
ĠCh art
ĠY ang
Ġdr ift
Ġgroup ed
Ġansw ering
Ġcross es
Ġcoh ort
Ġex ting
Ġcit ations
Ġrein forcement
Ġdisse min
s qu
Ġan omal
ace a
ĠCont ents
Ġcoc aine
Ġchair man
Ġg rip
qu et
ĠN ick
ĠL ore
Ġac upuncture
Ġcr ises
Ġpredict ive
Ġacqu iring
ĠSal mon
Ġrid ic
def ined
plo ys
ĠChap el
ĠLeban on
W HO
ĠC emetery
ĠD est
ĠL E
Ġj azz
Ġprocess ors
ĠRe ich
com ed
ĠBl oom
Ġbar rels
Ġconsult ant
Ġrect angular
Ġweigh ing
Ġcul min
Ġfrust rated
Ġub iqu
c ore
In c
Th ink
ĠCons umer
Ġadjust ing
Ġdefic its
Ġsacrific es
Ġspont aneous
B ig
et us
ox y
Ġtur key
IC E
Ġunf ortunate
Ġshut tle
Ġcontag ious
u cc
ĠH ond
ĠD I
Ġsl aughter
Ġdev ised
Ġopt ic
âĢ¦ ]
Ġcat hedral
ster dam
Ġpredict able
ĠMess iah
ĠBeng al
Ġ å
ed ar
ar us
ĠG E
Ġbu ildup
Ġeconom ists
Ġsun ny
ĠAssoci ated
Ġstick y
Ġvolcan oes
p end
ĠA ld
ĠB E
ĠWh atever
Ġsail ed
gom ery
al ph
Ġl amps
ec d
ip al
ĠK el
ĠPro s
Ġbi ologist
On line
ĠTre asury
Ġembra ced
Ġprospect s
Ġdismiss ed
ĠHait i
Y ear
ĠB iol
Ġwater ways
Ġbu zz
ĠCham ber
fund ed
f ar
ĠC ities
Ġro ds
Ġdi ary
Ġac et
Ġacad emics
Ġdepr ived
Ġcater pill
d et
Ġd ors
ĠCh amp
ĠY oga
Ġsw itched
enn on
Ġtruth s
ĠInter ior
neg ie
Ġpyram id
oar thritis
d eterm
Ġd iving
ol in
ĠA pr
ĠH D
ry s
Ġsc aff
Ġthink ers
Ġlight ly
Ġmeas les
Ġvers a
ĠAugust ine
ophy ll
Ġsuscept ibility
Ġcontrad ict
Ġsmok ers
- ,
ra its
Ġsh ades
Ġprov ing
eng ue
Ġpump ing
Ġspin ach
Ġdownt own
Ġbub bles
A ir
C ross
r ide
Ġw icked
ly cer
ow l
ver b
ab ad
Ġle aks
ob a
ĠPar ad
Ġdiam onds
Ġprison er
ĠExp ress
ĠMel bourne
Ġhat red
Ġdos age
Ġf aint
Ġatt ained
Ġco herent
Ġloc als
Ġtext ile
het ical
Ġinterview ed
Ġto ken
Ġl ime
est on
Ġsub mer
Ġlong itudinal
Ġhome owners
ĠCl ar
Ġlack ed
n ell
ĠA id
os ke
oc ard
Ġgen omes
Ġam ple
Ġshe er
ĠAn swer
Ġmal ware
Ġren amed
g as
he ter
us k
Ġrec ount
Ġra cing
rop ract
ĠTe a
Ġcrow ded
Through out
Ġsecre ts
N umber
Ë Ī
iv ores
Ġsc ored
cept ive
ee k
az ing
ipp er
Ġquick er
Ġstrugg led
Ġimpl ied
ĠFlore nce
1 30
Ġc ores
ĠR ound
ĠL ect
Ġair borne
ĠSh an
ĠNe ither
ĠApp roach
cont in
ĠFam ilies
Ġregul ates
ĠCy ber
Ġdeliber ate
C all
Ġre per
um ed
ĠW elsh
Ġafter math
Ġincorpor ates
orect al
h ou
à ®
ĠP rad
eng es
ĠAd ults
estab lished
Ġbrut al
Ġnanop articles
B i
t able
ĠB ir
Ġex h
Ġrel ay
Ġrese t
ĠÂ «
Ġtax p
Ex amples
g ard
ic c
ĠL DL
arm ed
Ġfin ishing
Ġill usion
199 1
with out
ĠPear l
Ġtodd ler
Ġdesper ate
S ah
n amed
ĠH ep
Ġmin us
Ġbi ochemical
ung le
Ġap artment
Ġden ial
Ġoutput s
Ġne on
Ġdiff usion
Ġfl ip
Ġins isted
Ġreal ities
ĠInf antry
k ets
Ġbe ams
ch lor
ĠB ranch
us able
ass ing
ĠK az
Ġam yl
fact ory
sh ine
Ġforecast s
9 00
P aul
ĠW es
Ġle thal
Ġcar rots
acter ia
Ġproject ion
Ġvow el
ĠPit ts
e ast
l isted
m ad
Ġd uck
ĠIde as
ub a
Ġwhere in
ĠCor p
Ġconfirm ation
IL L
Ġadolesc ence
Brit ish
Ġcomp ares
Ġman ages
ĠV it
Ġadd ict
Ġfl ock
ĠSoc rates
Ġhom eland
Ġencompass es
Ġc ured
Ġe lic
gg er
Ġav oc
ĠSp eed
Ġdispers ed
Ġconsec utive
in qu
ĠC rus
ri ver
Ġpack ets
su per
Ġrepe ating
Ġsen iors
ĠSte ven
Le ave
Ret urn
R ober
Ġp aired
Ġl od
Ġ19 28
ĠAb u
Get ting
at um
ĠH arm
ĠR ural
Ġhel met
Ġpat ents
Ġmet ropolitan
Ġcr ushed
Ġrout ines
Ġvisual ize
Ġinherent ly
E ss
l ooking
Ġwas ted
oc amp
Ġen vision
iqu id
arr ison
Ġ190 9
Ġinh al
ĠÃ ¢
Ġintention ally
) -
Ġo wing
Ġ2 20
pl aces
ĠV ancouver
Ġant iv
Ġbar ley
Ġbase ment
ĠPress ure
Ġwin ters
Ġseiz ure
O G
ĠS old
ab i
ĠG em
amm ed
Ġcat ar
Ġcul p
ĠThanks giving
Ġconstell ation
m und
qu er
Ġsh ake
Ġsp ur
Ġbl oss
Ġhard y
Ġcolle ague
âĢ¦ âĢ¦
Ġreview ing
Ġtransform ing
Ġsmart phones
ĠPop ular
ĠColon ial
l ib
w atch
Ġt ones
in is
ĠC er
ĠL ock
Ġen jo
Ġun limited
ĠSt ev
ne red
Ġprogress es
Ġinterp ersonal
ĠRem ove
ĠClass ical
ĠPsych iatry
Ġrank ing
Ġcataly st
V itamin
ĠM ut
Ġwor sh
Ġrel iance
Ġfil t
Ġprop osition
v ings
re ts
ĠI gn
ill in
ĠG othic
ĠSt reng
cont ent
ĠProject s
Ġaw aken
ustain ability
d f
ä ¸
ent ary
Ġg aming
Ġdisc rete
Ġview er
Ġfinanc ially
ĠEl se
Ġrat ings
Ġhair s
ĠPan ama
Ġcommod ities
ĠBrook lyn
Jes us
B ra
f iction
Ġcolon ization
Ġcry ing
Ġ190 1
ĠCharl otte
Def inition
frequ ency
ĠC hes
Ġhum or
ĠRe ason
orn s
ĠDr ive
Ġcop ied
Ġimag in
Ġmir rors
C y
Ġm oss
ĠE agle
Ġind ef
ĠZ o
Ġdel ivers
Ġfort ified
ĠScand inav
a que
ï ¼
at able
Ġn aming
Ġcongest ion
n om
ve t
ĠC BD
ĠL ibr
Ġsp ends
Ġdev otion
ĠChild hood
Ġclin icians
Ġcapac ities
Ġmira cle
L P
s ervice
Ã ł
Ġd read
Ġd edication
ĠT amil
ies el
ĠN iger
Ġsc aling
les i
ĠGe ography
ows ki
More over
b lo
t aking
Ġt astes
Ġfor age
ĠH at
ric ting
ĠHum ans
commun ications
c lick
Ġm u
Ġ1 12
ĠH ubble
ĠN it
ĠV a
Ġmon oxide
uss ions
Ġsocial ist
Ġintrodu ctory
Ġspe eches
ĠTop ics
g ia
ĠC u
Ġun ve
Ġsim ulate
ript ions
Ġcongen ital
P ress
T ur
Ġsh ores
Ġdisc arded
Ġcr ashes
Ġresearc hed
ococc us
ĠYO U
g reat
Ġs pp
her ical
ĠP ray
op ot
Ġint olerance
Ġad here
Ġthere of
Ġend ure
ĠEm b
OR T
ĠRec ently
Ġden omin
Ġlabel ing
ĠEffect ive
ĠOl iver
ĠFil m
Ġeleg ant
S H
ĠT rees
ĠS H
Ġst arch
Ġ1 17
ĠL ooking
Ġres ide
Ġte asp
ass ador
Ġestab lishes
Ã© e
Ġstimul ates
Ġpock ets
le af
am us
ĠM amm
ĠR ate
ĠF itz
âĢĿ ),
ok en
Ġsub mission
Ġcar ot
Ġvir gin
Ġconduct or
Ġnucle i
Ġdisplay ing
rehens ive
ĠTur ks
Sm all
Ġdistribut ions
F N
se ver
ĠW aters
Ġle ukemia
ĠIn side
Ġform ulated
Ġcor ps
ĠSy nt
Ġcalc ulator
Ġcivil izations
Ġphysic ist
Ġg rie
im mer
Ġal oud
ĠB anks
Ġgl ance
ĠX ML
Ġforest ry
Ġban ana
Ġintric ate
S V
Ġh oc
Ġnot ions
Ġint end
Ġbl amed
Ġsom etime
angu ages
ĠDe al
Ġfram eworks
ĠDevelop ing
Ġru in
Ġtang ible
I ts
c ra
Ġh alt
ĠF resh
Ġle verage
ell i
Ġup wards
Ġapprox imate
aur us
Ġvac ation
Ġmuc us
Ġdolph ins
Ġe ats
ĠH app
sc ribe
Ġprogram med
Ġfulf illed
ĠRedu ce
ĠInterest ingly
Ġn ets
ĠG N
Ġ19 25
Ġout lets
ens on
Ġpred icting
Ġge othermal
fall s
Ġhypothes es
Ġaccommod ation
Ġbuck et
ow ers
Ġpriv ately
Ġenjoy able
Ġwel comed
Ġc ott
ĠM om
ure rs
Ġsp ores
Ġ18 48
Ġdirect ors
ĠPl uto
You ng
Ġcapac itor
Sh ort
Ġexcell ence
Ġ189 8
Ġsimpl ified
ĠGuard ian
ĠLie utenant
c ro
am orph
og an
Ġen forced
Ġk iss
Ġgen omic
Ġpast a
ĠUs er
Ġreb uilt
Ġaw esome
ĠUlt imately
i per
Ġst ing
Ġdef ending
Ġback wards
ĠMed ieval
Ġver ified
Ġsal ad
osc ope
ĠSum mit
Ġalter ations
Ġpenet ration
Ġsemiconduct or
Ġunpredict able
Ã Ĥ
Ġw ip
Ġdig its
ĠKnow ing
Ġeld ers
ĠInvest ig
Ġreluct ant
Ġenerget ic
R ight
Ġh int
Ġcapt ive
Spec ial
ĠCyp rus
ithm etic
S ection
u art
Ġc uc
Ġc hess
ed er
ĠT ab
ĠS U
Ġde form
ĠL ane
Ġexp osing
ract ive
Ġcommun al
Ġins cription
Ġexceed ed
Ġbor ne
Ġhered itary
ĠG R
ĠL it
Ġsp ear
Ġdeb ts
Ġenjoy ment
Ġlegend ary
e h
ĠP ine
ĠR uth
Ġel bow
Ġemploy ing
produ cts
Ġmyster ies
Ġl ongevity
Ġan nex
ĠD ial
ould er
Ġev id
Ġlight weight
Ġz ebra
Ġbar rel
Ġvari ance
Ġmount ing
ĠHall ow
she et
ĠDen ver
Ġexch anges
M ac
Ġform ations
Ġarr ives
Ġspok es
produ cing
Ġsched ules
ĠCub an
atern ity
Ġenvelop e
T er
Ġrep orter
Ġsol itary
Ġtem p
arc ity
ĠCommun ities
Ġcere als
Ġmotiv ate
ĠPort land
Ġsubmar ine
Ġs erm
ic ient
id ate
am as
Ġpro ceeds
our ge
Ġred ist
Ġp ulses
Ġst aple
ĠM ack
ĠH alf
ĠG on
ĠN ames
Ġend uring
Ġleg ends
Ġcapital ist
Ġmorph ology
ĠKash mir
r ina
Ġt ant
Ġt ribut
Ġf res
ĠP regn
Ġsystem atically
Ġmar riages
199 2
Ġbattle field
Ġinfluen cing
Ġaer obic
ĠHot el
ĠT as
Ġwas tes
ĠG ill
Ġdon ations
Ġpar alysis
Ġpost ers
Ġspecial ty
Ġcollect or
Ġmis leading
Ġnit rate
Ġprev ailing
Ġobst acle
Ġp oured
Ġto ps
Ġl b
Ġl amb
ĠM B
Ġj unk
ĠSc ale
Ġbacter ium
Ġfig ured
Ġpump kin
Ġtun nels
Ġarchae ologists
Ġpix el
ĠAstronom y
ĠCitiz ens
Ġs age
ĠCh ick
Ġform ulation
Ġ17 00
col ored
Ġrefriger ator
ĠCompan ies
N ame
ĠR ou
Ġspec ulation
Ġsym pathetic
udd y
ĠMor oc
Ġconvinc ing
T alk
Å Ĥ
ã ĥ
ark er
Ġsw ing
Ġcapt ivity
Ġcontribut or
off s
Ġinterpre ting
Ġrac ist
Wash ington
M ain
T r
m any
Ġbe verage
Ġcan opy
Ġph il
Ġemer gencies
Ġaltern ating
Ġaw ake
Ġpanc reas
Ġmelan oma
N E
l ass
Ġt ennis
ĠP and
ĠP red
Ġmod elling
Ġste al
ĠEc uador
ĠMont gomery
ĠOper ations
Ġorn amental
P al
ĠW ol
ĠG raph
Ġbur nt
ĠReg ist
ĠHol lywood
Ġcatch ing
U pd
ic ated
ĠW ide
iss a
Ġexc use
U K
â Ĺı
Ġw reck
ĠM ust
ĠP olar
Ġmon key
ĠTr inity
Ġpoll uted
Ġwid ow
Ġintest ines
ĠIns urance
cler osis
< /
T ext
f ocus
Ġe g
Ġwh olly
ge on
roll er
Ġcomment ed
Ġprecurs or
Ġl ined
ver bs
ĠF REE
ast ro
Ġar che
Ġrot ate
ĠSecond ary
Ġshel ters
Ġswallow ing
dehy de
l ia
Ġopt ional
oph il
comput er
D et
b uilt
k ers
o qu
Ġth rew
op us
em porary
Ġsh adows
ĠJ ur
cent ered
Ġoccup ations
Ġcontract ed
Ġunus ually
ĠHarr ison
Ġasym met
ad ron
Ġ1 18
res olution
Ġide ological
Ġcool ed
Ġautom otive
ĠVe h
ĠAdvis ory
B ER
Ġm int
ĠT ru
Ġcol oured
Ġgen ocide
ex cept
Ġpost ing
Ġunivers ally
ĠGr iff
Ġom n
ĠAtmosp heric
B esides
R ob
W R
Ġb ump
Ġadd itive
ĠÂ µ
ĠHar per
Ġneut r
ĠMil ky
ĠHawai ian
Ġt enth
Ġf ancy
Ġpro se
Ġab norm
Ġ19 24
Ġdev il
Ġlot tery
ĠUk rain
ĠBullet in
er ative
ust omed
Ġground ed
Ġcoll isions
Ġconc ise
Ġhun ter
Ġbomb ing
Ġstain less
our t
Ġacc ent
Ġbi ases
Sp ace
Ġrhy thms
Ġanalys ed
ĠIsa iah
D E
g rown
er able
Ġdes erves
Ġadapt ations
ĠJud ah
Ġprem ises
En vironmental
N T
l ide
in se
ra is
ĠS ize
ĠH omer
ĠRe agan
Ġ0 1
ĠMet eor
Ġspl end
Ed it
Ġpropag ation
Ġsle e
ĠZh ang
o i
Ġl ions
ir uses
ĠL ot
Ġant agon
Ġnational ism
roll ing
Ġtravel led
Ġhor ror
Ġstri pes
Sh are
ĠFisher ies
Ġmicrobi ome
Ġcum ulative
Å ¡
al ach
ĠD ow
ĠE sc
Ġ19 26
ok a
Ġdec imal
Ġtrans itions
Ġmen opause
Ġvol t
Ġevent ual
ns ic
Ġrain forest
ĠVal ent
Ġconsult ing
Ġaw a
Ġtick et
R ev
ĠA chie
Ġ1 11
so on
Ġchar coal
Ġwar rior
ĠFr ances
Ġbur d
ĠOver view
ĠExper ts
Ġmitochond rial
Ġail ments
D ifferent
c ards
Ġl aund
Ġn emat
rough ts
ĠAm sterdam
at ra
Ġb ust
Ġl os
Ġit ching
ĠM ak
ĠK elly
ph p
Ġbr ig
Ġhand les
oid al
ĠAustral ians
ĠAtl as
Ġsail ing
ĠAT P
ar cer
st ar
ĠK ir
lu ent
Ġrespect s
Ġanaly tics
Ġblow ing
Ġmart yr
b rown
Ġl ump
Ġpl ed
Ġtr ump
Ġam ateur
Ġrem arks
Ġmon opoly
ĠWh ole
Ġve gg
Ġreal ization
Ġauthor itative
ĠRoman ia
Ġvirt ues
che ck
ĠSpec ific
Ġextract s
Ġacou stic
Ġt ribute
ĠB us
ack ing
Ġunique ly
Ġcultiv ate
Ġbless ings
Ġtransc end
ĠEnc ourage
Ġrecru ited
ĠT M
Ġg amma
ĠS ut
ĠH us
oc ular
tle ment
ĠRes istance
ĠBe aut
Ġroll s
Ġdefend ant
Ge orge
odynam ic
Ġbe ating
Ġst airs
Ġreg imes
Ġshar ply
ĠLim ited
C V
Ġf ighter
le e
Ġe agle
ĠL as
Ġmed i
asc ar
Ġmiss iles
Ġroof s
Ġelectroly te
Ø ¨
ĠT ests
Ġon ions
am ph
Ġpre historic
In s
Ġtest osterone
Ġcharacter ization
Ġmind ful
An n
Ġindic ations
Ġsusp icious
bel ie
Ġlegit im
Ġstrand s
r ational
Ġover ly
Ġass ure
Ġplay ground
enn ial
Ġnegot iate
Ġdischar ged
S k
t ings
Ġa fore
ut ory
ĠC eltic
iv itis
ĠIn sp
ĠMay o
ĠNot ice
Ġsail ors
Ġverte bra
Ġobsc ure
Ġjun ior
Ġw itch
ue z
Ġqu eries
ann ers
Ġposition ing
ĠÎ ²
Ġwors en
Ġblank et
Ġl adder
ĠE ra
ĠN ixon
Ġsc ary
Ġarg u
ĠArch ive
Ġvulner abilities
Ġfell ows
Ġglac ial
Ġvig il
on line
Ġf ictional
ĠSe qu
An swer
Ġconc ussion
Ġtravel ers
Ġinvestig ator
Ġcard board
ĠEv ans
Ġelectro de
e a
l oss
r ising
× ¨
Ø ³
od ic
ĠM is
Ġde ity
Ġco efficient
ĠFin ance
ĠPower Point
Ġundert aking
Ġov arian
Ġbasket ball
Ġ ________
Ġm apped
ĠB ened
Ġall oy
ĠEd wards
ĠConstitution al
ĠSing le
l ate
Ġt iger
ĠC risis
ĠR N
ĠL ex
ight y
Ġany body
ful l
Ġ4 50
Ġthr iving
Ġneut ron
Ġancest ral
Ġreplic ate
Ġimprison ment
ĠArmen ian
S un
e val
Ġas ylum
uc ing
Ġinter mitt
Ġgra pe
Ġrest s
ĠHealth care
Ġhyd rop
ĠHer od
Ġtrack ed
ĠRich mond
Ġfacilit ates
Ġprem ise
Ġalk aline
Ġsymmet ry
Ġpix els
Ġ _
re ason
ĠH earing
Ġnot ation
Ġco oper
Ġinter change
ĠCount ries
ĠAssoci ate
ĠSte el
Ġtrad em
ĠConstant in
Ġdispar ities
n atal
Ġf ighters
ur ved
ĠW ays
Ġsp ices
Ġun related
Ġun even
ock et
Ġsol vent
Ġlocal ized
ĠGen eration
Ġemer ges
Ġexpress es
pos ium
D an
it ating
ĠI CT
ĠV el
Ġsub set
Ġmark ings
Ġarchae ology
ĠTurn er
Educ ation
? âĢĻ
Ġth igh
um my
Ġ19 27
ĠK ur
Ġour s
Ġcol der
Ġdr unk
ĠTo xic
ĠSu ff
uk a
Ġpoly mers
Ġlaunch ing
Ġvot er
fu els
b ase
c row
ar re
Ġd welling
Ġem ploys
AR D
ĠMet ropolitan
ĠCommission er
Ġpert aining
Ġcrypt ocur
ĠFle et
Ġimprison ed
O CR
Ã Ĺ
ot rop
ĠB ee
ĠK on
Ġprint able
Ġhot els
Ġfer mentation
Ġintent ional
c urrent
en za
it ures
Ġst en
Ġar rays
Ġsc ream
Ġind ul
own er
Ġhyd rox
bl ock
Ph il
Ġpenal ties
c lic
Ġp ant
ĠM T
Ġhe ir
ab olic
Ġsh y
ight ed
ĠK in
Ġsim ulated
Ġfam ine
Ġenc oding
Ġtrou t
ĠStat us
Ġalarm ing
Ġnumb ered
C ong
× Ķ
Ġc iting
ac o
ĠR aw
Ġsh rimp
iz ards
Ġpain ts
__ _
Ġfil tering
Ġz oo
ĠCar negie
Ġsepar ating
ĠRich ards
ĠMil k
P ower
l ay
Ġhum il
Ġintern ally
ĠSub ject
col m
ĠStrateg ies
s ometimes
Ġimp ed
Ġtoler ant
Ġoptim istic
ĠGard ens
Ġdil ig
M edic
Ġn ost
Ġcrit ique
Ġtou ches
Im pro
Ġpill ars
Ġentreprene ur
! ).
et ooth
Ġrec urrent
ĠAn xiety
inc re
pr im
ĠId aho
Ġexhaust ed
ĠCond itions
ĠP ad
Ġra y
stand ard
Ġredu nd
irm ingham
Ġrev olt
Ġtax ation
Ġtox in
Ġske pt
Ġpanc reat
Ġargu ably
id i
Ġrep ository
ony ms
ĠIncre asing
Ġfilt ration
T otal
Ġs ab
Ġp ens
ch air
ag ogue
ric es
Ġinit iation
AS H
Ġresid ue
Ġpuzz les
govern ment
ĠWy oming
ĠHug hes
en cer
ri et
Ġsec uring
Ġche er
aj a
Ġorigin ate
Ġslow ing
ĠQu ick
Every one
ĠPos itive
Ġs outheastern
ĠG rey
Ġar rows
ish n
Ġacc us
Ġinvent ions
Ġnoun s
ĠArm strong
ĠTanz ania
m orph
o S
Ġt am
it ism
im et
Ġde lete
Ġdis reg
Ġbud s
Ġorb iting
h ored
â Ĩ
Ġw ins
le tt
ĠThe rap
Ġaddition ally
ina i
Ġpel vic
count ry
Ġre ception
Ġl amin
ĠH ost
ĠE T
Ġr ounds
ĠK rish
Ġmy riad
ron ics
Ġconstit uted
ĠMat ter
Ġelectro des
R oman
w rite
Ġg room
Ġby tes
ty m
ĠMe aning
ĠCor inth
Ġtun ed
Ġcompos itions
ĠProper ty
odynam ics
Bet ween
RN As
Ġpolicym akers
W ant
b ig
n umber
Ġb red
Ġf al
Ġh iring
ĠC F
âĢĿ ?
Ġ19 23
Ġdr one
Ġcal f
osp els
Ġappe als
Ġencourage ment
stitution al
Ġprompt ly
al ia
Ġb oring
Th omas
anc ers
oura ble
Ġrecip ients
Ġsad ness
o ft
Ġw art
Ġan esthesia
ĠJud ge
Ġoptim ization
Ġproceed ed
Ġhob by
ĠMorm on
U lt
v ier
Ġb oss
ĠS R
Ġev ap
Ġ16 00
ĠMay or
Ġflood ed
Ġreb els
Ġexceed ing
ĠSex ual
ĠNurs ing
P ut
b us
l iving
ĠE asy
Ġcor als
Ġ' '
oph ila
Ġavoid ance
Ġpen insula
Ġchief ly
Read ing
Ġinval uable
Ġinter cept
Ġgra ves
Ġasc ertain
Ġmunicip alities
ĠDesc ription
Ġnort heastern
Ġvend ors
Ñ ĥ
ut or
ĠB alk
ĠW ag
sw ers
ĠState ment
Ġste pped
med ia
Ġfabric s
Ġaccident al
ĠOtt awa
ĠBiod iversity
Ġt il
Ġb il
Ġf ond
il ian
ĠP in
Ġpath ology
Ġwood land
Ġnarr ator
Qu estion
Ġseaw ater
A cc
Ġprob iotics
uk i
cont aining
ĠPartners hip
Ġinfest ation
ĠG roups
ĠL ives
10 1
Ġmo ons
Ġadvoc ated
Ġsmooth ly
I ES
id o
th ose
Ġtw ist
Ġcar pet
ĠPl ans
Ġphot ographic
Ġjoint ly
à¤ °
essor i
Ġprophe ts
om ers
ĠC ort
ĠM ale
ĠM aint
Ġgl aucoma
Ġmath s
ĠFre ud
Ġscript s
ĠHom o
Ġdistract ed
Ġstiff ness
Ġtodd lers
Ġmush rooms
Ġantim icrobial
Ġar ter
Ġinter disciplinary
Ġder ives
Ġyield ed
ĠEpid em
i aries
l it
p g
Ġb atch
ab we
ĠB ald
ĠL un
ĠIn n
Ġexp ands
Ġanim ated
bl og
Ġmamm al
ĠExp osure
Ġquiet ly
f ile
Ġl am
mer cial
Ġdi aph
Ġco aches
Ġvis c
ĠPl ains
ipp le
Ġang ular
Ġpric ing
Ġguarant ees
imp se
rell a
Av oid
Ġintercon nected
ĠHallow een
ch in
Ġdis gu
19 80
Ġdra ins
Ġanaly se
Pl ant
ĠNon etheless
n ih
Ġb ic
ĠM C
ĠL ad
ĠL ands
Ġexerc ised
Ph ysical
En ergy
Ġteen age
Ġscal p
ĠCamb odia
g roups
an throp
Ġl i
ĠM E
Ġ1 13
Ġinf ancy
erg us
ĠInt el
Ġjournal ism
Ġfacilit ated
ĠHor iz
Ġbeet le
Ġp ier
Ġb achelor
Ġse ab
ĠG O
Ġco ated
Ġpat rol
ĠEx cess
Ġhon ored
ij i
Ġreprodu ced
Ġreb uild
ĠCommer ce
U E
qu al
ĠE lder
Ġcle arer
Ġste ering
Ġaim ing
ĠChurch ill
Ġresid ues
Ġfisher men
Ġm ock
ro cess
ĠN IH
ĠSt orm
com b
ĠAss y
ĠCirc le
Ġgrad ers
ĠInteg rated
Ġexplos ive
ĠCommer cial
D el
c ribed
Ġf ishes
ĠE SA
ĠF inal
ous ands
Ġret rieved
Ġprop oses
ĠMon ument
ĠDef inition
Ġ185 7
Se lect
ĠExpl ore
ï¬ ģ
P arents
Î »
Ġw oven
Ġfor k
iv able
ĠNe urolog
Ġcapt ures
Ex p
Ġmig raine
Ġmission aries
Ġallerg ens
Ind ia
Ġsan ctions
Ġrecip roc
Stud y
Ġconstitu ents
f olk
n an
w heel
ĠC V
ĠH ume
ĠF ine
arent ly
Ġdev ote
Ġnon etheless
ĠExpl orer
eli ac
Ġp ads
ĠM ead
Ġ2 40
act ing
Ġapp end
Ġrep ent
Ġco ined
Ġcy an
Ġleaf y
Ġgall on
Ġcab bage
Ġparliament ary
ĠNort heast
Ġfortun ate
" ?
Ġo val
ĠR oll
pl ates
Ġimp ulses
Ġsc rub
Ġpres idency
Ġbra ke
Ġcompuls ory
Y S
Ġc ir
Ġre lic
Ġch alk
ĠN ormal
ĠL l
Ġsc arcity
the se
Ġopp ose
Ġeconom ical
Ġprevent able
Ġbehaviour al
Ġencl osure
ĠAltern atively
ĠNi Ã±
ĠStew art
Ġcroc od
T aking
s kin
Ã «
Ġst al
op athic
ĠG ates
Ġdet ention
ĠRes olution
ĠRead er
Ġmig ratory
nam on
win ning
ĠExper iment
Ġplaus ible
H en
or ian
Ġcl o
Ġhad n
az y
ĠTw enty
ĠBur g
Ġsurge ons
ĠIncre ase
Ġpupp y
Ġg i
ĠC arm
ĠR av
ib ern
Ġ18 95
Ġinstall ations
Ġdownload ed
Ġprox y
S er
h on
r il
w ild
on ial
Ġm ills
Ġl iable
Ġal tering
rit er
ĠV ul
ĠDe an
work ers
ĠAir port
Ġmillenn ium
g i
ro aches
iss ue
ĠMon te
ĠOrig inally
ĠProcess ing
Ġanticip ate
Ġmaneu ver
e ating
n ative
ĠS oci
ĠW ire
ĠE ither
Ġle tt
Ġpr uning
Ġass urance
Ġmon archy
Ġmet aph
ĠSh aw
Ġphysic ists
Ġstation ary
Ind ividual
kl ore
ĠEsp ecially
L and
b ank
ĠT es
ĠB ou
ast rous
Ġown s
der ived
Ġcrit erion
Ag ain
Ġmarc hed
l on
á ½
Ġo z
Ġs ne
an im
id ad
Ġtra ded
Ġ10 4
Ġconf irms
Ġcollect ors
Ġpp m
ĠGr ass
B er
H yd
Ġsk ies
bre ak
Ġqual ifications
Ġexcav ation
Sah aran
ur ry
Ġunder gone
Ġless en
Ġconqu er
Ġexclud e
Ġcategor ized
Ġopio id
M ax
e ers
ent ry
op erate
ĠR y
Ġbet ray
Ġgood ness
Ġdepr ivation
P rodu
in vasive
ap a
Ġdep icting
Ġgl impse
Ġorder ing
oph ysical
Ġsuper natural
ĠKe vin
Ġmission ary
ĠPal m
ĠOrgan isation
mans hip
Ġst agn
ant o
ĠRe ef
Ġdress ing
ĠWW II
M en
R esp
U SA
Ġ \
Ġl ays
ĠT rain
Ġwe ird
Ġsp ans
Ġcomp elled
Ġgo at
ah an
Ġpresent ly
me al
Ġlow ers
to xic
Ġrepl en
ĠPre c
Ġindef in
) âĢĶ
l ab
or por
ro ot
ĠC ad
ĠB ak
ĠB acon
Ġacc ustomed
ĠComm ander
ĠGu y
Ġagg ress
ĠSal v
ĠEnd angered
arb ons
Ġp unch
un ctions
Ġcur b
ĠGen er
ĠApp roximately
Ġju ices
hol m
B uilding
s ided
Ï ĥ
Ġb ending
id uous
ĠN athan
du ino
ĠSt rait
Ġco hes
Ġide ally
Ġprob es
ze k
Ġfront al
Ġthick er
Im agine
develop ment
Ġreservoir s
Ġamend ments
Ġdrople ts
Ġculp rit
ct oral
Ġre un
st ick
us a
ĠY an
ĠBe hav
AS S
Ġdeleg ates
engine ering
Dig ital
e ight
Ġd yes
ĠC ord
ĠB omb
Ġsu ite
Ġca red
Ġins ign
Ġbr ighter
ĠDo ctors
ĠPre vious
Ġbeat en
u ating
ĠIn sect
Ġsc ra
Ġsc ared
oph ys
AR E
Ġestim ation
Ġanaly sts
Ġ190 4
Rec ently
ĠWhere as
ĠPier re
B est
l as
l ocal
Ġc ube
ĠK o
Ġabs urd
yl ene
inf ected
ĠFil ip
Jew ish
ĠPitts burgh
C are
C ertain
s aving
ig g
ĠF ruit
Ġsupp lier
Ġbr ide
Ġphot ographer
Ġviol ated
ĠInt rodu
Ġsed entary
Ġpione ering
C am
L ink
er obic
ĠH oney
Ġhas h
Ġob edience
Ġpred icts
ĠComp are
IC S
Ġrain bow
bl ue
Ind eed
Ġcough ing
Ġfemin ist
fil m
ovolta ic
ĠConstantin ople
ĠB irmingham
Ġv ault
Ġch ol
Ġsupp ressed
Ġmy el
Ġdep ict
cl in
ason ry
Ġfa ults
hand ed
ĠVen ice
Ġubiqu itous
M RI
Ġl umber
ĠS ARS
Ġr im
Ġen riched
ell s
Ġec zema
Ġagg rav
Ġ190 3
Con f
Ġmanifest ation
Ġenrich ment
J ournal
Ġc ache
Ġst yl
Ġcan als
ort ions
un al
Ġpe el
Ġir rad
IC EF
ĠReg ardless
Ġbeautiful ly
ĠUp dated
Ġbudget s
ĠCy cle
ugg ing
ĠLat ino
Ġexting u
L ocal
Ġk er
ject ives
Ġdisc retion
unt ing
Ġcomplex es
AN T
Ġsn aps
ĠNov a
Ġmitochond ria
ĠSic ily
H um
Ġr anged
ag ascar
ĠJ en
Ġdis astrous
Ġret aining
ĠMy th
Ġâ ĪĴ
Ġdiss olve
Ġcruel ty
ĠPict ure
Ġau ction
an ne
Ġd roughts
ĠHe in
Ġtrans ient
Ġdifferent iated
Ġgener a
Ġprot ons
Ġquant ify
Ġcoast line
Ġstim ulated
Ġban anas
Ġglac ier
Ġadvis ory
Ġster ile
ĠVo ice
Ġsuperf icial
es ian
Ġf ibr
Ġre jo
ĠT ropical
ĠB orn
ĠD M
ĠO ECD
Ġsc ent
Ġfl ames
Ġ10 3
ĠSh i
Ġview ers
Ġcrow ds
Ġastronom er
U I
Î ¼
in als
ĠBl acks
ĠLess ons
ĠHem isphere
Ġcuis ine
i ologist
Ġv ap
âĢĿ :
Ġpo etic
Ġprof iciency
ĠRec y
Ġconfront ed
Ġincons istent
Ġorph an
L D
d rop
ch anging
Ġst amps
ĠB elt
ĠK night
Ġpr inters
Ġed itions
Ġrest ra
Ġreflect ions
Ġassist ing
Ġdefic ient
Ġpun ished
Ġredd ish
re th
so le
Ġsuff erers
ino ids
AS E
Ġconflic ting
Ġabsor bing
ĠOb esity
ĠGir ls
ra cle
Ġdec oration
sc ar
Ġrain y
Ġsolid arity
Ġneur on
Ġbapt ism
M ary
Ã ¸
Ġst alk
Ġal beit
iv ial
Ġob struction
Ġdon ate
umb ling
Ġworry ing
âĤ¬ âĦ¢
d egree
ru its
Ġres ign
Ġatt ent
Ġleg umes
Ġmor b
Ġfurn ace
Ġforg iveness
Ġcrew s
Ġunsu ccessful
A G
E th
V er
ot ide
ur ations
âĢĿ ;
Ġant iquity
Ġdra ined
Ġcred ible
Ġcart oon
ĠKeep ing
Ġvibr ations
Ġsearc hed
ag in
Ġfl ush
Ġco arse
reg ulation
Ġcarbon ate
Ġsubsc ribe
Ġlandf ills
f ired
Î ²
Ġc asc
Ġover flow
Ġins ur
Ġfre ight
Ġdel ta
ĠDis abilities
Ġcompl ain
Ġment or
keep ers
S pe
p rom
Ġh ips
ĠC oc
urn ed
Ġ18 12
Ġunderstand able
by ter
sh ould
mat ical
Ġpossess es
Ġexception ally
Ġgest ures
Ġextrem es
chest ra
D D
p arent
Ġare na
Ġinc arcer
Th ird
me aning
Ġcommit tees
itch ing
Ġvill agers
Ġpin point
ighth ouse
Ġdeple tion
r Ã©
Ġf are
ic uous
ĠA ffect
ĠP ont
ĠH z
Ġcan s
ĠL isa
Ġcustom ary
ĠHel en
Ġmaster y
Ġmanifest ations
Ġreh ab
ĠAz tec
Ġesoph agus
Ġ Ä
Ġh ull
ĠC up
Ġwe ighed
ĠK il
Ġ3 000
Ġfl aws
Ġmake up
Ġins ist
Ġrece ipt
Ġevalu ations
Ġflat ten
ĠSac rament
Ġin oc
Ġm osaic
ĠS ites
ĠC ome
Ġint eger
Ġmon k
Ġep ist
Ġpersist ence
ĠHung arian
Ġchamp ion
ĠCoal ition
ber y
h im
Ġ ____
en berg
if ers
ie u
Ġfl ank
ĠRe h
raph y
ograph ics
bal anced
Ind ian
ĠVenezuel a
M ENT
Ġwor ries
Ġall ied
ĠV ent
Ġcur s
line ar
ĠConf lict
Ġ188 8
ĠBehavior al
Hel p
L ab
ĠF R
Ġvalid ation
organ ized
Ġremote ly
Ġlivelihood s
accept able
Ġcaut ious
J oin
im ates
iv ist
ri en
Ġhum ming
Ġsens ations
Ġcop ying
ĠRob in
Ġiod ine
S am
w ould
ĠA ur
ir l
ĠP ierce
ĠW or
ĠE lements
ull ivan
ĠAd obe
ĠEv ents
Ġfib res
alm ud
L ight
c orn
o am
an cer
Ġl umin
Ġal coholic
ĠM aps
Ġ1 16
ab ol
res pect
ĠN F
Ġup grade
ath on
12 5
Ġsens ible
uck er
Ġprogress ively
Ġlifest yles
Ġevac uation
Ġdatas ets
sens itive
Ġw it
ĠT rad
ĠAl pha
Ġpur ification
Ġcho oses
Ġexplore rs
Ġprohib ition
Ġsuspic ion
b ands
Ġ !
is ans
Ġp ause
ol ate
Ġcand le
Ġchief s
ĠIdent ity
ĠHon or
Japan ese
re search
ĠN T
als y
Ġreal izing
Ġing en
Ġcontract ing
ĠChe roke
Ġensl aved
em ail
ĠR ick
ĠF uk
Ġcre st
par ing
Ġnational ity
IC AL
Pl an
ĠPoll ution
P y
R o
Ġsp ouse
Ġoper a
Ġlaws uit
Ġappoint ments
ĠEss ential
ĠFac ulty
ĠBegin ning
T w
ĠD ys
ĠG rowing
aw i
Ġsl ice
Ġmult id
Ġsw amp
Ġfil tered
Ġ0 2
Ġing estion
ĠOb viously
ĠDou ble
B P
N F
ate mal
Ġqu artz
Ġsoc ket
Ġ10 2
ĠCl ose
ĠEn h
Ġ0 8
Al ong
Ġsouth western
Ġmal ignant
Ġfertil ization
ĠAny one
Ġsubsc ription
Ġvig or
othel ioma
V s
l iter
Ġl bs
ĠH undred
Ġdec ree
Ġsupp lying
Ġstr angers
ĠPl astic
Ġlo vers
Ġpolit ician
Ġdepend ency
Ġempower ment
z ep
Ġon c
Ġ10 6
Ġfire f
Ġdiagn oses
Ġgarden ers
Ġanat om
Ġw omb
ĠS ed
Ġopen ings
Ġmult imedia
Ġpow d
Ġfold ed
neg ative
ĠBatt alion
Ġdorm ant
in ant
ke eper
em er
ĠIn vent
Ġexp elled
Ġinter course
ĠCl are
Ġchem ically
Ġi Phone
ĠHer bert
Ġmer ged
198 9
ĠDiff icult
V ideo
Ġa ux
ro ved
Ġe go
ĠA aron
ĠV i
ety l
Ġrecover ing
ĠBuff alo
ĠArn old
c s
n or
ce mia
Ġgeneral ized
Ġsun set
Ġsett ling
Ġexperiment ation
ĠElect rical
ĠJul ius
ĠPhill ips
a ffected
m illion
ĠR ing
ard i
Ġres ume
Ġcl ue
Ġfin ances
Ġhold er
Ġâ ī
Ġp sy
Ġcon greg
Ġman gro
Ġsub species
Ġdisc rep
Ġfound ers
Ġmodel ed
Ġaff air
ĠUs ers
ĠRad iation
ĠOm ega
p aper
ĠSt ri
Ġmon ster
Ġequ itable
erg ic
ĠGir l
Ġinterven e
E PA
Ġh ive
op ath
ear th
ak ia
ĠPh araoh
ĠEx odus
ĠBrit ann
Ġmarket place
uth ors
Te chn
ĠRock y
ĠAlexand ria
C oll
en ia
Ġw rest
ĠH ipp
Ġcl ocks
Ġrec alls
Ġread iness
Ġdesp air
Ġsecret ion
ĠAdd ress
Ġinequ alities
Ġpatri arch
Ġdeple ted
Ġsp o
Ġpe ppers
Ġknowledge able
Ġlic ensing
ĠStan ley
Ġexpend itures
Ġhipp ocamp
C ap
ro e
Ġ[ âĢ¦]
ĠZ en
Ġ17 0
Sh ould
ĠSl av
ĠNeuro science
Ġsafegu ard
Similar ly
P rim
Ġt ect
is ch
ĠP O
ĠN ad
ĠL LC
ob iles
ĠAl g
Ġsym pathy
-- -
Ġenroll ment
ĠG ov
Ġsp heres
Ġher ds
Ġacid ity
Ġign oring
Ġampl ifier
Ġabol ished
link ed
t z
on str
Ġc act
Ġp its
Ġd ock
Ġl ing
Ġan ecd
Ġr heumat
ĠN ine
Ġk not
Ġsc oring
hold ing
ĠBar n
ĠAut o
Ġpossess ions
ĠF ailure
Ġab uses
iz za
Ġcirc adian
Ġcy sts
ĠLe af
Ġmira cles
ĠIb id
ĠVeter ans
Ġma ize
W riting
ec al
ber ty
eg as
Ġcollect s
Ġrev ival
Ġcand les
Su per
press ure
Ġc ray
al one
Ġb ury
Ġb ilingual
Ġret ard
Ġver t
Ġrot or
ĠMont essori
Ġflour ish
ĠPH P
Ġtraject ory
ut an
Ġpl umbing
Ġper pend
Ġdisc s
ivid ed
Ġcomput ed
ĠAb stract
Gen erally
ĠLi u
worth y
Ġirre levant
Ġunderm ine
imb abwe
Ġpeas ants
ĠiP ad
d est
Ġsh ine
Ġev angel
Ġback ing
Ġest eem
Ġstar vation
ĠOld er
Ġadvance ments
ograp hed
opot am
M o
g rams
Ġus able
ĠY am
ĠPl at
ĠSe ason
icult ure
Ġver tically
Ġthin ner
ĠExper imental
Ġsevent y
ĠContin ental
Ġsor ry
ĠArchae ology
C ur
l at
est ones
ĠLe o
Ch inese
Ġmut ant
Ġcoat ings
Ġremn ants
Ġtoothp aste
ĠPrad esh
f light
ï ¿
Ġd ess
âĢĿ âĢĶ
Ġdeb ated
Ġconnect ive
Ġfacilit ating
ĠMong ol
V ery
Ġf ructose
ĠV R
Ġmouth s
ĠProgram ming
Ġ190 2
Ġpreced ed
Ġgest ure
ĠTas man
M O
P ot
im age
ĠC ats
Ġres olutions
Ġexpect ing
roc hemical
Ġreven ge
Ġdisin fect
Mat thew
Ġlaund ry
S il
m ake
Ġt read
Ġl end
ĠW el
Ġsp herical
ĠU T
ib les
Ġup stream
Ġ189 6
ĠConstant ine
Ġinfl amed
ĠMit chell
M ad
or ative
Ġb ilateral
Ġh iking
if ted
Ġdef ended
ĠDr inking
ĠGerman ic
ĠInst ru
Ġsymbol ism
198 6
Ġdub bed
E ast
m ith
Â ½
ĠN ord
Ġam p
Ġfore front
AN S
Ġsew er
ĠKy oto
en ic
Ġst y
ĠR alph
Ġcl er
ĠAll ies
Ġslow s
Ġlog o
ĠReview s
Ġdisrupt ed
ĠQur an
Ġsubur ban
ĠBud get
Ġt art
on ucle
Ġp uls
id ated
ĠM erc
op last
ill us
so lete
Ġsent enced
Ġgrand parents
ĠBrig ade
ĠT rou
ĠC ause
ĠI X
ĠE ur
Ġam ended
ĠLe ave
Ġdoub ts
ĠMal colm
Ġsummar ized
Ġsquir rels
Ġsubmer ged
Ġdiaph rag
c d
at ri
am ines
Ġse ptic
Ġpl aster
ans om
ak y
Ġun in
Ġfl are
10 4
Al tern
Ġimag inary
Ġsculpt ures
Ġdisadvant aged
ĠDall as
l ength
or ate
Ġb ishops
em p
oc ese
Ġne u
Ġse ated
ĠG az
Ġrep aired
ank ton
Ġbegin nings
Ġslow ed
Ġtun a
Ġfulf illing
Ġsoy bean
Ġsurre nd
Ġkin etic
Ġplag iar
h oot
v ents
Ġc aste
Ġin efficient
ĠM ix
ĠW u
art ments
Ġun just
Ġresp iration
ĠAr med
Ġpsych iat
Ġbuy ers
198 8
ĠWorks hop
Ġsug ary
Ġstabil ize
F in
T T
er ly
ent e
Ġe u
ĠThe atre
qu est
ĠW A
ĠF inding
ĠN J
ĠL ung
ĠSc ots
ĠEc osystem
ilit ating
Ġ186 8
ĠÎ ±
Ġhack ers
Ġcondem n
Intern et
Ġaspir in
Rober t
Ġenjo ys
S olar
Ġin organic
Ġd engue
se ason
ĠS hip
ĠB od
Ġcan cell
ip el
ĠSh ar
Ġisol ates
Ġpig e
spec ial
ĠFe el
Ġblow n
ĠCe le
Contin ue
Ġdispos able
Ġb ord
Ġ1 19
ord ination
ract ing
Ġstr anger
Ġtext iles
Ġmort gage
Ġvast ly
ĠMad agascar
Of ten
Ġmini ature
Ġneighbour ing
Work ing
F ull
ro cy
ĠS oph
oc on
ast ical
ĠSt uart
Ġfour teen
AC K
izz es
ĠDesc ribe
Ġty ph
P sych
ro y
ĠS weet
ĠB ert
ĠR oot
Ġcl an
ĠSur ve
Ġhop eless
ĠLib eral
f em
or r
ĠF O
ĠN ancy
ĠL ost
ach t
Ġsy nd
Ġdef enses
ven ous
Ġmethod ologies
Ġport raits
Ġflav ors
Ġid ol
M ass
r ase
Ġdep uty
ĠCon duct
Ġdead line
ĠVir us
Pro ject
Ġasse mble
Ġsort ing
Ġmit ig
Ġleak age
ĠLaur a
W rite
l antic
Ö ¼
Ġt an
Ġh ives
ĠMedic are
ĠCirc uit
Ġprosper ous
Ġrefere nd
Ġevap oration
Ã ª
as uring
iz a
Ġcomp ute
Ġun im
Ġend ors
Ġant is
Ġrad ically
lex ia
Ġspect ral
Ġelimin ates
Ġmel ody
Ġ188 5
Ġretrie ve
H ead
Ġf ills
Ġm oth
Ġle ase
Ġhigh ways
Ġsix teen
ĠWeb ster
Ġdiscl osure
Ġovers ight
H ER
m onds
Ġm aid
ĠR ES
ific ate
Ġsocial ism
Ġview point
be fore
Ġpath ogenic
IN T
AC E
EL L
Le vel
ba um
ĠIU CN
g ust
ĠG row
pl ication
Ġout we
ert ation
ex isting
Ġ12 8
Is rael
Ġfort ress
rust ed
á¹ ĩ
Ġt ides
ic ul
op ping
ĠH ub
Ġcl ips
Ġrec laim
Ġexp ans
Ġsol o
Ġclass mates
ron ts
ĠIm aging
hel m
ĠVol can
Ġnav y
Ġveter an
Cre ate
Ġr ipe
Ġinv ade
Ġpop ul
ĠReg ulations
Ġscreen ed
Ġconstruct ive
Ġsem antic
Ġ186 7
ĠStart ing
B ur
Ġa ur
Ġ1 14
Ġhe ater
Ġsh rine
pl anes
ĠCh anging
ĠWe bsite
Ġ10 8
Ġvacc inations
Ġmill ig
Ġadvis able
t ain
ĠComp uting
Ġpig ments
ĠInit ially
Ġp iles
ĠB ath
ĠF al
Ġar id
ĠCh in
Ġwr ink
ĠTrans fer
ĠBr ight
ĠLead er
Ġirre vers
iothe rapy
Ġlett uce
S at
ĠC ave
Ġch icks
Ġinter sect
Ġreal ise
ograph ically
Ġsens it
Ġbar n
Ġarm or
Ġmel ted
Ġweigh s
ĠFA O
Ġtransist or
L L
N I
W ritten
ĠM alt
ect omy
Ġsp ikes
ind a
Ġunder went
Ġclin ically
Ġjurisd ictions
Ġsummar ize
Ġfant asy
ĠON E
ĠRog ers
ĠRecomm end
× ľ
Ġp aved
art a
Ġimp osing
Ġj ealous
Ġclass ify
ĠZ ero
Ġcred ibility
Ġreb el
L ittle
u f
ra h
ĠC od
reat h
Ġrep rint
Ġreg imen
Ġ18 99
ĠGod s
Ġmut ually
ĠBron ze
Ġmoder ately
M ethod
c over
m iss
Ġl ord
ut ral
os omal
ĠK or
Ġadd itions
sw orth
Ġbal ances
Ġhem oglobin
Ġsuperior ity
ĠMid west
ĠÙ ħ
i atic
ĠT almud
ĠC ere
ĠW ere
ĠL ion
Ġen cephal
are a
Ġpop e
Ġself ish
Ġpersonal ities
ĠPat ient
Ġhom osexual
Ġdecomp osition
L ater
g r
Ġa ided
Ġc ath
ic able
ĠM Ã©
Ġref res
Ġdep ressive
Ġcru ise
ION S
Ġneuro science
Ġoptim ized
Ġ189 3
Ġunw illing
Ġsup rem
Ġaccomplish ments
ĠBened ict
B egin
D B
L aw
st orms
ver bal
ĠB PA
os itions
un i
Ġad jective
ĠCh an
ĠCongress ional
Ġcontem por
Ġprompt s
ĠRh ode
Ġeru ptions
ĠPun j
ĠLith uan
d esc
Ġp ent
ĠS low
ĠM W
ĠR yan
ĠCh a
Ġexp orted
Ġtechn icians
anc ipation
Ġprevent ative
Ġdest ined
Ch ild
Ġcust ody
Ġly rics
N OT
k ward
p ract
Ã ¯
on ies
Ġcon es
ĠF ib
Ġpl un
Ġprog nosis
ros clerosis
ocy te
Ġhed ge
F amily
w y
in ety
Ġcan e
Ġcl og
ĠDo ing
ĠMe an
ĠTechn iques
Ġfair y
Ùİ Ùĳ
Ġcyber security
Ġbind s
Ġt atto
he id
ess ment
ĠBe hind
Ġglobal ization
Ġfoot age
Ġ188 6
Ġcouncil s
Ġassass ination
ed ical
Ġh ood
il ized
ĠW E
ĠW elling
Ġch airs
Ġafter ward
Ġdist ortion
Ġcomput ation
Ġsal aries
ĠApp alach
ĠKe pler
ĠArab ian
Ġminim izing
ĠLanc et
F re
st atic
Ġdisc ol
Ġfat alities
Ġir res
ĠLeg ion
Dep ending
ĠCru z
Ġsho ots
ĠTitan ic
ĠOccup ational
: -
G L
re viewed
Ġn arc
ĠI van
ĠM ob
ĠTh y
ach i
ĠRe ality
Ġdisp osed
Ġgar ment
Ġtick ets
Ġendeav or
ĠRac hel
Ġinverte brates
Ġdors al
l ag
ĠF ab
lic ation
ĠUn less
ath a
less ed
ĠInst ruct
ĠPers ons
ĠDrug s
ĠConc ord
ĠSep ar
Ġt ails
Ġl ane
ig ers
ĠJ ar
ens en
Ġup rising
Ġmay or
ĠPl aces
isc op
chie f
Ġlog istics
Ġo ath
at onin
Ġl ice
Ġal ly
Ġcol orectal
Ġnew est
Ġnic he
ĠH A
Ġsh aking
to le
ĠPr incess
Ġshock ed
Ġcosm etic
ĠMah ar
U r
Ġcom ic
iv orous
ĠW ald
ĠD aw
ĠV iking
Ġter ra
IN D
Ġaspir ations
ĠBrother s
Ġrupt ure
P ract
Ġm RNA
Ġbe ast
id ian
ĠS or
ac ic
ell ows
Ġday time
Ġlo ops
ĠAll ergy
ĠSupp ly
ĠPers ia
Ġsatisf ying
ĠNeed s
D M
S elf
ical s
ĠG ary
ren ces
Ġappro ve
be ans
Ġred irect
ĠGu atemal
ĠCo operative
Ġcommit ting
Ġcompar atively
ĠMethod ist
ĠPot ential
ĠAltern ative
egrad able
Ã ĥ
st ore
Ġon ion
ĠM ang
Ġsp arse
Ġad herence
Ġany time
ĠCom ments
Ġexpect s
Ġhero ic
Ġampl itude
Ġheaven ly
ĠIndones ian
Afric an
embr ance
M B
P ol
ĠT ak
ore xia
ĠW heel
ĠL ag
Ġover see
ĠV as
Ġpres idents
cept ual
ĠBr id
Ġfig ur
ĠInf ection
Ġtal ented
Rec omm
Ġconj ug
ĠRequ ire
ĠS inai
ĠM ul
Ġpack aged
b low
ĠF ergus
ide gger
Ġar ithmetic
ang led
az i
Ġing est
Ġenhance ment
ĠSat an
ï¿ ½
c ross
it he
ot ions
ĠG ross
ass y
Ġreg ain
Ġret inal
Ġhard est
ĠMed al
Ġcy st
ĠEss ays
EE E
opter a
Ġaston ishing
z ero
Ġd ances
ĠT ong
ĠC riminal
ĠM unicip
Ġaut istic
ae us
Al most
Ġaud it
ĠAnt ib
Ġcontract ors
Ġoverl apping
Ġbiom edical
Ġnom inal
Ġextens ions
Ġignor ant
Ġdilem ma
Ġperpend icular
D ou
P resent
l ater
w oman
in ia
Ġfor aging
Ġsp acing
ag ain
Ġass ays
Ġ10 7
pro gram
iction aries
ĠApp ly
Ġlad ies
ĠJama ica
et ra
ĠC ondition
ĠP E
Ġcan ned
ib ular
Ġcl ots
ĠK um
ĠCh rom
ph alt
Ġbo iled
Ġplan ners
ĠEm ail
Ġtri angular
Ġmig rated
Ġdivid es
198 7
ĠWood s
ĠDick ens
or um
ĠE P
age al
Ġhel m
Ġpres erv
Ġser pent
Ġret ro
Ġ0 3
Ġdest iny
Ġmis use
ĠRedu ction
Ġtorn ado
Less on
ĠUSS R
Ġa rous
Ġl ending
Ġk ale
Ġcl iff
Ġbl ended
Ġhel pless
Ġsign atures
Ġend othel
Ġreal ised
Ġsuper vised
Ġdisp ose
ĠFem ale
Ġunch anged
' )
d al
Ġm l
Ġg or
Ġcontin uation
ĠZ imbabwe
fact s
Ġthreat ens
Ġtend encies
Ġcentral ized
IT H
Ġgast ric
ĠSab bath
rosc opy
utri ents
Ġinacc urate
S ax
m ate
u er
â ĸ
Ġu gly
os in
Ġun rel
Ġun lock
Ġent ails
Ġbenef ited
br ids
Ġconduct ivity
ĠReg ulation
Ġtit anium
ĠTer ms
Ġplate au
ĠMill enn
ĠPhoen ix
e ff
ĠT ed
ĠB ring
Ġinf ertility
Ġbl isters
Ġhead lines
ĠAm y
ival ent
Ġdest inations
ĠMc M
Ġpump ed
Ġfold ing
Ġchim pan
Ġdens ities
ĠRon ald
ĠS I
ĠPl ain
Ġapplic ants
Ġâ Ī
Ġcompost ing
Ġisot opes
l m
m eter
Ġt ile
ce mic
ĠS id
Ġpro active
ĠN ash
ĠTh ai
Ġro de
ĠZ ika
Ġstat utes
ush ima
ha us
ĠDec ision
Ġspiritual ity
Ġshel ves
Can ada
Ġgran ite
Ġcatast rophe
Ġlig aments
K ids
m ax
on gh
ĠS olid
ĠS aints
ĠM ail
est ead
up us
Ġport al
Ġid i
Ġmemor able
I AL
b ies
ro ots
Ġen light
Ġsp elled
av oid
Ġant ip
ĠAct ually
Ġever green
Ġrev is
ĠPer ry
medi ated
Ġpione ers
Ġfeas ibility
Ġpiv otal
Ġdur ability
Ġd ich
am o
ĠN R
Ġdis ks
20 21
ger ies
Ġconc urrent
Te ch
ĠTim othy
Ġtables p
ĠLED s
Ġattain ment
Ġcram ps
ĠPubl ishers
Ġscler osis
y ards
Ġf el
ate red
ĠB uch
Ġ18 20
ĠEx ped
umb led
met ics
Ġrab ies
Ġsulf ate
Ġpersu ade
ĠBol ivia
b uild
Ġc ush
Ġf ins
ag ar
ph osph
ple mentation
Ġiss uing
tt a
oph ical
ĠJes uits
des ign
Ġmorph ological
ĠMes opotam
Ġneighbour hood
Mich ael
Ġundes irable
c it
on ts
om o
se ed
ĠB le
Ġno ises
ĠRe in
Ġcircum ference
Ġlymph oma
at ched
Ġre usable
ĠR ica
ure r
Ġsp y
ens able
Ġpre aching
10 8
ling ton
Ġstory telling
Ġcustom ized
ĠSur face
lar ge
add y
Ġjump ed
Ġfemin ine
bul lying
T om
Ġsp or
ĠV ik
Ġland owners
Ġcra bs
ĠCur iosity
inf ection
Ġdistingu ishing
Ġrid ges
Ġenthusi astic
ĠEns ure
ĠTes la
r ud
Ġw ipe
Ġb iting
im an
ur gical
Ġover dose
Ġins ult
10 5
Ġorigin ating
resp ond
part icularly
Sp anish
eck er
Ġnan o
Ġfabric ation
Ġexch anged
ĠCov id
rais al
b ia
b ably
ing les
Ġl yn
Ġle v
ĠL anguages
ĠV oc
Ġdist orted
Ġsince re
Ġste pping
Ġadapt ing
Ġking doms
ĠSam ple
ĠDisc ussion
cons uming
Ġdegrad ed
× Ĳ
Ġst ern
ĠC ob
ill as
ĠH aven
os hi
ĠD iss
Ġch ords
ĠIn come
ĠEx am
ator ial
ĠBi ography
ĠBur ma
ĠFather s
Ġderiv ative
er ated
Ġc ess
or ations
ĠP or
ĠR ol
ĠF oster
ss on
Ġinform ational
Ġabsor bs
Ġbreast s
Ġheight ened
Ġacceler ating
Orig inally
B io
M ajor
ĠM M
ĠP ue
Ġcom ets
Ġcons erved
iment ary
Ġstorm water
aunt ing
Ġb rit
Ġdisc ourage
ĠSe vere
Ġ0 9
Ġcontext ual
cript ions
Ġnob ility
Cal ifornia
er r
Ġs arc
Ġp amph
ar g
ĠF ill
ĠL ay
Ġper oxide
Ġrun ners
Ġcancer ous
ĠBas il
ĠExpl oration
Ġassert ion
ĠGil bert
w ash
Ġt rench
Ġf ights
Ġass ists
Ġlist ened
Ġ0 7
idd ing
Ġaccept s
ĠRec ogn
AM A
Ġmand ated
Ġneighb ours
ĠGram mar
Ġl asers
ĠT odd
ĠD ros
ĠG ay
ĠG arc
rit es
Ġrel ativity
Ġrelax ing
Ġmos que
ĠRand om
Ġembod ied
l ance
s ay
Â º
Ġres ent
Ġinf er
Ġgl orious
Re view
Ġconfig urations
ĠPot ter
Pat ients
h arm
et z
ore rs
ac id
Ġnot orious
Ġsh ale
ĠV ern
Ġgen res
Ġ18 71
Ġbr an
Ġobject ion
Ġcat heter
OR Y
uff s
Ġmig rant
ĠGra ce
Ġvalid ated
Ġaw kward
Ġstick ing
ĠAtt ribution
comm on
Ġtom bs
S en
Â ¢
Ġin ward
ur gy
iff erence
Ġtre asures
Ġ0 6
Ġflu orescence
Ġrecy cl
Ġpref ix
Ġfrust rating
Ġhypot hetical
V E
ĠT ag
if erous
ĠJ P
Ġ0 5
11 11
ĠPres byter
ellect ual
ca using
Sy stem
Ġb a
Ġsu ms
ost ics
ck ed
Ġend ured
Ġdr astic
ĠUS D
EN CE
Ġinn oc
Ġsevent eenth
Ġinterrupt ed
Cent ral
Vis it
he e
ĠP rag
Ġbi ased
Ġprogress ed
ĠPresident ial
Ġcompl ication
Americ a
Ġpu berty
Ġvoc ational
Ġteen ager
mun ition
W ild
o que
id y
ĠS ons
âĢĻ )
ĠW ear
ĠR s
lect ions
ert iary
Ġbo oster
Ġenc oded
Ġattract ions
Ġ189 4
ĠPas sover
Ġgi ants
w aters
re nd
or ption
ĠTh ought
Ġper vasive
ll or
ert on
Ġcor nea
Ġdestro ys
ĠBur ke
Ġamb ition
Pre vious
ĠOffic ial
Ġretail ers
Ġpunct uation
" :
en o
Ġun expl
Ġgr as
Ġ0 4
ĠAb bey
Ġcoll ar
ĠComp ared
Ġsqu ash
ĠGl ac
Ġswe ating
Ad v
Is lam
ey e
Ġtor que
Ġintu ition
Ġric hest
ĠUkrain ian
k n
il itary
Ġres ervation
ĠK l
ĠCh ance
Ġmod eration
Ġmeas urable
oint ed
Ġprim ates
14 0
ĠEd en
ON E
Ġeight een
Ġattract s
Ġjudge ment
Ġdrag ons
Ġa pert
Ġst ove
ĠE is
Ġse greg
ĠIn g
Ġno v
Ġno ct
unt ary
ĠCar n
Ġphot ons
ĠMod els
Ġing ested
ĠList en
Ġcounsel or
Pr int
ĠWars aw
Ġconsp iracy
ĠRap id
Ġproc ure
Ġhelic opter
Ġvegg ies
F ive
o j
in ars
an mar
Ġd ad
ell es
Ġun acceptable
ph ase
int ensive
Ġ18 76
up on
Ġ12 00
Ġclear ance
ung al
Ġred ness
ĠIP CC
Ġsatisfact ory
Ġumb rella
prising ly
P oly
at ts
ar ist
st en
ver ted
ĠM I
ĠP osition
os omes
Ġr ites
Ġle m
Ġrel iably
Ġno on
Ġpol io
ĠEn lightenment
Ġconcent rating
Ġneut rons
Ġwithd rawn
Ġceremon ial
Ġsmell s
Char les
Ġbibli ography
onel iness
ĠS omething
Ġst urd
ĠN HS
ĠIn form
19 70
Ġey eb
Ġpersu asive
Ġincorrect ly
ĠStrateg ic
Ġreconcil iation
se par
ĠC BS
Ġwood y
amb ia
Ġutil izes
ĠIraq i
ĠTar get
B orn
M el
P ers
Ġb un
an za
ĠT CP
Ġg inger
Ġhe mp
Ġv ines
ons ored
Ġra ge
ĠSocial ist
Ġgar age
Ġfra cking
Ġentertain ing
report ed
Ġscrut iny
h aw
Ġb ree
Ġg y
ĠC ategory
Ġinv itation
gen eral
Ġsepar ates
Ġmusic ian
Ġtransport ing
Ġrestrict ive
ĠHim self
Ġoste oarthritis
Ġhorn s
W estern
s i
Ġb ile
ĠW ool
all i
ĠSt ream
ren ches
ĠV ic
Ġob solete
ĠSc out
Ġinflu x
reg ulated
Ġmess enger
ĠAc cept
author ized
Ġquad r
F ire
Ġf ried
Ġmod ifying
ask et
Ġsn ails
Ġtack ling
ryst al
Desc ription
n ie
Å Ľ
Ġd ining
ag les
ĠBut ler
ĠGod dess
Ġstat utory
Ġswe eping
ĠAtt orney
Ġlapt ops
ĠZe us
ĠClear ly
P rior
Ġcl auses
Ġpat ented
ĠSp ot
Ġconf use
chan ical
Ġcalc ulus
ĠSch olars
Äģ n
Ġvent ric
ĠSand y
ĠPhilipp ine
H L
P o
ot ism
ĠS ett
ĠP F
ĠB our
Ġcan ine
ĠD ance
ag ne
Ġun ite
Ġco ats
Ġbrain storm
Ġdeep est
Ġhor r
Ġpet als
Ġrich ness
ĠÙ Ī
sch ild
Ġanomal ies
B s
c reat
Ġp rag
ĠS ustainability
ĠI an
ĠB A
ĠB ac
ĠD ew
Ġinv aders
Ġcent imeters
Ġassoci ates
ĠStud io
Ġver d
Ġmor ally
Ġfire works
Ġtransfer ring
Ab stract
ocy t
Bl ood
Ġpra ised
Ġhes itate
ĠRw anda
J ose
c ool
s omething
u itary
Ġh ort
ĠP ars
ĠL ip
av an
Ġam en
Ġmet amorph
Ġmot ives
ĠGe or
Ġmagn ets
ĠGab riel
Ġpollin ators
Ġsurrend ered
Ġmillig rams
ack ed
Ġtra cing
int rodu
ĠMar riage
Ġrespect ful
Ġworth while
Ġ188 7
Ġoblig ed
Ġbon us
pret ation
ĠInj ury
Ġtransg ender
intend ent
F OR
g rand
t ailed
it ian
Ġst agger
Ġde ed
res a
ĠK ab
Ġref usal
Ġ10 9
Ġattack er
Ġtransplant ation
Ġre app
ĠM all
ĠB one
ĠB rist
os ome
Ġur gency
Ġmid night
gener ated
Ġexcav ated
Ġcareg iver
L eg
u ction
Ð ²
Ġr ud
Ġne c
Ġsp oon
ric ula
ph ot
Ġdes erts
Ġoff enders
Ġsur name
Ġdet erg
Ġsw ine
ape ake
Ġsum mers
ĠMar tha
Ġrain water
Ġfear ful
Ġspect rom
Ġ186 9
ĠKnow n
ĠBal ance
ĠFarm ers
PubMed Google
b ard
Ġn ar
ĠS olution
el ia
ew orthy
Ġreg ret
Ġabs cess
ĠApp endix
Ġtri angles
ĠSoviet s
ĠBu y
ĠHindu ism
ourge ois
Ġm ole
us ers
ail ability
ĠHe avy
ĠAd ding
Ġindic ative
ĠCo hen
thern et
ĠMark eting
Ġscat tering
oler ant
Ġaster oids
Ġc rick
Ġsh ining
oss ibly
ĠBar on
Ġcommunic ated
Ġyouth s
ĠMart ian
Ġvow els
Ġprest igious
d ie
ĠC ret
ĠL amb
Ġoff ense
ĠPro c
Ġmet rics
Ġret in
Ġwar ns
Ġaff inity
ĠMet al
Ġmamm alian
ĠExper t
Ġic ons
prot ected
k ens
se us
ot omy
if ts
Ġv ain
ĠV oy
Ġcar riage
Ġdep ended
Ġprom inence
Ġprop ulsion
16 8
Ġsex es
Ġstri pped
Ġgraph ical
Ġboost ing
Ġgram matical
Ġmathematic ian
Ġaeros ol
E r
b oy
ĠL iber
av al
Ġhold ers
Ġ13 5
ĠHar old
ĠDirect ory
Ġfreed oms
Ġlact ose
R edu
k t
p oll
re v
Ġthe olog
om i
th ren
ĠB enn
ĠF ou
pt a
ĠSh iva
ĠÂ ½
ĠSch w
Ġdisp osition
ĠÃ ł
Ġflav our
Ġmanip ulated
Ġrect angle
Ġdict ators
s n
Ġan arch
ich i
ĠJ obs
Ġra id
Ġprog en
Ġcal ibr
Ġprofess ions
ĠMan ch
ij ah
Pl ace
Ġdimin ish
enh agen
Ġdisput ed
idel ity
t hens
at ility
ul ine
ĠH ugh
Ġv i
Ġlar val
cent ral
Ġcr us
Ġorigin ates
Ġple asing
Ġunc over
ĠMy c
ĠGovern ments
Ġemp owered
Ġconscious ly
ĠBat tery
CS E
Comp uter
Ġalleged ly
Ġprophe cy
ĠCertain ly
ĠBlu etooth
d ad
w itz
Ö ¸
ĠC inc
Ġit chy
Ġat op
ĠK irk
Ġrec urring
ĠV ed
ĠBas ically
rolog ical
ĠTem perature
Ġshell fish
Ġimper fect
ĠTre nds
Ġhall uc
Ġlone ly
ĠMoroc co
Ġintermitt ent
Ã ¥
Ġs inking
Ġm oles
Ġh ibern
Ġl ively
ĠS aul
ĠM ann
ĠP od
ĠP ries
ĠB erg
Ġv iability
tern ally
Ġind isp
ident ified
Ġbuild ers
Ġfarm land
Ġbed room
osex uality
Ġslic es
he y
ĠB ag
ĠO g
Ġco aching
ĠCon versely
Ġdecl ares
Ġcelebr ates
Ġ188 3
Ġconstra ined
ĠDom estic
Ġcommemor ate
Ġrif le
ĠManufact uring
W ik
s afe
Ġn inth
ĠB ent
ĠPro du
ĠRe formation
Ġmet adata
Ġspecific ity
St at
ĠTr uman
Ġviol ate
Ġcoast s
Ġten ure
Ġbra ce
ĠJo in
ĠCho ice
vol ume
educ ation
ĠMun ich
G C
in form
st ad
ist ine
Ġrep ell
Ġdi ode
ract s
Ġflu ency
ĠCal vin
ĠEd mund
ĠCast ro
ĠPo etry
Ġtransmit ting
ĠScript ures
et ch
ĠL aser
Ġeconom ist
Ġconsum es
ĠPres ervation
Ġprep ares
Ġinsect icides
Ġkid n
Ġscript ure
Ġinsert ion
Ġdefect ive
Ġbrows ers
Ġimpair ments
ĠCN N
represent ed
Ġafore mentioned
Ġvertebra e
Ġwart ime
h l
Ġa esthetics
Ġw aking
ĠH V
un ity
ĠL is
ĠRe lease
ĠAr duino
Ġhand ic
Ġ17 76
Ġconsult ed
osc opic
Ġuns ure
Ġcort ic
ĠFif th
r ason
ĠM ennon
ĠP tole
ĠB ach
Ġsu icidal
res cent
ĠR ig
not es
urch ase
Ġsurround s
Ġprepared ness
Ġprivile ged
Ġarom atic
ĠJenn ifer
ĠVin cent
M a
w hy
ĠC hest
ĠD S
Ġinf amous
ĠY u
ĠRe ed
Ġend ocrine
Ġimm inent
min ster
Ġphot ovoltaic
Ġthought ful
ĠEm ma
Ġcra b
Ġsyn onymous
Ġvalid ate
Ġ188 9
Ġpus hes
Ã¶ r
ĠOri ental
L anguage
Ġa z
is ks
Ġe ject
Ġon wards
iv ar
iz arre
olog ous
Ġrel ational
Ġobserv ational
Ġpack ing
bl ind
ĠVacc ine
k ar
o oks
at io
al us
Ġh ints
ĠP ink
ĠD awn
Ġr ally
Ġimp lements
ĠEm ployment
IS H
Ġinstit uted
Ġball ot
ĠPublic ation
ĠDisc over
ĠHyd rogen
Ġorn ament
Ġ æ
at ible
Ġb og
ra ising
Ġha pl
ĠN W
str ing
unt ed
Ġreact s
ĠBr us
ĠBalt ic
ĠYellow stone
ĠHun ter
a vers
ĠL uck
ĠV inc
ĠHe idegger
Ġbo iler
Ġimpact ing
Ġtun ing
Ġrational e
ĠDiet ary
I ll
g ow
Ġo st
ĠF ear
ous se
Ġall er
Ġj ars
Ġret ains
Ġdoctor al
Ġjo ins
Ġfair ness
Ġrat ified
Ġquot ation
Ġfundament als
ĠCalc ium
Ġw ines
Ġf eces
Ġst ained
Ġfact ual
ĠAn swers
Ġbas ins
Ġstat istic
Ġsal inity
ĠPe oples
Ġbal d
Ġfa ulty
Ġsport ing
Ġmillenn ia
ĠFried rich
W elcome
b eck
ing ling
Ġde ities
ĠSt ars
ĠCor on
Bl ue
Ġcorp us
Ġexagger ated
Ġreferen ced
M or
Ġm alf
Ġre charge
id ine
Ġv icious
ĠW isdom
ĠG uru
ĠO v
ĠCap itol
Ġsimult aneous
f r
n ature
ve ment
Ġav ian
Ġge ologic
Ġgrass lands
Ġbread th
ĠVeter inary
ĠH i
ĠH av
os it
Ġle x
so ever
Ġcur v
Ġviol in
ĠHar vey
Ġcook ie
Ġtum our
nam ents
Ġa ra
Ġp acks
Ġd ire
ĠH I
Ġforeign ers
Ġsubs istence
thod ont
ropol is
ĠRest oration
Ġvag ina
G ive
Ä ĵ
Ġd ucks
ĠS r
ĠB og
Ġen se
rodu ctive
ĠCan aan
ĠQ ual
Ġhost ility
Ġdiscrim in
Ġ189 7
Ġdism ant
Ġloose ly
Ġanalog ous
ĠDiam ond
T ips
W D
al ong
Ġn ap
ĠA PA
ĠM ons
ĠR ut
ĠL or
ĠInd ies
Ġstand point
Ġill umin
Ġsuper nov
sec ure
asion ally
indu strial
Ġsimpl ify
Ġgate way
ĠPrint ing
b is
ĠS omal
Ġr iders
ĠR ise
Ġra p
Ġref using
Ġhead er
ĠTr ial
ĠDiff erence
Cal c
ĠSac red
ĠGro ve
Ġbench mark
H and
Q ue
m and
v ir
Ġc ob
Ġin act
ic iary
ĠT oy
em ade
ĠCh at
Ġcur rencies
Ġprot agon
Ġactiv ism
lu ence
Ġhapp ier
ĠGl as
Ġattract ing
Ġexcess ively
Ġtrig lycer
Ġhunt ed
Ġsup ra
Ġcarcin oma
A round
s ince
à ¸
âĢ Ĳ
et a
Ġst ark
th us
Ġimp ressions
ass ic
Ġcomm enced
Ġprogram mers
ĠFr an
Ġz oom
Ġtur f
Ġdecl aring
ĠEc o
umber land
Ġmold s
riz es
Ġfo il
Ġpubl ishers
ĠLegisl ature
ĠKrish na
B ul
F ore
k an
ĠH uss
Ġpass ions
ĠAss istance
Ġsand stone
ĠStat istical
ĠMad rid
Ġbath ing
Ġstraw berries
conf idence
a ution
le ad
Ġl ac
ĠB ond
Ġsp aced
ish a
Ġca f
Ġdem ise
ann i
Ġkn ots
Ġbell s
R est
W ood
Ġin active
ra z
ĠM ull
ĠB un
ĠR T
ĠN EW
Ġun le
Ġam alg
Ġdise ased
10 2
Ġgr ind
Ġflow n
Ġfram ed
ĠArch bishop
ĠInter view
Ġgar ments
ĠSupp lement
ĠJul ian
Public ation
ĠLGBT Q
B rown
F ederal
L at
f if
t ake
Ġt ul
ĠSt roke
Ġmult if
ĠPr ison
do ctoral
Ġprohib it
ĠSym bol
Ġmira cul
ĠCollect ions
a verage
t rue
Ġo we
Ġsc ars
ov o
ram a
Ġens ured
Ġsun shine
sh ort
ĠAc ross
Ġwin ners
Ġdent ists
Ġresc ued
ĠAch illes
Ġaddict ive
Ġpancreat ic
Hen ry
u o
w art
Ġt a
at on
im ming
Ġcl iffs
Ġconf ine
ĠEm otional
Ġclean up
Ġflour ished
ĠMult i
opl an
Ġenthusi asts
Ġpilgrim age
es cent
Ġl anes
ect ive
ĠW elfare
Ġpl edge
ĠTh an
ĠSt orage
Ġsc av
ĠV ari
In vest
Ġgra ding
Ġgra phen
ĠAb ove
umb ar
Ġfix ing
Ġbio fuels
Ġric her
Ġdisin teg
Ġillum inated
pub lished
Ġreferend um
N ative
N ature
w hether
Ġs nee
or as
ĠS eg
ay ed
Ġas hes
ĠN ak
Ġun m
ĠAn al
ik ed
Ġvol ts
app le
Ġfr ank
amb a
Ġbed time
ari at
198 5
ĠEnter prise
Ġpropri etary
ĠG un
Ġsec urities
Ġprot on
Ġcontin uum
aut ical
Ġcompet itions
Ġassist ants
Ġimmun ization
Te aching
ĠEqu ipment
ĠChair man
L ou
P ur
c hemical
m icro
Ġa kin
se ctions
ost ing
ec a
ru ce
Ġj ungle
Ġout dated
Ġun real
Ġtr ivial
ef it
Ġins criptions
ipp ers
Ġheat ers
Ġhor rible
Ġantib acterial
Ġfasc inated
ĠPalest inians
Ġpredomin ant
F ar
W ed
et c
Ġhe n
Ġr iot
Ġcomp ose
ĠK un
Ġdiff use
erm ost
ĠWhen ever
ĠGen ome
Be yond
ĠDist ribution
Ġsole mn
Ġdepart ed
Ġparas itic
Ġdense ly
Ġgraphen e
Ġ vern
Ġp ension
hen g
Ġest ates
Ġsuper st
Ġut most
Ġhyd rated
Ġwa ited
Ġdiss ip
ĠPhys iology
Ġdisrupt ive
Ġconvey ed
ĠRout ledge
Ġmol ten
Ġimmort al
ropract ic
ĠChes apeake
I SA
n ection
Ġd ash
Ġh ose
us ch
Ġr anc
gh ai
ĠCh ang
Ġrec urrence
Ġpr ud
Ġam munition
Ġpo inter
Ġperiod ontal
18 0
Ġemb ro
Ġmer ge
Ġtransition al
Ġprofound ly
opa usal
ĠGalile o
Ġspaw ning
ĠLibr aries
c ot
Ġt asty
ĠD NS
ĠG ot
ĠN est
ass er
Ġimpl ication
Ġrenew al
Ġmort ar
ĠCy cl
Ġpean uts
ĠPharm ac
ĠPeters burg
Ġdiaphrag m
: :
Ġt ric
Ġb rowse
ĠB rew
oc ations
Ġr ider
.. ."
Ġfil ing
gu ard
ĠStep s
Ġtutor ials
lesi astical
ĠDros ophila
Î º
Ø ¹
im o
ĠO ste
au kee
ĠSt em
Ġinf ringe
Ġup side
ph is
Ġpost p
Ġbi otechnology
Ġchem ist
pro tein
ĠSecond ly
Ġpron ounce
Ġnumb ness
Ġunh appy
c ible
Ġor anges
Ġr iots
Ġim plicated
Ġtra des
ĠCont emporary
Ġpsych o
Ġexped itions
Ġspark ed
Ġprosec ution
Ġsubur bs
ĠCoff ee
c ert
Ġb inge
ĠS ikh
ĠS iberia
Ġan onym
ĠF uel
ens er
Ġdist inctions
ien ced
Ġpref ers
ĠCharl eston
Ġdisse mination
ĠRoc hester
Ġepithel ial
i ang
Ð ¿
Ġs ands
ĠW ritten
ĠO ptions
In it
Ġur l
ĠAng lic
Ġreward ed
Ben efits
ĠRecon struction
L ocation
d l
ĠThe m
ĠP omp
ĠF ROM
ĠN g
ax y
Ġbas il
Ġmult ic
ĠAccording ly
ĠCoun sel
Ġprohib its
Ġcosm os
ĠNG O
Ġerad icate
Ġl obe
ig ator
per formance
ins p
be k
Ġunf old
alle l
ĠIP v
Expl ore
ĠJohann es
Ġp ri
ĠA DA
ib ia
ace ans
ĠK aren
ĠV lad
Ġsm arter
Ġback bone
Ġtop ography
Ġrock ets
Ġ188 4
ĠRen ewable
F und
W il
l os
m ult
s erv
Ï Ģ
Ġg n
Ġne p
ĠF riend
Ġcur ricula
ĠSh ut
eed s
ĠRep ly
ĠX X
ĠNe il
Ġprefer ably
ĠLand scape
flow ers
Ġappl iance
ĠGH G
Ġamyl oid
Ġirrevers ible
ĠP ere
ĠG L
Ġper imeter
Ġac ron
ner g
Ġcontact ed
ipl ine
Ġtrain er
di agn
ĠSud den
ĠPow ers
Ġcoordin ator
Ġincub ation
is se
om at
ĠF ellow
Ġ2 30
ob last
Ġco operate
Ġcal ibration
aps es
Ġhyp ers
Ġoccup ies
ĠMedic aid
Ġvolunt arily
bour g
Ġadverse ly
Ġmars hes
ipel ago
r ush
ĠT all
os ocial
Ġr inse
Ġres igned
Ġman ners
Ġcar c
ĠAl m
10 6
Ġrh in
ĠRout e
Ġcin namon
Ġdermat itis
Ġrighteous ness
Ġá ¼
C reating
ĠS ullivan
ad al
ĠW OR
Ġwas ting
Ġfound ational
ĠOr th
Ġsam pled
Ġtrou bled
Ġsan ction
Ġ185 1
Ġmountain ous
Ġhero in
ĠHT TP
ĠCra ig
A lex
F I
P rop
b ohyd
Ġc ute
ad vert
ĠH iro
Ġpers ists
Ġer y
Ġstress ors
Ġbott led
Ġcontract or
ĠHol mes
ĠAp ache
cel ain
ĠForm ation
Ġalter ation
Ġtrigger ing
ĠBa gh
Ġassert ed
Ġexcav ations
Ġcrystall ine
> .
T im
m iah
Ġh ike
Ġre vel
pp e
ĠE ff
Ġqu o
Ġtw isted
oy a
Ġend omet
Ġdem ocr
ik o
ĠEx c
Ġdoct rines
Ġlog ged
Ġsil ica
des igned
Ġtract s
Ġspan ning
ĠAst hma
Ġdisag reement
ĠM ec
ĠH appy
ĠR are
Ġ- >
Ġadv ises
10 7
ĠInc ludes
Ġmanif ested
Ġstring ent
Ġsup ers
ĠSher man
ĠTob acco
Ġiv ory
Ġapprent ices
P acific
t ub
Ġa verages
ent iful
Ġst ellar
ay as
ĠB O
ĠW onder
ĠD ave
Ġse ize
ong o
Ġco ex
Ġstate wide
Ġair ways
Ġsw ings
EN S
Ġguid eline
Ġsell s
Ġregul ator
she ll
Ġfisher y
ĠCheroke e
- )
Ġh ath
Ġl izards
ĠA V
Ġle ague
ĠK rist
Ġart ific
Ġsl ender
Ġkey words
Ġ186 6
IM E
Pr inc
S ex
c ock
g un
p ersonal
Ġen lightenment
ĠY emen
Ġtem plates
Ġheart beat
Ġinvest or
ĠSm oking
Te chnology
Ġcongress ional
ĠKid ney
ĠTheod ore
ĠGon z
J ud
Ġp ores
Ġst a
ĠH erald
Ġsp ills
Ġ7 50
orn ed
Ġsuper v
abet ics
Ġautom obiles
Ġpregn ancies
rec ogn
Ġinsect icide
Ġtheore tically
ĠOrig inal
Ġmunicip ality
in ational
ĠS ultan
ĠP iet
Ġwe aving
ĠR C
ĠG ol
[...]
