{"<pad>":0,"<s>":1,"</s>":2,"<unk>":3,"!":4,"\"":5,"#":6,"$":7,"%":8,"&":9,"'":10,"(":11,")":12,"*":13,"+":14,",":15,"-":16,".":17,"/":18,"0":19,"1":20,"2":21,"3":22,"4":23,"5":24,"6":25,"7":26,"8":27,"9":28,":":29,";":30,"<":31,"=":32,">":33,"?":34,"@":35,"A":36,"B":37,"C":38,"D":39,"E":40,"F":41,"G":42,"H":43,"I":44,"J":45,"K":46,"L":47,"M":48,"N":49,"O":50,"P":51,"Q":52,"R":53,"S":54,"T":55,"U":56,"V":57,"W":58,"X":59,"Y":60,"Z":61,"[":62,"\\":63,"]":64,"^":65,"_":66,"`":67,"a":68,"b":69,"c":70,"d":71,"e":72,"f":73,"g":74,"h":75,"i":76,"j":77,"k":78,"l":79,"m":80,"n":81,"o":82,"p":83,"q":84,"r":85,"s":86,"t":87,"u":88,"v":89,"w":90,"x":91,"y":92,"z":93,"{":94,"|":95,"}":96,"~":97,"¡":98,"¢":99,"£":100,"¤":101,"¥":102,"¦":103,"§":104,"¨":105,"©":106,"ª":107,"«":108,"¬":109,"®":110,"¯":111,"°":112,"±":113,"²":114,"³":115,"´":116,"µ":117,"¶":118,"·":119,"¸":120,"¹":121,"º":122,"»":123,"¼":124,"½":125,"¾":126,"¿":127,"À":128,"Á":129,"Â":130,"Ã":131,"Ä":132,"Å":133,"Æ":134,"Ç":135,"È":136,"É":137,"Ê":138,"Ë":139,"Ì":140,"Í":141,"Î":142,"Ï":143,"Ð":144,"Ñ":145,"Ò":146,"Ó":147,"Ô":148,"Õ":149,"Ö":150,"×":151,"Ø":152,"Ù":153,"Ú":154,"Û":155,"Ü":156,"Ý":157,"Þ":158,"ß":159,"à":160,"á":161,"â":162,"ã":163,"ä":164,"å":165,"æ":166,"ç":167,"è":168,"é":169,"ê":170,"ë":171,"ì":172,"í":173,"î":174,"ï":175,"ð":176,"ñ":177,"ò":178,"ó":179,"ô":180,"õ":181,"ö":182,"÷":183,"ø":184,"ù":185,"ú":186,"û":187,"ü":188,"ý":189,"þ":190,"ÿ":191,"Ā":192,"ā":193,"Ă":194,"ă":195,"Ą":196,"ą":197,"Ć":198,"ć":199,"Ĉ":200,"ĉ":201,"Ċ":202,"ċ":203,"Č":204,"č":205,"Ď":206,"ď":207,"Đ":208,"đ":209,"Ē":210,"ē":211,"Ĕ":212,"ĕ":213,"Ė":214,"ė":215,"Ę":216,"ę":217,"Ě":218,"ě":219,"Ĝ":220,"ĝ":221,"Ğ":222,"ğ":223,"Ġ":224,"ġ":225,"Ģ":226,"ģ":227,"Ĥ":228,"ĥ":229,"Ħ":230,"ħ":231,"Ĩ":232,"ĩ":233,"Ī":234,"ī":235,"Ĭ":236,"ĭ":237,"Į":238,"į":239,"İ":240,"ı":241,"Ĳ":242,"ĳ":243,"Ĵ":244,"ĵ":245,"Ķ":246,"ķ":247,"ĸ":248,"Ĺ":249,"ĺ":250,"Ļ":251,"ļ":252,"Ľ":253,"ľ":254,"Ŀ":255,"ŀ":256,"Ł":257,"ł":258,"Ń":259,"Ġt":260,"Ġa":261,"he":262,"in":263,"re":264,"Ġthe":265,"on":266,"er":267,"Ġo":268,"at":269,"Ġs":270,"en":271,"Ġc":272,"Ġw":273,"es":274,"is":275,"nd":276,"it":277,"or":278,"Ġp":279,"al":280,"Ġb":281,"ed":282,"an":283,"Ġof":284,"Ġf":285,"ing":286,"Ġin":287,"ou":288,"ar":289,"Ġm":290,"Ġand":291,"Ġto":292,"ic":293,"Ġd":294,"ion":295,"le":296,"ro":297,"as":298,"Ġh":299,"ent":300,"Ġth":301,"ct":302,"Ġe":303,"il":304,"Ġre":305,"om":306,"ve":307,"Ġl":308,"st":309,"Ġn":310,"ly":311,"Ġbe":312,"âĢ":313,"Ġis":314,"ĠT":315,"se":316,"ol":317,"Ġg":318,"ation":319,"im":320,"id":321,"et":322,"ut":323,"ce":324,"ot":325,"ur":326,"ch":327,"ra":328,"ow":329,"ĠA":330,"Ġfor":331,"ig":332,"Ġu":333,"Ġthat":334,"Ġon":335,"ĠS":336,"Ġst":337,"ver":338,"Ġy":339,"ĠC":340,"ĠI":341,"ir":342,"ul":343,"ay":344,"am":345,"Ġas":346,"ith":347,"el":348,"ad":349,"Ġpro":350,"her":351,"Ġare":352,"Ġcon":353,"Ġan":354,"Ġwith":355,"if":356,"Ġyou":357,"Ġwh":358,"Ġit":359,"Ġor":360,"Ġal":361,"ter":362,"od":363,"ĠM":364,"ĠThe":365,"Ġ(":366,"ment":367,"ge":368,"ĠP":369,"th":370,"Ġ1":371,"op":372,"ate":373,"ist":374,"ers":375,"Ġde":376,"ill":377,"ies":378,"Ġhe":379,"ess":380,"ab":381,"ĠB":382,"Ġex":383,"us":384,"Ġwe":385,"ore":386,"ect":387,"Ġsu":388,"Ġcom":389,"âĢĻ":390,"ity":391,"est":392,"ac":393,"res":394,"ive":395,"Ġha":396,"um":397,"ld":398,"ĠH":399,"rom":400,"Ġv":401,"os":402,"ke":403,"Ġby":404,"em":405,"ant":406,"qu":407,"iv":408,"ain":409,"ĠW":410,"nt":411,"Ġat":412,"pp":413,"igh":414,"Ġwas":415,"Ġcan":416,"ĠD":417,"ud":418,"Ġfrom":419,"Ġch":420,"ĠE":421,"oc":422,"and":423,"Ġr":424,"ĠR":425,"ort":426,"Ġne":427,"ĠF":428,"Ġse":429,"ial":430,"Ġ2":431,"ure":432,"ĠâĢ":433,"Ġnot":434,"un":435,"Ġle":436,"art":437,"ical":438,"ĠG":439,"ĠN":440,"Ġhave":441,"ri":442,"og":443,"ĠL":444,"Ġsh":445,"Ġen":446,"Ġsp":447,"Ġthis":448,"ight":449,"Ġab":450,"pt":451,"rou":452,"ich":453,"Ġwor":454,"red":455,"all":456,"ther":457,"00":458,"ould":459,"ions":460,"gh":461,"ost":462,"The":463,"ome":464,"our":465,"du":466,"Ġim":467,"ated":468,"Ġus":469,"ine":470,"per":471,"Ġpl":472,"out":473,"ard":474,"ag":475,"Ġtheir":476,"ide":477,"ell":478,"act":479,"ff":480,"Ġint":481,"ĠO":482,"ans":483,"pl":484,"ast":485,"ear":486,"age":487,"ak":488,"ust":489,"Ġwhich":490,"Ġk":491,"Ġyour":492,"Ġwhe":493,"Ġthey":494,"ec":495,"ĠJ":496,"ous":497,"iz":498,"ĠU":499,"ood":500,"Ġall":501,"Ġad":502,"ib":503,"Ġwill":504,"ult":505,"Ġcont":506,"ĠIn":507,"Ġinc":508,"end":509,"cc":510,"ru":511,"Ġdis":512,"Ġmore":513,"âĢĿ":514,"ong":515,"ap":516,"Ġcomp":517,"ip":518,"Ġres":519,"ia":520,"ew":521,"vel":522,"ations":523,"Ġhas":524,"ere":525,"so":526,"Ġdo":527,"orm":528,"ater":529,"ary":530,"ĠTh":531,"ild":532,"ence":533,"are":534,"able":535,"Ġother":536,"Ġman":537,"ual":538,"Ġcl":539,"ks":540,"Ġbut":541,"Ġwere":542,"ry":543,"ind":544,"Ġte":545,"ents":546,"Ġper":547,"ĠâĢľ":548,"ep":549,"Ġme":550,"Ġone":551,"ach":552,"Ġimp":553,"Ġalso":554,"ance":555,"'s":556,"reat":557,"ose":558,"ign":559,"ake":560,"ass":561,"ress":562,"ase":563,"au":564,"Ġso":565,"av":566,"Ġ19":567,"ction":568,"Ġj":569,"ition":570,"Ġout":571,"ice":572,"Ġapp":573,"Ġun":574,"one":575,"very":576,"ime":577,"Ġar":578,"ber":579,"Ġpart":580,"Ġabout":581,"Ġstud":582,"ace":583,"Ġev":584,"ord":585,"ory":586,"ens":587,"ok":588,"Ġwho":589,"ĠSt":590,"ish":591,"ount":592,"ack":593,"ame":594,"ire":595,"Ġpe":596,").":597,"Ġinf":598,"Ġhis":599,"Ġsy":600,"Ġthem":601,"ue":602,"Ġcomm":603,"ub":604,"ors":605,"ite":606,"Ġsc":607,"ces":608,"ang":609,"ike":610,"ĠK":611,"ree":612,"now":613,"ound":614,"olog":615,"low":616,"Ġbec":617,"Ġup":618,"ĠIt":619,"Ġpre":620,"Ġ\"":621,"Ġthan":622,"Ġmay":623,"ie":624,"ric":625,"Ġqu":626,"ile":627,"iff":628,"Ġsome":629,"ople":630,"ĠCh":631,"ays":632,"Ġyear":633,"Ġrec":634,"ian":635,"Ġthere":636,"ail":637,"ates":638,"Ġwhen":639,"Ġbeen":640,"nder":641,"ings":642,"ough":643,"Ġits":644,"mer":645,"Ġgo":646,"Ġinto":647,"Ġag":648,"ren":649,"Ġtime":650,"Ġtra":651,"ph":652,"te":653,"vers":654,"Ġwork":655,"ĠThis":656,"Ġthese":657,"rit":658,"ons":659,"erv":660,"Ġover":661,"Ġ20":662,"Ġpeople":663,"Ġdiff":664,"rough":665,"ally":666,"Ġhow":667,"ĠV":668,"lud":669,"ause":670,"Ġcons":671,"Ġuse":672,"Ġro":673,"ond":674,"tern":675,"Ġour":676,"Ġtr":677,"Ġra":678,"ms":679,"ll":680,"ove":681,"Ġhad":682,"Ġcol":683,"ific":684,"Ġact":685,"Ġ3":686,"Ġbet":687,"we":688,"Ġmost":689,"int":690,"Ġknow":691,"Ġunder":692,"Ġlike":693,"ities":694,"ys":695,"lic":696,"irst":697,"ments":698,"alth":699,"lect":700,"ject":701,"Ġsa":702,"Ġdes":703,"ning":704,"Ġwould":705,"Ġbl":706,"ious":707,"ook":708,"les":709,"Ġacc":710,"row":711,"ĠY":712,"velop":713,"stem":714,"Ġtw":715,"Ġneed":716,"Ġsuch":717,"Ġnew":718,"Ġrel":719,"ffect":720,"Ġif":721,"Ġrep":722,"Ġchild":723,"Ġany":724,"ient":725,"Ġgen":726,"ational":727,"Ġinclud":728,"ob":729,"Ġhel":730,"cess":731,"ative":732,"Ġwhat":733,"ple":734,"ular":735,"hed":736,"yp":737,"Ġhelp":738,"Ġused":739,"ced":740,"Ġonly":741,"ool":742,"ating":743,"Ġph":744,"Ġpr":745,"Ġprodu":746,"Ġno":747,"Ġprov":748,"Ġind":749,"ov":750,"Ġmany":751,"Ġam":752,"Ġdevelop":753,"),":754,"Ġthrough":755,"Ġoff":756,"Ġfirst":757,"Ġspec":758,"ĠUn":759,"Ġfe":760,"fter":761,"oss":762,"ics":763,"round":764,"ark":765,"Ġreg":766,"ise":767,"ath":768,"uc":769,"Ġpo":770,"Ġdi":771,"Ġac":772,"eth":773,"Ġexp":774,"hen":775,"Ġem":776,"rib":777,"ful":778,"erm":779,"uring":780,"Ġtwo":781,"ts":782,"Ġsystem":783,"oth":784,"ink":785,"Ġdiffere":786,"iss":787,"ne":788,"old":789,"Ġob":790,"ility":791,"Ġass":792,"als":793,"ible":794,"Ġdec":795,"rop":796,"Ġatt":797,"ased":798,"Ġadd":799,"ten":800,"Ġsur":801,"ĠâĢĵ":802,"ange":803,"ife":804,"Ġ-":805,"Ġshould":806,"ĠHe":807,"ert":808,"ures":809,"ower":810,"fore":811,"aw":812,"In":813,"arch":814,"ble":815,"Ġwell":816,"ram":817,"Ġfl":818,"Ġwater":819,"ween":820,"ng":821,"ract":822,"Ġsupp":823,"Ġrem":824,"Ġyears":825,"Ġinv":826,"Ġsub":827,"Ġ201":828,"own":829,"sel":830,"Ġco":831,"ade":832,"gan":833,"ied":834,"Ġ200":835,"Ġsm":836,"Ġbetween":837,"ution":838,"Ġhealth":839,"hes":840,"Ġ4":841,"Ġcould":842,"Ġhigh":843,"its":844,"Ġpres":845,"cy":846,"Ġwhere":847,"ever":848,"ick":849,"Ġtrans":850,"ily":851,"Ġmake":852,"uch":853,"wn":854,"xt":855,"Ġget":856,"Ġ5":857,"chool":858,"ants":859,"chn":860,"ology":861,"ss":862,"Ġbu":863,"Ġpers":864,"form":865,"Ġimport":866,"Ġher":867,"ience":868,"Ġrese":869,"ural":870,"ident":871,"Ġinter":872,"Ġear":873,"ited":874,"ting":875,"Ġform":876,"meric":877,"Ġmod":878,"Ġinst":879,"Ġpol":880,"Ġdisc":881,"Ġnum":882,"iet":883,"land":884,"Ġexam":885,"ines":886,"ins":887,"ont":888,"Ġfound":889,"Ġlear":890,"ict":891,"ef":892,"Ġdifferent":893,"Ġbecause":894,"ists":895,"gy":896,"hat":897,"ually":898,"Ġafter":899,"Ġsim":900,"Ġthen":901,"Ġlar":902,"ness":903,"ata":904,"Ġcar":905,"Ġexper":906,"Ġlong":907,"Ġeven":908,"Ġeffect":909,"Ġworld":910,"Ġvery":911,"Ġjust":912,"ft":913,"Ġmed":914,"Ġhum":915,"Ġcent":916,"Ġway":917,"cept":918,"Ġinform":919,"Ġincre":920,"urn":921,"ature":922,"Ġdet":923,"oy":924,"ism":925,"Ġtyp":926,"other":927,"Ġed":928,"get":929,"aking":930,"Ġsee":931,"Ġ18":932,"Ġcount":933,"Ġresp":934,"ically":935,"ĠAmeric":936,"ivers":937,"Ġref":938,"ives":939,"vent":940,"Ġke":941,"Ġthose":942,"ollow":943,"Ġsign":944,"Ġgener":945,"Ġvar":946,"iew":947,"Ġprog":948,"cer":949,"Ġchildren":950,"Ġevery":951,"Ġpat":952,"Ġext":953,"Ġcall":954,"Ġpub":955,"Ġsaid":956,"Ġprocess":957,"omm":958,"Ġresult":959,"Ġbeing":960,"arm":961,"ck":962,"Ġeach":963,"led":964,"Ġfact":965,"ds":966,"ps":967,"Ġsoc":968,"ues":969,"Ġloc":970,"ases":971,"Ġsec":972,".âĢĿ":973,"iron":974,"Ġpartic":975,"tle":976,"Ġca":977,"Ġtechn":978,"Ġset":979,"Ġgra":980,"ruct":981,"ody":982,"ork":983,"Ġimportant":984,"Ġlife":985,"Th":986,"ages":987,"Ġrequ":988,"Ġdist":989,"ĠAl":990,"Ġmy":991,"Ġmuch":992,"ĠWe":993,"Ġcommun":994,"Ġshe":995,"Ġcre":996,"..":997,"Ġfam":998,"Ġmon":999,"vern":1000,"ĠPro":1001,"ather":1002,"Ġdep":1003,"Ġart":1004,"Ġstudents":1005,"Ġdef":1006,"Ġinformation":1007,"cent":1008,"ved":1009,"Ġfollow":1010,"Ġent":1011,"Ġfood":1012,"ized":1013,"imes":1014,"Ġduring":1015,"Ġown":1016,"ward":1017,"Ġread":1018,"Ġright":1019,"ĠThey":1020,"ices":1021,"Ġlevel":1022,"ĠAs":1023,"Ġsame":1024,"Ġmade":1025,"Ġlead":1026,"gg":1027,"Ġsk":1028,"Ġdoes":1029,"ĠRe":1030,"ection":1031,"Ġaut":1032,"any":1033,"Ġstudy":1034,"ize":1035,"hip":1036,"Ġperson":1037,"Ġfind":1038,"Ġproble":1039,"Ġgrow":1040,"the":1041,"Ġcur":1042,"io":1043,"Ġ6":1044,"Ġav":1045,"ĠIf":1046,"Ġdata":1047,"Ġschool":1048,"Ġmin":1049,"Ġback":1050,"Ġend":1051,"Ġgood":1052,"ted":1053,"Ġstr":1054,"Ġche":1055,"Ġins":1056,"Ġboth":1057,"ale":1058,"ĠAn":1059,"und":1060,"ĠFor":1061,"onom":1062,"viron":1063,"Ġpop":1064,"Ġusing":1065,"Ġgrou":1066,"Ġbefore":1067,"omen":1068,"Ġcomple":1069,"ality":1070,"Ġshow":1071,"Ġsmall":1072,"Ġexpl":1073,"Ġhist":1074,"stand":1075,"Ġgl":1076,"ĠAr":1077,"ially":1078,"Ġcor":1079,".,":1080,"ivid":1081,"read":1082,"ars":1083,"Ġtest":1084,"Ġagain":1085,"ty":1086,"19":1087,"Ġtreat":1088,"ince":1089,"Ġoften":1090,"Ġmain":1091,"Ġprot":1092,"iel":1093,"inal":1094,"ined":1095,"ĠHow":1096,"ock":1097,"Ġbo":1098,"rol":1099,"ergy":1100,"nce":1101,"Ġless":1102,"20":1103,"Ġsol":1104,"der":1105,"Ġbr":1106,"Ġposs":1107,"Ġwhile":1108,"Ġval":1109,"imate":1110,"ute":1111,"ix":1112,"000":1113,"Ġday":1114,"||":1115,"ished":1116,"ex":1117,"Ġtake":1118,"Ġdise":1119,"Ġstate":1120,"Ġlit":1121,"akes":1122,"Ġcell":1123,"Ġnow":1124,"ĠSp":1125,"Ġhim":1126,"ax":1127,"ĠInd":1128,"ĠNew":1129,"ien":1130,"Ġocc":1131,"Ġnumber":1132,"oh":1133,"Ġmem":1134,"Ġhuman":1135,"Ġris":1136,"vironment":1137,"ral":1138,"Ġserv":1139,"irect":1140,"Ġpower":1141,"ulation":1142,"Ġec":1143,"ier":1144,"Ġvis":1145,"ides":1146,"Ġbody":1147,"Ġorgan":1148,"Ġresearch":1149,"dition":1150,"iqu":1151,"Ġfun":1152,"ury":1153,"Ġactiv":1154,"Ġdesign":1155,"Ġchar":1156,"iety":1157,"up":1158,"iversity":1159,"air":1160,"ered":1161,"iving":1162,"Ġ10":1163,"ĠSc":1164,"Ġaround":1165,"Ġbel":1166,"Ġmust":1167,"Ġhand":1168,"Ġthree":1169,"Ġclass":1170,"Ġdown":1171,"ah":1172,"Ġsupport":1173,"ves":1174,"Ġredu":1175,"uss":1176,"Ġlook":1177,"ters":1178,"Ġconf":1179,"Ġcommon":1180,"ven":1181,"hers":1182,"ger":1183,"Ġstart":1184,"Ġest":1185,"ave":1186,"day":1187,"Ġpoint":1188,"ital":1189,"Ġcle":1190,"Ġgreat":1191,"ium":1192,"Ġgovern":1193,"rent":1194,"Ġelect":1195,"Ġplan":1196,"Ġdid":1197,"ouse":1198,"This":1199,"ains":1200,"aj":1201,"Ġser":1202,"Ġ7":1203,"ving":1204,"âĢĶ":1205,"ĠBut":1206,"Ġlarge":1207,"self":1208,"Ġland":1209,"Ġexample":1210,"ross":1211,"acter":1212,"rain":1213,"gen":1214,"cl":1215,"Ġcontin":1216,"ron":1217,"Ġcare":1218,"Ġreport":1219,"Ġ8":1220,"Ġallow":1221,"ĠYou":1222,"ee":1223,"Ġincluding":1224,"Ġop":1225,"itions":1226,"com":1227,",âĢĿ":1228,"Ġthough":1229,"Ġconst":1230,"ional":1231,"ull":1232,"ared":1233,"orn":1234,"Ġcour":1235,"Ġunderstand":1236,"ĠThere":1237,"eg":1238,"way":1239,"ash":1240,"anc":1241,"Ġmet":1242,"Ġbuild":1243,"Ġeduc":1244,"Ġequ":1245,"Ġsom":1246,"Ġret":1247,"Ġcalled":1248,"Ġwrit":1249,"Ġadv":1250,"Ġpract":1251,"Ġdr":1252,"ner":1253,"iven":1254,"Ġbeh":1255,"Ġstill":1256,"outh":1257,"aterial":1258,"ĠAnd":1259,"els":1260,"Ġknown":1261,"ividual":1262,"Ġpublic":1263,"Ġquest":1264,"iver":1265,"Ġthink":1266,"Ġeas":1267,"reen":1268,"Ġide":1269,"erest":1270,"Ġgu":1271,"ired":1272,"inc":1273,"Ġplace":1274,"ĠâĢĺ":1275,"ids":1276,"Ġfew":1277,"osed":1278,"10":1279,"oci":1280,"Ġappro":1281,"âĢľ":1282,".\"":1283,"iod":1284,"oms":1285,"ential":1286,"ider":1287,"Ġmat":1288,"ected":1289,"ĠIs":1290,"Ġmight":1291,"ination":1292,"ries":1293,"de":1294,"ources":1295,"Ġenergy":1296,"ization":1297,"itive":1298,"Ġ9":1299,"âĢĵ":1300,"Ġpresent":1301,"Ġenvironment":1302,"ĠWh":1303,"Ġstand":1304,"ration":1305,"Ġchang":1306,"ĠThese":1307,"Ġwant":1308,"bers":1309,"ense":1310,"oun":1311,"ets":1312,"Ġdem":1313,"lish":1314,"ank":1315,"Ġcaus":1316,"ior":1317,"ethod":1318,"raph":1319,"eng":1320,"ason":1321,"Ġwithout":1322,"Ġproduct":1323,"Ġwithin":1324,"Ġtem":1325,"Ġindividual":1326,"Ġplay":1327,"Ġchange":1328,"Ġpur":1329,"me":1330,"Ġiss":1331,"ived":1332,"ording":1333,"ertain":1334,"Ġdevelopment":1335,"tt":1336,"ption":1337,"Ġphys":1338,"ffic":1339,"ĠEng":1340,"Ġdon":1341,"Ġ199":1342,"Ġsym":1343,"Ġlearn":1344,"ĠUniversity":1345,"Ġimm":1346,"angu":1347,"Ġmaterial":1348,"Ġident":1349,"arent":1350,"esp":1351,"Ġproject":1352,"eral":1353,"Ġwomen":1354,"line":1355,"Ġimpro":1356,"alk":1357,"Ġdirect":1358,"ĠDe":1359,"ians":1360,"Ġdisease":1361,"Ġben":1362,"less":1363,"Ġcap":1364,"Ġsit":1365,"man":1366,"Ġlight":1367,"ĠAmerican":1368,"Ġ&":1369,"Ġpot":1370,"Ġair":1371,"Ġprof":1372,"Ġpass":1373,"Ġanother":1374,"Ġarea":1375,"Ġpos":1376,"Ġve":1377,"orth":1378,"Ġbre":1379,"agn":1380,"illion":1381,"Ġlaw":1382,"ability":1383,"Ġmus":1384,"ĠCon":1385,"Ġsl":1386,"sc":1387,"Ġhome":1388,"Ġsocial":1389,"iness":1390,"ological":1391,"Ġbelie":1392,"ental":1393,"Ġinclude":1394,"Ġinterest":1395,"ton":1396,"Ġeng":1397,"Ġbest":1398,"pr":1399,"ified":1400,"Ġmeas":1401,"Ġbas":1402,"ajor":1403,"bs":1404,"Ġpain":1405,"Ġdesc":1406,"rodu":1407,"ats":1408,"Ġcult":1409,"Ġblood":1410,"ield":1411,"Ġcontrol":1412,"erc":1413,"ug":1414,"It":1415,"ify":1416,"Ġrisk":1417,"Ġant":1418,"atic":1419,"ained":1420,"atural":1421,"'t":1422,"Ġrest":1423,"ering":1424,"ently":1425,"ccess":1426,"Ġet":1427,"Ġbecome":1428,"Ġmark":1429,"Ġmethod":1430,"Ġopp":1431,"Ġanim":1432,"Ġanal":1433,"az":1434,"ways":1435,"Ġold":1436,"Ġsever":1437,"Ġprogram":1438,"Ġhere":1439,"ĠAd":1440,"Ġlow":1441,"Ġbetter":1442,"Ġmil":1443,"ĠPh":1444,"Ġgovernment":1445,"ision":1446,"Ġpar":1447,"ik":1448,"Ġmove":1449,"gin":1450,"hor":1451,"ource":1452,"ĠHowever":1453,"Ġearly":1454,"to":1455,"Ġproper":1456,"lished":1457,"rist":1458,"Ġagainst":1459,"str":1460,"Ġleg":1461,"Ġwar":1462,"ining":1463,"Ġeconom":1464,"ills":1465,"here":1466,"ern":1467,"arc":1468,"Ġele":1469,"Ġkeep":1470,"ĠSh":1471,"Ġtoo":1472,"rap":1473,"Ġorder":1474,"eed":1475,"Ġreal":1476,"Ġprovide":1477,"Ġfore":1478,"Ġsecond":1479,"ead":1480,"Ġfamily":1481,"Ġlast":1482,"icle":1483,"ware":1484,"ission":1485,"ories":1486,"Ġmeans":1487,"Ġcause":1488,"Ġavail":1489,"Ġtre":1490,"Ġgroup":1491,"Ġoper":1492,"Ġhistory":1493,"ention":1494,"Ġter":1495,"ards":1496,"Ġparticular":1497,"Ġpossible":1498,"Ġoccur":1499,"Ġmajor":1500,"use":1501,"ients":1502,"amp":1503,"Ġdev":1504,"Ġunt":1505,"ĠRes":1506,"Ġcurrent":1507,"Ġperform":1508,"Ġtop":1509,"ĠWhen":1510,"ples":1511,"lu":1512,"ĠUnited":1513,"Ġseveral":1514,"Ġsay":1515,"Ġfin":1516,"ĠCl":1517,"Ġspecies":1518,"Ġlearning":1519,"view":1520,"Ġindu":1521,"ised":1522,"Ġaddition":1523,"Ġinvol":1524,"Ġperiod":1525,"ĠâĢĶ":1526,"pect":1527,"ĠEx":1528,"Ġsaf":1529,"ote":1530,"ograph":1531,"Ġable":1532,"oid":1533,"Ġmean":1534,"irc":1535,"Ġnear":1536,"Ġorig":1537,"par":1538,"Ġpercent":1539,"Ġlangu":1540,"Ġbenef":1541,"ĠCol":1542,"Ġmen":1543,"Ġhig":1544,"idence":1545,"Ġ15":1546,"Ġcal":1547,"ogn":1548,"Ġopen":1549,"ina":1550,"Ġmar":1551,"Ġthings":1552,"Ġel":1553,"Ġhapp":1554,"ret":1555,"ĠPl":1556,"Ġprom":1557,"Ġcr":1558,"Ġsince":1559,"Ġlim":1560,"Ġfeel":1561,"Ġnon":1562,"Ġ[":1563,"Ġaffect":1564,"ĠCan":1565,"What":1566,"Ġbus":1567,"Ġothers":1568,"ĠGod":1569,"Ġareas":1570,"ane":1571,"though":1572,"Ġscient":1573,"br":1574,"Ġsignific":1575,"ĠTo":1576,"ator":1577,"Ġamong":1578,"Ġcost":1579,"Ġtreatment":1580,"Ġfre":1581,"ĠZ":1582,"sy":1583,"Ġplant":1584,"ilar":1585,"urop":1586,"Ġbased":1587,"port":1588,"Ġavailable":1589,"ww":1590,"ended":1591,"Ġfollowing":1592,"Ġ.":1593,"ĠSe":1594,"ames":1595,"Ġtimes":1596,"ole":1597,"Ġname":1598,"ends":1599,"Ġfac":1600,"Ġsays":1601,"osp":1602,"Ġhead":1603,"ĠComm":1604,"Ġcountry":1605,"of":1606,"ĠStates":1607,"ots":1608,"ĠQ":1609,"Ġfour":1610,"Ġcertain":1611,"ably":1612,"ling":1613,"Ġaccess":1614,"omp":1615,"Ġprevent":1616,",\"":1617,"ĠAt":1618,"ocus":1619,"Ġfree":1620,"Ġcase":1621,"Ġrun":1622,"elf":1623,"cing":1624,"Ġcome":1625,"Ġobject":1626,"urther":1627,"Ġwee":1628,"Ġcond":1629,"Ġlo":1630,"Ġage":1631,"ances":1632,"Ġview":1633,"Ġgr":1634,"Ġpost":1635,"une":1636,"Ġdel":1637,"Ġconn":1638,"ided":1639,"Ġstruct":1640,"ox":1641,"Ġproblem":1642,"Ġ17":1643,"be":1644,"Ġlist":1645,"ploy":1646,"Ġbi":1647,"Ġtype":1648,"Ġcells":1649,"ression":1650,"Ġcreat":1651,"Ġlocal":1652,"We":1653,"Ġlab":1654,"Ġnatural":1655,"Ġmonth":1656,"hy":1657,"Ġrece":1658,"ope":1659,"Ġput":1660,"Ġintern":1661,"Ġlittle":1662,"Ġsuccess":1663,"resent":1664,"Ġpress":1665,"stit":1666,"Ġbro":1667,"ones":1668,"Ġproblems":1669,"urope":1670,"oint":1671,"ĠEn":1672,"Ġbir":1673,"Ġvol":1674,"ĠCent":1675,"Ġhard":1676,"Ġyoung":1677,"Ġlevels":1678,"ething":1679,"aper":1680,"icult":1681,"olution":1682,"Ġassoci":1683,"ggest":1684,"If":1685,"Ġuntil":1686,"Ġamount":1687,"Ġfar":1688,"ĠTe":1689,"Ġflow":1690,"Ġlet":1691,"Ġmaking":1692,"ledge":1693,"Ġ12":1694,"work":1695,"Ġlater":1696,"Ġbook":1697,"ĠChrist":1698,"por":1699,"ĠNational":1700,"ately":1701,"hem":1702,"not":1703,"Ġimpact":1704,"__":1705,"ither":1706,"Ġess":1707,"Ġgiven":1708,"Ġmult":1709,"ortun":1710,"Ġturn":1711,"ged":1712,"oks":1713,"Ġseem":1714,"Ġsignificant":1715,"Ġcho":1716,"uture":1717,"Ġheart":1718,"over":1719,"ication":1720,"Ġshort":1721,"Ġsuggest":1722,"Ġdeterm":1723,"Ġfocus":1724,"atory":1725,"Ġbehav":1726,"Ġsw":1727,"12":1728,"Ġcomput":1729,"ĠBe":1730,"ured":1731,"ĠAf":1732,"Ġdue":1733,"18":1734,"ĠOr":1735,"aken":1736,"cle":1737,"aps":1738,"ĠEurope":1739,"Ġfunction":1740,"Ġalong":1741,"Ġvir":1742,"Ġsomething":1743,"agement":1744,"icro":1745,"Ġcirc":1746,"Ġdays":1747,"Ġpolit":1748,"Ġcourse":1749,"Ġeducation":1750,"Ġinvest":1751,"Ġrad":1752,"Ġlikely":1753,"ĠFr":1754,"Ġalways":1755,"Ġcomb":1756,"orld":1757,"face":1758,"ried":1759,"Ġfil":1760,"Ġteac":1761,"vious":1762,"Ġsystems":1763,"ĠOn":1764,"ĠAll":1765,"Ġconsider":1766,"Ġhy":1767,"Ġappear":1768,"Ġsing":1769,"ĠWhat":1770,"Ġcommunity":1771,"Ġdra":1772,"Ġusually":1773,"ending":1774,"Ġincrease":1775,"Ġclear":1776,"Ġ0":1777,"Ġpast":1778,"Ġtechnology":1779,"Ġwords":1780,"isc":1781,"ecially":1782,"ours":1783,"ĠUS":1784,"Ġlanguage":1785,"Ġ$":1786,"Ġobs":1787,"Ġgive":1788,"Ġbrain":1789,"Ġcreate":1790,"Ġresults":1791,"As":1792,"ring":1793,"aster":1794,"Ġparent":1795,"Ġspecific":1796,"Ġspace":1797,"Ġtoday":1798,"Ġconsum":1799,"Ġrele":1800,"Ġdeath":1801,"ohn":1802,"ape":1803,"Ġdifficult":1804,"Ġ16":1805,"Ġenc":1806,"Ġexperience":1807,"Ġcancer":1808,"There":1809,"Ġdescrib":1810,"etic":1811,"Ġauthor":1812,"Ġpopulation":1813,"Ġcentury":1814,"Ġline":1815,"asing":1816,"ned":1817,"Ġsimilar":1818,"ĠMed":1819,"Ġneeds":1820,"min":1821,"app":1822,"Ġexist":1823,"Ġabove":1824,"Ġmillion":1825,"Ġwhy":1826,"Ġey":1827,"ember":1828,"ively":1829,"af":1830,"Ġdiscuss":1831,"idd":1832,"ĠSo":1833,"Ġcharacter":1834,"obal":1835,"especially":1836,"Ġrecord":1837,"Ġtemper":1838,"ators":1839,"Ġconditions":1840,"11":1841,"Ġnext":1842,"Ġspecial":1843,"ptoms":1844,"aining":1845,"ribut":1846,"How":1847,"Ġill":1848,"50":1849,"ored":1850,"ruction":1851,"Ġbegin":1852,"Ġmov":1853,"Ġfuture":1854,"Ġapplic":1855,"mit":1856,"Ġnecess":1857,"most":1858,"Ġvarious":1859,"Ġgre":1860,"Ġ'":1861,"iation":1862,"Ġask":1863,"Ġchanges":1864,"ĠEar":1865,"ler":1866,"Ġside":1867,"ique":1868,"Ġleast":1869,"Ġprop":1870,"Ġer":1871,"Ġhowever":1872,"St":1873,"ĠBl":1874,"rug":1875,"Ġhigher":1876,"Ġtoget":1877,"Ġtogether":1878,"atch":1879,"ilities":1880,"Ġacross":1881,"ĠBrit":1882,"ray":1883,"Ġnever":1884,"Ġdam":1885,"Ġestab":1886,"Ġrespons":1887,"oney":1888,"Ġprofess":1889,"Ġcrit":1890,"Ġtry":1891,"selves":1892,"Ġstrong":1893,"aves":1894,"ateg":1895,"Ġkind":1896,"by":1897,"Ġrequire":1898,"sp":1899,"Ġleft":1900,"Ġcountries":1901,"ym":1902,"omes":1903,"ode":1904,"Ġworks":1905,"Ġtool":1906,"Ġmot":1907,"orts":1908,"Ġcomplete":1909,"oman":1910,"Ġaway":1911,"ison":1912,"ĠAfric":1913,"Ġimprove":1914,"Ġenough":1915,"Ġbusiness":1916,"Ġways":1917,"Ġworking":1918,"Ġespecially":1919,"thing":1920,"Ġtru":1921,"Ġresearc":1922,"oot":1923,"for":1924,"Ġchem":1925,"Ġkey":1926,"ilt":1927,"nal":1928,"Ġterm":1929,"Ġcolle":1930,"ysis":1931,"Ġplants":1932,"aces":1933,"Ġeffects":1934,"Ġhaving":1935,"Ġgeneral":1936,"alf":1937,"sw":1938,"ument":1939,"aching":1940,"aring":1941,"lement":1942,"NA":1943,"acy":1944,"duct":1945,"Ġteam":1946,"Ġcy":1947,"Ġsubject":1948,"aim":1949,"ĠWar":1950,"Ġfull":1951,"Ġknowledge":1952,"Ġprim":1953,"let":1954,"Ġpatients":1955,"Ġsens":1956,"Ġtypes":1957,"ales":1958,"amm":1959,"Ġnet":1960,"iting":1961,"Ġhouse":1962,"Ġstudies":1963,"Ġstep":1964,"ĠGerm":1965,"Ġcases":1966,"ires":1967,"Ġrepresent":1968,"ges":1969,"ae":1970,"acc":1971,"Ġgoing":1972,"hing":1973,"ipp":1974,"istic":1975,"Ġnorm":1976,"Ġbecame":1977,"Ġrelations":1978,"Ġaccount":1979,"Ġwhether":1980,"ued":1981,"Ġreason":1982,"Ġ198":1983,"ising":1984,"Ġmakes":1985,"Ġz":1986,"Ġmind":1987,"side":1988,"Ġinflu":1989,"Ġphysical":1990,"ĠJohn":1991,"itor":1992,"Ġconcer":1993,"ĠSome":1994,"chie":1995,"Ġlower":1996,"An":1997,"Ġprotect":1998,"ency":1999,"apt":2000,"ann":2001,"Ġsymptoms":2002,"Ġground":2003,"ĠWorld":2004,"ley":2005,"ott":2006,"ification":2007,"For":2008,"Ġfurther":2009,"Ġrole":2010,"Ġquestion":2011,"ready":2012,"Ġself":2013,"Ġopt":2014,"Ġcity":2015,"Ġpolic":2016,"Ġbig":2017,"//":2018,"...":2019,"Ġparticip":2020,"aut":2021,"ĠEnglish":2022,"Ġfund":2023,"ĠGen":2024,"erence":2025,"ery":2026,"Ġsure":2027,"edi":2028,"Ġscience":2029,"Ġsum":2030,"Ġnut":2031,"Ġchall":2032,"30":2033,"ream":2034,"ĠOne":2035,"ables":2036,"lo":2037,"urch":2038,"ung":2039,"ĠWith":2040,"iol":2041,"ird":2042,"Ġtext":2043,"ĠLe":2044,"ĠGo":2045,"atures":2046,"Ġactivities":2047,"Ġstat":2048,"Ġdig":2049,"unt":2050,"Ġindic":2051,"Ġgroups":2052,"200":2053,"Ġeff":2054,"Ġproduction":2055,"Ġstory":2056,"Ġ30":2057,"Ġpred":2058,"ibility":2059,"15":2060,"Ġtoward":2061,"Ġens":2062,"Ġlive":2063,"augh":2064,"Ġvalue":2065,"ites":2066,"Ġseen":2067,"ules":2068,"Ġactivity":2069,"Ġrange":2070,"bon":2071,"Ġproducts":2072,"rel":2073,"Ġloss":2074,"Ġresources":2075,"etimes":2076,"mber":2077,"://":2078,"Ġclose":2079,"ĠThat":2080,"ĠIntern":2081,"Ġbelow":2082,"Ġlot":2083,"Ġalready":2084,"Ġword":2085,"verage":2086,"Ġwr":2087,"uation":2088,"Ġdone":2089,"Ġgrowth":2090,"sych":2091,"Ġrather":2092,"Ġreally":2093,"Ġmodel":2094,"ĠCar":2095,"Ġpotential":2096,"Ġprob":2097,"Ġemploy":2098,"Ġsite":2099,"Ġquality":2100,"oura":2101,"16":2102,"esc":2103,"Ġdeveloped":2104,"Ġoffic":2105,"Ġeither":2106,"osis":2107,"Ġ14":2108,"Ġrecogn":2109,"Ġwind":2110,"ands":2111,"Ġneg":2112,"Ġarticle":2113,"overed":2114,"ĠMar":2115,"ĠHealth":2116,"Ġtradition":2117,"Ġsingle":2118,"fact":2119,"rams":2120,"Ġdeg":2121,"Ġmass":2122,"iple":2123,"urity":2124,"Ġphot":2125,"ĠAm":2126,"Ġbuilding":2127,"put":2128,"Ġevent":2129,"Ġur":2130,"When":2131,"Ġachie":2132,"Ġcollect":2133,"Ġoil":2134,"Ġfall":2135,"Ġflu":2136,"Ġfield":2137,"Ġonce":2138,"Ġbat":2139,"Ġevidence":2140,"Ġskills":2141,"Ġsource":2142,"Ġpaper":2143,"Ġaccording":2144,"Ġinit":2145,"iam":2146,"idered":2147,"Ġissues":2148,"ĠShe":2149,"Ġreduce":2150,"ival":2151,"ER":2152,"Ġindust":2153,"earch":2154,"Ġabs":2155,"Ġwhole":2156,"ĠGe":2157,"ĠDr":2158,"Ġfrequ":2159,"ĠCal":2160,"Ġquestions":2161,"ĠIm":2162,"Ġnational":2163,"val":2164,"ĠTr":2165,"Ġmeet":2166,"17":2167,"Ġfive":2168,"ĠSy":2169,"Ġsurface":2170,"Ġfr":2171,"Ġclimate":2172,"Ġtaken":2173,"Ġrate":2174,"Ġconcept":2175,"Ġmembers":2176,"Ġdrug":2177,"Ġmedical":2178,"ublic":2179,"Ġsun":2180,"ivil":2181,"ĠNorth":2182,"Ġupon":2183,"amin":2184,"Ġnature":2185,"Ġcut":2186,"Ġaddress":2187,"rect":2188,"Ġrelig":2189,"ĠBy":2190,"Ġwhite":2191,"rict":2192,"Ġsent":2193,"eter":2194,"13":2195,"plic":2196,"Ġann":2197,"fficient":2198,"ule":2199,"ĠAb":2200,"Ġred":2201,"Ġdom":2202,"Ġdetail":2203,"Ġcreated":2204,"Ġobserv":2205,"Ġwide":2206,"Ġresearchers":2207,"Ġreturn":2208,"Ġfri":2209,"ights":2210,"Ġconsidered":2211,"Ġliving":2212,"ask":2213,"Ġrecomm":2214,"leep":2215,"ĠAmerica":2216,"ĠSouth":2217,"Ġtot":2218,"Ġcame":2219,"Ġdest":2220,"Ġsoil":2221,"Ġintrodu":2222,"ips":2223,"Ġthemselves":2224,"ety":2225,"14":2226,"ibr":2227,"ĠAss":2228,"Ġcannot":2229,"Ġfail":2230,"ĠPr":2231,"Ġdoct":2232,"fer":2233,"Ġsize":2234,"reme":2235,"Ġhold":2236,"ĠStud":2237,"roll":2238,"Ġassociated":2239,"Ġstress":2240,"Ġtell":2241,"Ġanimals":2242,"Ġver":2243,"Ġprote":2244,"âĢ¦":2245,"ivity":2246,"illed":2247,"Ġsound":2248,"Ġthought":2249,"Ġpolitical":2250,"Ġsimple":2251,"Ġincreased":2252,"ĠMay":2253,"like":2254,"Ġactually":2255,"Ġpressure":2256,"Ġpractice":2257,"eb":2258,"Ġstudent":2259,"sh":2260,"utions":2261,"Ġpay":2262,"Ġmarket":2263,"Ġunderstanding":2264,"Ġopportun":2265,"oon":2266,"org":2267,"sequ":2268,"Ġweek":2269,"Ġadult":2270,"Ġhistor":2271,"Ġlay":2272,"Ġrelated":2273,"Ġrights":2274,"enn":2275,"Ġrequired":2276,"Ġcomplex":2277,"Ġmicro":2278,"Ġability":2279,"ournal":2280,"oph":2281,"epend":2282,"Ġfamil":2283,"iding":2284,"reg":2285,"Ġneeded":2286,"Ġstates":2287,"aced":2288,"Ġskin":2289,"Ġeffective":2290,"ĠRep":2291,"Ġfat":2292,"Ġarg":2293,"yn":2294,"ĠEarth":2295,"ĠMan":2296,"Ġglobal":2297,"ĠAust":2298,"Ġitself":2299,"Ġquick":2300,"Ġentire":2301,"Ġmaterials":2302,"pro":2303,"ĠSoc":2304,"Ġ197":2305,"Ġpublished":2306,"Ġrelationship":2307,"Ġmor":2308,"ober":2309,"Ġcondition":2310,"Ch":2311,"Ġidea":2312,"Ġ13":2313,"ging":2314,"Ġdiet":2315,"Ġsal":2316,"Ġspe":2317,"Ġalmost":2318,"Ġdoc":2319,"itud":2320,"Ġcomes":2321,"Ġengine":2322,"Ġprovides":2323,"Ġmaint":2324,".)":2325,"aging":2326,"Ġhealthy":2327,"ening":2328,"Ġpurp":2329,"olic":2330,"aged":2331,"ai":2332,"ulations":2333,"ĠYork":2334,"erve":2335,"ĠAct":2336,"artment":2337,"Ġexperien":2338,"Ġeconomic":2339,"hib":2340,"ened":2341,"go":2342,"ma":2343,"Ġfish":2344,"Ġport":2345,"ump":2346,"Ġparts":2347,"Ġmodern":2348,"Ġ=":2349,"To":2350,"Ġblack":2351,"ney":2352,"SA":2353,"Ġmanagement":2354,"Ġansw":2355,"Ġmoney":2356,"Ġvers":2357,"Ġexerc":2358,"Ġavoid":2359,"Ġfactors":2360,"Ġassess":2361,"eds":2362,"Al":2363,"acks":2364,"ush":2365,"chan":2366,"Ġhalf":2367,"Ġparents":2368,"Ġhtt":2369,"ĠDep":2370,"itary":2371,"Ġtook":2372,"Ġ|":2373,"lying":2374,"yl":2375,"oses":2376,"ises":2377,"Ġweight":2378,"uel":2379,"Ġnecessary":2380,"vere":2381,"ores":2382,"ences":2383,"Ġsuff":2384,"Ġpath":2385,"ply":2386,"Ġgas":2387,"Ġlink":2388,"Ġreact":2389,"gest":2390,"Ġarch":2391,"Ġdog":2392,"rad":2393,"):":2394,"Ġservices":2395,"utes":2396,"Ġapproach":2397,"Ġbegan":2398,"Ġbar":2399,"apan":2400,"rown":2401,"Ġproduce":2402,"Ġpattern":2403,"Ġcop":2404,"ĠGu":2405,"bo":2406,"Ġpriv":2407,"ĠX":2408,"You":2409,"Ġcat":2410,"Ġmonths":2411,"ĠHist":2412,"Ġsuper":2413,"Ġmeasure":2414,"urs":2415,"Ġgreen":2416,"Wh":2417,"irm":2418,"Ġarr":2419,"Ġclaim":2420,"ĠHis":2421,"ensive":2422,"based":2423,"ume":2424,"Ġsoft":2425,"Ġcoll":2426,"Ġever":2427,"gar":2428,"cient":2429,"Ġyet":2430,"ĠState":2431,"Ġanalysis":2432,"ese":2433,"oll":2434,"Ġjob":2435,"Ġcomputer":2436,"Ġconduct":2437,"Ġtherap":2438,"ĠJew":2439,"nces":2440,"Ġregion":2441,"izing":2442,"ĠNe":2443,"Ġtar":2444,"Ġstop":2445,"Ġsense":2446,"Ġ100":2447,"Ġchemical":2448,"iction":2449,"Ġhours":2450,"Ġthroughout":2451,"Ġaction":2452,"abit":2453,"ĠCont":2454,"hold":2455,"Ġemer":2456,"onse":2457,"ĠComp":2458,"Ġprinc":2459,"Ġpopular":2460,"Ġincreasing":2461,"Ġcolor":2462,"Ġregard":2463,"Ġcalc":2464,"ĠCo":2465,"inter":2466,"ĠEm":2467,"iddle":2468,"Ġsepar":2469,"my":2470,"Ġliter":2471,"Ġreading":2472,"Ġtaking":2473,"Ġge":2474,"ĠDo":2475,"Ġrepl":2476,"Ġ50":2477,"ections":2478,"Ġ196":2479,"usion":2480,"ĠBritish":2481,"empt":2482,"--":2483,"ĠCanad":2484,"abor":2485,"Ġfarm":2486,"Ġmedic":2487,"ches":2488,"ccording":2489,"Ġpersonal":2490,"uck":2491,"Ġfire":2492,"Ġfeed":2493,"Ġut":2494,"ze":2495,"Ġtalk":2496,"pid":2497,"erous":2498,"Ġonline":2499,"Ġindividuals":2500,"Ġbehavior":2501,"Ġcontent":2502,"Ġsam":2503,"ript":2504,"\".":2505,"Ġprevious":2506,"Ġrecent":2507,"het":2508,"icles":2509,"Ġbur":2510,"estern":2511,"Ġshows":2512,"ĠAfter":2513,"Ġlonger":2514,"igure":2515,"Ġbuilt":2516,"asc":2517,"Ġsex":2518,"Ġsix":2519,"Ġinteract":2520,"Ġwriting":2521,"Ġclean":2522,"ows":2523,"Ġtraining":2524,"Ġstructure":2525,"Ġtotal":2526,"emic":2527,"Ġenvironmental":2528,"Ġposition":2529,"Ġindustry":2530,"ederal":2531,"Ġsociety":2532,"ES":2533,"yle":2534,"Ġmatter":2535,"anced":2536,"Ġterms":2537,"Ġcompany":2538,"Ġthing":2539,"Ġconc":2540,"astic":2541,"Ġprovided":2542,"Ġservice":2543,"Ġdisord":2544,"wh":2545,"Ġmeaning":2546,"Ġcheck":2547,"Ġheav":2548,"itation":2549,"minist":2550,"Ġla":2551,"Ġheat":2552,"lor":2553,"Ġsurv":2554,"ĠJapan":2555,"Ġschools":2556,"lands":2557,"Ġinj":2558,"Ġcontact":2559,"Ġbring":2560,"Ġcaused":2561,"Ġetc":2562,"fully":2563,"Ġ25":2564,"Ġsleep":2565,"Ġexperim":2566,"ster":2567,"Ġbreak":2568,"Ġtemperature":2569,"ĠPe":2570,"Ġtravel":2571,"ĠWhile":2572,"Ġtrue":2573,"Ã©":2574,"abet":2575,"Ġlives":2576,"ropri":2577,"Ġcontain":2578,"aff":2579,"ĠSchool":2580,"ricult":2581,"Ġsat":2582,"Ġeasy":2583,"Ġmusic":2584,"reng":2585,"Ġbenefits":2586,"Ġvide":2587,"rought":2588,"Ġce":2589,"Ġcauses":2590,"ns":2591,"Ġmethods":2592,"Ġdesigned":2593,"aily":2594,"Ġdiagn":2595,"Ġviol":2596,"Ġshown":2597,"lt":2598,"ĠResearch":2599,"ronic":2600,"mb":2601,"istance":2602,"Ġincludes":2603,"Ġfru":2604,"inary":2605,"Ġaccept":2606,"son":2607,"ĠII":2608,"atives":2609,"Ġmach":2610,"vey":2611,"Ġvariety":2612,"ID":2613,"ĠInstit":2614,"hood":2615,"ĠNo":2616,"Ġearth":2617,"Ġrev":2618,"Ġsafe":2619,"ister":2620,"mon":2621,"Ġprec":2622,"aries":2623,"ene":2624,"ĠÂ":2625,"AT":2626,"Ġbelieve":2627,"Ġregular":2628,"imately":2629,"ners":2630,"istics":2631,"Ġprograms":2632,"light":2633,"ched":2634,"Ġ11":2635,"Ġfem":2636,"Ġpositive":2637,"arr":2638,"Ġlove":2639,"Ġtarget":2640,"Ġaverage":2641,"Ġsimply":2642,"Ġlif":2643,"Ġbacter":2644,"Ġsometimes":2645,"Ġspread":2646,"aving":2647,"Ġrelative":2648,"rior":2649,"Ġissue":2650,"Ġvari":2651,"amed":2652,"Ġeat":2653,"Ġled":2654,"Ġgreater":2655,"lex":2656,"ĠSu":2657,"AR":2658,"Ġthreat":2659,"dom":2660,"rast":2661,"ufact":2662,"duc":2663,"Ġpoll":2664,"Ġcarbon":2665,"Ġsubst":2666,"Ġmechan":2667,"Ġpage":2668,"Ġstandard":2669,"Ġorigin":2670,"osition":2671,"ades":2672,"Ġuses":2673,"Ġste":2674,"Ġslow":2675,"Ġculture":2676,"Ġwild":2677,"40":2678,"Ġmovement":2679,"Ġoriginal":2680,"new":2681,"aling":2682,"ĠKing":2683,"Ġevents":2684,"Ġreported":2685,"Ġdeep":2686,"Ġrespect":2687,"rench":2688,"Ġscientists":2689,"Ġhelps":2690,"Ġdoing":2691,"Ġsources":2692,"Ġexc":2693,"Ġresponse":2694,"know":2695,"ucle":2696,"Ġface":2697,"cil":2698,"ulate":2699,"ban":2700,"ervation":2701,"Ġwritten":2702,"Ġfoods":2703,"Ġinvolved":2704,"Ġdemon":2705,"Ġidentify":2706,"uge":2707,"Ġencoura":2708,"arily":2709,"But":2710,"Ġple":2711,"ender":2712,"aches":2713,"verse":2714,"rand":2715,"Ġpict":2716,"eration":2717,"ief":2718,"umb":2719,"Ġforms":2720,"oles":2721,"ength":2722,"ĠPar":2723,"Ġnormal":2724,"Ġmedia":2725,"Ġcompan":2726,"rim":2727,"Ġdamage":2728,"ĠSec":2729,"Ġrefer":2730,"Ġshare":2731,"Ġcompet":2732,"Ġlack":2733,"Ġemb":2734,"Ġparticularly":2735,"oor":2736,"ĠPres":2737,"Ġstreng":2738,"Ġcamp":2739,"elling":2740,"Ġpsych":2741,"Ġimplement":2742,"ctions":2743,"Ġbasic":2744,"Ġoutside":2745,"Ġremov":2746,"Ġdeveloping":2747,"Ġimage":2748,"Ġpoor":2749,"Ġinteg":2750,"ĠAustral":2751,"Ġattention":2752,"Ġforce":2753,"Ġreview":2754,"ops":2755,"ĠScience":2756,"ials":2757,"Ġserious":2758,"Ġbal":2759,"lies":2760,"22":2761,"Ġsust":2762,"ĠPer":2763,"Ġanimal":2764,"Ġensure":2765,"Ġattempt":2766,"ached":2767,"Ġcompon":2768,"IN":2769,"ĠMin":2770,"idge":2771,"ĠIndia":2772,"Ġlate":2773,"bor":2774,"isions":2775,"Ġ--":2776,"Ġsqu":2777,"Ġideas":2778,"Ġforest":2779,"Ġgenerally":2780,"Ġcoun":2781,"Ġproduced":2782,"Ġwood":2783,"Ġlog":2784,"ĠEd":2785,"ming":2786,"Ġharm":2787,"Ġessential":2788,"Ġvisit":2789,"Ġteachers":2790,"Ġextreme":2791,"Ġgrowing":2792,"ĠWill":2793,"rated":2794,"Ġwebs":2795,"room":2796,"Ġelectric":2797,"Ġfeet":2798,"ulated":2799,"Ġaff":2800,"Ġemot":2801,"Ġcust":2802,"Ġaware":2803,"Ġconsist":2804,"osure":2805,"Ġdeb":2806,"Ġox":2807,"ĠChina":2808,"Ġcorrect":2809,"Ġseries":2810,"Ġtax":2811,"Ġcontinue":2812,"Ġchalleng":2813,"Ġap":2814,"Ġnumbers":2815,"Ġdispl":2816,"Ġ/":2817,"ĠMe":2818,"Ġlat":2819,"issions":2820,"Ġmess":2821,"Ġsafety":2822,"Ġattack":2823,"osing":2824,"Ġnetwork":2825,"Ġvirus":2826,"Ġprobably":2827,"set":2828,"ĠApp":2829,"uth":2830,"Ġago":2831,"25":2832,"ecause":2833,"ana":2834,"ĠCount":2835,"irit":2836,"Ġhyd":2837,"ribution":2838,"Ġdraw":2839,"imum":2840,"Ġpatient":2841,"hel":2842,"Ġtakes":2843,"Ġveget":2844,"Ġinternational":2845,"Ġmanufact":2846,"ius":2847,"ino":2848,"Ġsomeone":2849,"Ġnight":2850,"ĠMany":2851,"Ġcross":2852,"raft":2853,"Ġsou":2854,"Ġselect":2855,"Ġsea":2856,"Ġincluded":2857,"Ġgetting":2858,"Ġmother":2859,"Ġdoesn":2860,"ĠQu":2861,"Ġdefin":2862,"Ġkids":2863,"ems":2864,"ĠCenter":2865,"Ġcommit":2866,"Ġexpress":2867,"Ġir":2868,"oly":2869,"Ġdou":2870,"vention":2871,"erg":2872,"ON":2873,"fect":2874,"ĠJan":2875,"Ġvacc":2876,"Ġtherefore":2877,"ads":2878,"Ġcit":2879,"ĠInt":2880,"cies":2881,"Ġconcent":2882,"Ġprep":2883,"inks":2884,"Ġspeed":2885,"Ġindepend":2886,"ground":2887,"Ġmagn":2888,"Ġeasily":2889,"where":2890,"uary":2891,"On":2892,"ension":2893,"Ġquite":2894,"Ġcolon":2895,"anks":2896,"Ġlooking":2897,"ror":2898,"Ġthus":2899,"Ġtiss":2900,"haps":2901,"ties":2902,"IS":2903,"Ġdaily":2904,"Ġfinanc":2905,"yr":2906,"ington":2907,"Ġcover":2908,"Ġfa":2909,"rew":2910,"Ġpolicy":2911,"ext":2912,"ĠAug":2913,"ĠBo":2914,"cell":2915,"ĠPre":2916,"Ġwall":2917,"Ġprint":2918,"Ġallows":2919,"ha":2920,"Ġdifference":2921,"ying":2922,"Ġinstead":2923,"erson":2924,"overy":2925,"Ġappropri":2926,"Ġperformance":2927,"ls":2928,"Ġinvestig":2929,"asons":2930,"ography":2931,"Ġdetermine":2932,"Ġestim":2933,"ĠMore":2934,"Ġcommunities":2935,"www":2936,"Ġ24":2937,"Ġeth":2938,"ĠEduc":2939,"abetes":2940,"Ġtools":2941,"Ġtraditional":2942,"iforn":2943,"Ġdang":2944,"Ġful":2945,"Ġtheory":2946,"Ġadded":2947,"Ġprimary":2948,"Ġbooks":2949,"Ġthous":2950,"Ġtown":2951,"Ġeval":2952,"ĠCons":2953,"Ġpoints":2954,"OR":2955,"ĠJu":2956,"Ġi":2957,"Ġtur":2958,"Ġtree":2959,"Ġstarted":2960,"na":2961,"Ġinstit":2962,"Ġbab":2963,"Ġheld":2964,"olec":2965,"Ġreflect":2966,"Ġdiv":2967,"Ġleaders":2968,"Ġmental":2969,"useum":2970,"ĠAg":2971,"Ġestablished":2972,"Ġlarger":2973,"rie":2974,"iot":2975,"ĠYour":2976,"Ġwarm":2977,"Ġcompared":2978,"itude":2979,"Ġ40":2980,"oes":2981,"Ġinside":2982,"ĠPart":2983,"ceed":2984,"Ġvit":2985,"Ġunique":2986,"rate":2987,"ĠAc":2988,"Ġhumans":2989,"Ġthird":2990,"ancy":2991,"Ġcivil":2992,"Ġfav":2993,"Ġaltern":2994,"Ġquickly":2995,"Ġnation":2996,"Ġprogress":2997,"Ġmultiple":2998,"Ġachieve":2999,"Ġscientific":3000,"Ġmilitary":3001,"Ġdiseases":3002,"Ġimmedi":3003,"Ġsold":3004,"Ġunc":3005,"Ġdirectly":3006,"ifornia":3007,"ĠInstitute":3008,"Ġcapt":3009,"Ġreve":3010,"Ġproced":3011,"Ġspeak":3012,"Ġbit":3013,"ĠMost":3014,"Ġprotein":3015,"undred":3016,"Ġoffer":3017,"ĠFrench":3018,"Ġsolar":3019,"Ġhost":3020,"ĠEl":3021,"ĠEuropean":3022,"Ġfront":3023,"Ġdemonstr":3024,"lied":3025,"Ġdecre":3026,"Ġtrees":3027,"rs":3028,"Ġsil":3029,"Ġfamilies":3030,"Ġhighly":3031,"ĠGl":3032,"Ġsecurity":3033,"Ġfoot":3034,"Ġeye":3035,"ellow":3036,"ĠJes":3037,"Ġcompanies":3038,"Ġtend":3039,"ounds":3040,"iency":3041,"Ġbirth":3042,"orks":3043,"ĠIndian":3044,"Ġbehind":3045,"Ġwent":3046,"ĠCom":3047,"Ġadditional":3048,"uman":3049,"Ġdocument":3050,"Ġ194":3051,"Ġanswer":3052,"ille":3053,"Ġdrink":3054,"AN":3055,"elt":3056,"Ġalthough":3057,"ĠDepartment":3058,"Ġseems":3059,"ift":3060,"Ġsevere":3061,"Ġaud":3062,"Ġaspect":3063,"Ġrout":3064,"iques":3065,"Ġnegative":3066,"joy":3067,"Ġhttp":3068,"Ġexercise":3069,"Ġactive":3070,"pe":3071,"Ġextra":3072,"term":3073,"Ġtri":3074,"Ġdry":3075,"Ġwalk":3076,"ĠArt":3077,"Ġfram":3078,"ĠGerman":3079,"Ġ2010":3080,"Ġuseful":3081,"One":3082,"Ġhar":3083,"thern":3084,"Ġsoon":3085,"pril":3086,"hern":3087,"ĠRuss":3088,"Ġbeginning":3089,"Ġ2012":3090,"uries":3091,"cean":3092,"Ġacid":3093,"Ġtransport":3094,"Ġinfection":3095,"23":3096,"ilos":3097,"yond":3098,"Ġvideo":3099,"Ġsection":3100,"den":3101,"iers":3102,"Ġprior":3103,"Ġlabor":3104,"Ġgard":3105,"mar":3106,"ĠCalifornia":3107,"21":3108,"Ġbad":3109,"Ġhor":3110,"rogen":3111,"Ġcritical":3112,"Ġcentral":3113,"nov":3114,"Ġteaching":3115,"Ġdoctor":3116,"iter":3117,"ĠWest":3118,"Ġshall":3119,"Ġtowards":3120,"formation":3121,"gency":3122,"ĠGree":3123,"omet":3124,"ĠChild":3125,"isms":3126,"olar":3127,"Ġhabit":3128,"Ġbroad":3129,"vant":3130,"rig":3131,"Ġanaly":3132,"Ġcard":3133,"Ġsupply":3134,"Ġleading":3135,"rition":3136,"âĢ¢":3137,"Ġlimited":3138,"ĠOther":3139,"Ġclin":3140,"ologies":3141,"ĠCO":3142,"Ġobt":3143,"Ġpurpose":3144,"ĠMarch":3145,"Ġminutes":3146,"____":3147,"ĠNot":3148,"Ġstay":3149,"Ġexpect":3150,"He":3151,"Ġsus":3152,"Ġelements":3153,"ĠChar":3154,"ĠOf":3155,"ĠRec":3156,"Ġsituation":3157,"ĠHar":3158,"So":3159,"Ġwhose":3160,"ĠSm":3161,"ils":3162,"Ġinterp":3163,"oming":3164,"Ġstra":3165,"Ġancient":3166,"iber":3167,"lier":3168,"Ġbase":3169,"Ġcontains":3170,"Ġfeatures":3171,"Ġaim":3172,"Ġaccur":3173,"lation":3174,"ĠHistory":3175,"IC":3176,"Ġ,":3177,"Ġlost":3178,"Ġmom":3179,"ĠUs":3180,"ĠInternational":3181,"ĠAlthough":3182,"oring":3183,"ĠOct":3184,"Ġmount":3185,"Ġcontribut":3186,"aly":3187,"Ġhot":3188,"orthern":3189,"ran":3190,"ĠJune":3191,"ĠAfrican":3192,"Ġsoftware":3193,"Ġdecl":3194,"Ġsearch":3195,"Ġnorth":3196,"coh":3197,"Ġprotection":3198,"ĠHer":3199,"ĠAfrica":3200,"Ġbrought":3201,"Ġelse":3202,"rote":3203,"Ġblock":3204,"Ġthinking":3205,"lection":3206,"Ġexact":3207,"fort":3208,"Ġhundred":3209,"Ġdescribed":3210,"Ġimages":3211,"Ġones":3212,"Ġstri":3213,"Ġfight":3214,"Ġvalues":3215,"Ġnucle":3216,"Ġhands":3217,"Ġfast":3218,"Ġstrateg":3219,"Ġcustom":3220,"Ġcred":3221,"ĠMus":3222,"wise":3223,"come":3224,"sect":3225,"Ġgot":3226,"Ġ2011":3227,"Ġquant":3228,"Ġdark":3229,"bit":3230,"Ġgame":3231,"Ġapplication":3232,"ĠChristian":3233,"istry":3234,"Ġinfluence":3235,"Ġjo":3236,"Ġsustain":3237,"And":3238,"Ġdecision":3239,"hest":3240,"Ġnews":3241,"inct":3242,"Ġgoal":3243,"Ġadminist":3244,"Ġenjoy":3245,"Ġjud":3246,"Ġrequires":3247,"ĠAugust":3248,"âĢĿ.":3249,"itch":3250,"Ġlength":3251,"Ġord":3252,"cks":3253,"ĠMon":3254,"mission":3255,"used":3256,"Ġwrite":3257,"Ġpack":3258,"inese":3259,"Ġang":3260,"ĠSch":3261,"Ġreceived":3262,"Ġadop":3263,"Ġlargest":3264,"uk":3265,"Ġadults":3266,"rag":3267,"equ":3268,"Ġmill":3269,"Ġlaws":3270,"hens":3271,"Ġexcept":3272,"ĠReg":3273,"cial":3274,"ĠDav":3275,"pper":3276,"Ġwaste":3277,"Ġcarry":3278,"ĠSept":3279,"imin":3280,"Ġwa":3281,"Ġagricult":3282,"Ġfinancial":3283,"see":3284,"Ġdisp":3285,"Ġlocated":3286,"ĠHere":3287,"ĠAnt":3288,"Ġcapac":3289,"Ġcapital":3290,"bol":3291,"Ġprivate":3292,"ĠBar":3293,"Ġcosts":3294,"ields":3295,"Ġep":3296,"con":3297,"ription":3298,"Ġbecomes":3299,"att":3300,"izations":3301,"ĠCor":3302,"Ġnearly":3303,"Ġleaves":3304,"imal":3305,"Ġprojects":3306,"Ġdemand":3307,"Ġseason":3308,"arian":3309,"iles":3310,"Ġlines":3311,"gn":3312,"Ġsn":3313,"ibrary":3314,"Ġegg":3315,"Ġrates":3316,"eal":3317,"Ġimportance":3318,"Ġagree":3319,"ĠTra":3320,"AS":3321,"ĠTw":3322,"IV":3323,"med":3324,"Ġreach":3325,"ĠFirst":3326,"Ġbeaut":3327,"Ġsouth":3328,"Ġveh":3329,"Ġreligious":3330,"Ġtests":3331,"rael":3332,"itis":3333,"Ġrare":3334,"Ġtypically":3335,"vest":3336,"Ġwebsite":3337,"ĠKe":3338,"Ġdevices":3339,"Ġweeks":3340,"ĠRiver":3341,"Ġplaces":3342,"ĠAmericans":3343,"estic":3344,"Ġmention":3345,"lim":3346,"ĠJesus":3347,"Ġfit":3348,"Ġestablish":3349,"Ġremains":3350,"Ġtold":3351,"Ġappropriate":3352,"Ġworkers":3353,"Ġ21":3354,"Ġborn":3355,"ipment":3356,"Ġbacteria":3357,"At":3358,"odies":3359,"60":3360,"Ġtechniques":3361,"uro":3362,"ĠWash":3363,"Ġprocesses":3364,"Ġsolution":3365,"Ġfriends":3366,"Ġsites":3367,"Ġfather":3368,"Ġmemory":3369,"Ġult":3370,"Ġstru":3371,"Ġsugar":3372,"Ġefforts":3373,"atur":3374,"Ġsurround":3375,"80":3376,"Ġx":3377,"199":3378,"Ġcool":3379,"Ġsaw":3380,"ype":3381,"idents":3382,"ĠMc":3383,"ĠJuly":3384,"Ġremain":3385,"Ġrapid":3386,"ĠPress":3387,"ĠServ":3388,"Ġteacher":3389,"'re":3390,"Ġdeal":3391,"ĠSw":3392,"ĠCanada":3393,"Ġtable":3394,"Ġbasis":3395,"ĠApril":3396,"entially":3397,"Ġhimself":3398,"Ġcommunication":3399,"iece":3400,"Ġmiles":3401,"aid":3402,"iar":3403,"itect":3404,"PA":3405,"Ġeating":3406,"life":3407,"oke":3408,"uments":3409,"Ġgives":3410,"Ġcenter":3411,"cles":3412,"ĠFrom":3413,"Ġ2009":3414,"oud":3415,"Ġrespond":3416,"cohol":3417,"ĠProg":3418,"uous":3419,"alled":3420,"Ġcitiz":3421,"ĠEngland":3422,"EN":3423,"Ġproperty":3424,"Ġadj":3425,"Ġdied":3426,"Ġcreating":3427,"aul":3428,"year":3429,"izes":3430,"ĠMy":3431,"Ġdead":3432,"back":3433,"Ġapplications":3434,"24":3435,"ĠAssoci":3436,"Ġtesting":3437,"resh":3438,"Ġeverything":3439,"Ġanything":3440,"Ġadapt":3441,"Ġvict":3442,"ogen":3443,"Ġcrop":3444,"Ġcoast":3445,"Ġfuel":3446,"ĠDay":3447,"Ġpan":3448,"Ġimag":3449,"Ġnothing":3450,"Ġeyes":3451,"Ġhope":3452,"Ġmix":3453,"ĠGovern":3454,"Ġsequ":3455,"Ġdigital":3456,"Ġadvant":3457,"Ġtherapy":3458,"ipl":3459,"ED":3460,"ĠCong":3461,"Ġpractices":3462,"These":3463,"cember":3464,"Ġcultural":3465,"ira":3466,"Ġcommand":3467,"king":3468,"aught":3469,"Ġmolec":3470,"Ġconstruction":3471,"Ġsummer":3472,"Ġresponsible":3473,"Ġhous":3474,"sec":3475,"Ġfollowed":3476,"ĠPark":3477,"Ġautom":3478,"Ġscreen":3479,"ondon":3480,"Ġcou":3481,"Ġder":3482,"Ġcele":3483,"Ġmonitor":3484,"Ġroom":3485,"ĠChinese":3486,"ama":3487,"Ġdepend":3488,"ĠEducation":3489,"ĠCity":3490,"Ġdevice":3491,"Ġbenefit":3492,"Ġcode":3493,"Ġspirit":3494,"Ġasked":3495,"Ġfederal":3496,"water":3497,"Ġbeyond":3498,"ĠPresident":3499,"Ġconflic":3500,"ham":3501,"Ġson":3502,"Ġreasons":3503,"Ġobjects":3504,"Ġforces":3505,"ĠWilliam":3506,"Ġrecently":3507,"ĠEc":3508,"Ġweb":3509,"IT":3510,"Ġbott":3511,"Ġcam":3512,"Ġstage":3513,"ford":3514,"Ġconsequ":3515,"Ġdiabetes":3516,"Ġchoose":3517,"Ġfinal":3518,"mosp":3519,"Ġanti":3520,"ovember":3521,"unch":3522,"Ġbehavi":3523,"head":3524,"Ġice":3525,"Ġ2013":3526,"Ġgradu":3527,"ico":3528,"Ġpen":3529,"illing":3530,"Ġwoman":3531,"ocol":3532,"Ġtit":3533,"ĠIsrael":3534,"Ġtrade":3535,"Ġ2008":3536,");":3537,"ĠChurch":3538,"Ġconnect":3539,"iples":3540,"Ġexpected":3541,"ding":3542,"Ġrain":3543,"Ġdate":3544,"Ġbreat":3545,"Ġmiddle":3546,"Ġinstru":3547,"Ġconstit":3548,"Ġopportunity":3549,"Ġolder":3550,"Ġcontroll":3551,"Ġexamples":3552,"Ġlegal":3553,"ought":3554,"apter":3555,"ĠJanuary":3556,"Ġreceive":3557,"ribute":3558,"Ġaffected":3559,"Ġteeth":3560,"strial":3561,"Ġcommunic":3562,"ĠWashington":3563,"men":3564,"lam":3565,"Ġscale":3566,"Ġinsp":3567,"Ex":3568,"Ġsmaller":3569,"ĠTechn":3570,"Ġcra":3571,"Ġfear":3572,"ĠGreat":3573,"omb":3574,"ĠInc":3575,"ĠLear":3576,"With":3577,"ellig":3578,"Ġhyp":3579,"ĠRet":3580,"Ġking":3581,"By":3582,"Ġsett":3583,"itable":3584,"Ġten":3585,"Ġproviding":3586,"Ġcurrently":3587,"enge":3588,"Ġequipment":3589,"Ġcold":3590,"Ġshape":3591,"Ġfile":3592,"iable":3593,"Ġrules":3594,"Ġyourself":3595,"Ġund":3596,"ula":3597,"Ġ:":3598,"Ġstandards":3599,"ĠEven":3600,"Ġexposure":3601,"Ġbul":3602,"Ġeveryone":3603,"ony":3604,"Ġorganization":3605,"Ġprofessional":3606,"Ġcru":3607,"ev":3608,"Ġuser":3609,"time":3610,"Ġvisual":3611,"ĠCounty":3612,"ests":3613,"ĠRoman":3614,"Ġcompletely":3615,"Ġalone":3616,"Ġmid":3617,"Ġdifferences":3618,"tery":3619,"Ġeffort":3620,"book":3621,"ĠFeb":3622,"Ġrecommend":3623,"edia":3624,"lin":3625,"airs":3626,"ĠJournal":3627,"Ġoccurs":3628,"Ġinteresting":3629,"Ġlocation":3630,"ĠBi":3631,"Ġgoes":3632,"Ġplanet":3633,"Ġchurch":3634,"anish":3635,"Ġwrote":3636,"Ġvia":3637,"ĠSeptember":3638,"While":3639,"Ġusers":3640,"ĠSystem":3641,"Ġbirds":3642,"ĠAccording":3643,"Ġdestro":3644,"Ġtrying":3645,"Ġwon":3646,"Ġmodels":3647,"ĠOur":3648,"Ġapprox":3649,"Ġeconomy":3650,"bur":3651,"rees":3652,"Ġsuccessful":3653,"ocr":3654,"Ġpoly":3655,"vert":3656,"Ġpet":3657,"Ġpurch":3658,"ĠDevelop":3659,"Ġnamed":3660,"ocks":3661,"Ġbeg":3662,"Ġmeasures":3663,"lamm":3664,"Ġ23":3665,"Ġrob":3666,"Ġcollection":3667,"hemat":3668,"uff":3669,"Ġrock":3670,"ĠRed":3671,"ĠDis":3672,"Ġconstant":3673,"oe":3674,"Ġhon":3675,"Ġdegree":3676,"ĠCoun":3677,"ĠTrans":3678,"Ġearlier":3679,"Ġleave":3680,"load":3681,"ica":3682,"ĠOctober":3683,"AC":3684,"udd":3685,"Ġgenetic":3686,"ĠLaw":3687,"Ġwinter":3688,"Ġdrugs":3689,"Ġsteps":3690,"Ġweather":3691,"ĠThen":3692,"Ġformer":3693,"ĠEast":3694,"Ġstrength":3695,"ingu":3696,"Ġcontinued":3697,"Ġcateg":3698,"ĠHigh":3699,"Ġcommonly":3700,"Ġoverall":3701,"Ġallowed":3702,"Ġmaintain":3703,"Ġisn":3704,"ĠSan":3705,"Ġmember":3706,"off":3707,"ĠBr":3708,"can":3709,"ros":3710,"Ġbillion":3711,"oday":3712,"Ġreduced":3713,"Ġneigh":3714,"edom":3715,"Ġgir":3716,"mitted":3717,"Ġfruit":3718,"Ġrise":3719,"ĠSim":3720,"Ġ193":3721,"Ġast":3722,"ĠDNA":3723,"wide":3724,"Ġelectr":3725,"Ġswe":3726,"ensity":3727,"irection":3728,"Ġoccup":3729,"Ġapplied":3730,"Ġ60":3731,"ibly":3732,"Ġplaced":3733,"ĠCommun":3734,"ĠMex":3735,"Ġpregn":3736,"ĠPol":3737,"ĠCour":3738,"ĠVir":3739,"Ġcommerc":3740,"ĠDecember":3741,"Ġmax":3742,"Ġpowerful":3743,"Ġperfect":3744,"rec":3745,"Ġdiscovered":3746,"ĠVal":3747,"Ġeight":3748,"26":3749,"Ġenh":3750,"Ġwond":3751,"ios":3752,"ĠLondon":3753,"Ġformed":3754,"Ġroad":3755,"Ġidentified":3756,"Ġpredict":3757,"su":3758,"Ġ2007":3759,"aters":3760,"aur":3761,"Ġenter":3762,"ospital":3763,"Ġsch":3764,"gypt":3765,"Ġteach":3766,"more":3767,"Ġshowed":3768,"27":3769,"Ġhistorical":3770,"Ġdisplay":3771,"Ġcoming":3772,"Ġcourt":3773,"Ġmiss":3774,"ste":3775,"ĠBlack":3776,"Ġvill":3777,"ĠIS":3778,"emy":3779,"Ġrich":3780,"Ġgave":3781,"Ġtox":3782,"Ġrule":3783,"Ġcontext":3784,"ĠSur":3785,"ĠRead":3786,"Ġmob":3787,"Ġmajority":3788,"Ġ195":3789,"Some":3790,"aint":3791,"Ġstatus":3792,"bl":3793,"Ġtissue":3794,"Ġmis":3795,"enty":3796,"Ġexec":3797,"Ġpow":3798,"rick":3799,"Ġacqu":3800,"Ġnote":3801,"ruary":3802,"alt":3803,"Ġtrack":3804,"Ġphilos":3805,"Ġvirt":3806,"Ġden":3807,"Ġperhaps":3808,"Ġpresence":3809,"Ġactions":3810,"ĠNovember":3811,"ĠDuring":3812,"reet":3813,"eech":3814,"ĠInst":3815,"Ġsitu":3816,"cious":3817,"Ġguid":3818,"iate":3819,"Ġpatterns":3820,"Ġversion":3821,"known":3822,"Ġball":3823,"ĠArch":3824,"Ġgold":3825,"ara":3826,"ords":3827,"Ġcook":3828,"Ġjoint":3829,"Ġdidn":3830,"bre":3831,"encies":3832,"Ġmouth":3833,"ĠBecause":3834,"Ġatmosp":3835,"iful":3836,"Ġnutri":3837,"osy":3838,"ĠWater":3839,"rab":3840,"Ġfair":3841,"29":3842,"que":3843,"aled":3844,"Ġmachine":3845,"Ġfully":3846,"Ġlimit":3847,"AL":3848,"Ġmoment":3849,"related":3850,"oration":3851,"ĠMod":3852,"Ġincreases":3853,"ĠAlso":3854,"Ġsigns":3855,"Ġremember":3856,"Ġmut":3857,"Ġchoice":3858,"Ġcompar":3859,"Ġassign":3860,"orge":3861,"Pro":3862,"Ġpeace":3863,"craft":3864,"Ġimmune":3865,"ĠNow":3866,"Ġtele":3867,"Ġcry":3868,"ĠJewish":3869,"Ġassist":3870,"Ġillust":3871,"ĠHouse":3872,"Ġchanged":3873,"Ġasse":3874,"Ġproperties":3875,"Ġmoving":3876,"ĠSince":3877,"Ġtou":3878,"Ġrelatively":3879,"odes":3880,"Ġbelief":3881,"Ġillness":3882,"Ġsect":3883,"ĠSociety":3884,"Ġacad":3885,"Ġappears":3886,"Ġcities":3887,"co":3888,"Ġelement":3889,"70":3890,"Ġfemale":3891,"ament":3892,"Ġsymbol":3893,"28":3894,"Ġemp":3895,"Ġefficient":3896,"ĠGeneral":3897,"Ġanx":3898,"Ġalcohol":3899,"Ġcapacity":3900,"gery":3901,"inated":3902,"Ġpiece":3903,"Ġbra":3904,"ĠPat":3905,"Ġvo":3906,"Ġstories":3907,"Ġworked":3908,"Ġunit":3909,"rief":3910,"Ġmig":3911,"oted":3912,"Ġrat":3913,"iences":3914,"phas":3915,"ĠRo":3916,"Ġemissions":3917,"resp":3918,"Ġconstruct":3919,"Ġnames":3920,"ĠProt":3921,"aste":3922,"Ġworth":3923,"ĠJust":3924,"Ġeducational":3925,"house":3926,"Ġstrugg":3927,"\",":3928,"Ġbaby":3929,"ees":3930,"Ġexisting":3931,"Ġfunctions":3932,"Ġgiving":3933,"abilities":3934,"Ġincor":3935,"Ġrunning":3936,"ĠAre":3937,"Ġfactor":3938,"Ġforward":3939,"EC":3940,"ternal":3941,"Ġevolution":3942,"II":3943,"force":3944,"Ġarchitect":3945,"aign":3946,"ĠEgypt":3947,"Ġstim":3948,"Ġdistance":3949,"Ġmission":3950,"rupt":3951,"Ġdat":3952,"Ġstar":3953,"Ġfresh":3954,"ĠAustralia":3955,"Ġriver":3956,"Ġoffers":3957,"ĠPeople":3958,"Ġevalu":3959,"amb":3960,"Ġmuscle":3961,"Ġtask":3962,"Ġdirection":3963,"Ġconvers":3964,"Ġnative":3965,"pective":3966,"ĠConf":3967,"Ġstaff":3968,"Ġing":3969,"Ġtransfer":3970,"Ġinsect":3971,"Ġequal":3972,"Ġrepe":3973,"Ġopportunities":3974,"Ġthousands":3975,"ĠUse":3976,"Ġassum":3977,"Ġtechnologies":3978,"icip":3979,"Ad":3980,"atin":3981,"Ġsurpr":3982,"âĢĿ,":3983,"iring":3984,"Ġregions":3985,"Ġantib":3986,"iny":3987,"Ġchallenges":3988,"ĠFin":3989,"Ġmilk":3990,"asion":3991,"Ġexpand":3992,"ĠGermany":3993,"Ġwrong":3994,"ĠProf":3995,"Ġbalance":3996,"Ġbelieved":3997,"Ġabsor":3998,"ession":3999,"Ġwatch":4000,"Ġcomponents":4001,"rehens":4002,"Ġdetect":4003,"Ġpicture":4004,"Un":4005,"ĠPhil":4006,"Ġeffic":4007,"yd":4008,"orage":4009,"Ġ28":4010,"All":4011,"Ġ26":4012,"Ġbound":4013,"ĠCouncil":4014,"omas":4015,"Ġfindings":4016,"ygen":4017,"Ġhair":4018,"à¤":4019,"Ġforeign":4020,"Ġfriend":4021,"ĠAssociation":4022,"Ġhuge":4023,"Ġconsumption":4024,"Ġ2000":4025,"Ġinnov":4026,"ero":4027,"Ġexplain":4028,"Ġplanning":4029,"Ġinstance":4030,"Ġcitizens":4031,"ogle":4032,"Ġweak":4033,"Ġreports":4034,"Ġplastic":4035,"Ġdetails":4036,"Ġbox":4037,"uls":4038,"Ġdefined":4039,"part":4040,"Ġoffice":4041,"ĠAng":4042,"ifically":4043,"Ġglass":4044,"Ġattract":4045,"Ġfamous":4046,"Ġsurvey":4047,"Ġguide":4048,"Ġclassroom":4049,"ĠEnvironment":4050,"iant":4051,"Ġstyle":4052,"Ġprice":4053,"ST":4054,"Ġchance":4055,"ĠCongress":4056,"DA":4057,"rieved":4058,"ĠNA":4059,"ĠEach":4060,"bed":4061,"ĠFl":4062,"Ġexhib":4063,"Ġ+":4064,"Ġobserved":4065,"ĠTheir":4066,"Ġcontract":4067,"hors":4068,"era":4069,"Ġvision":4070,"Ġoptions":4071,"Ġgarden":4072,"ĠThus":4073,"Ġ22":4074,"Ġsuggests":4075,"Ġgoals":4076,"oma":4077,"Ġfigure":4078,"Ġinstruct":4079,"Ġpassed":4080,"Ġeventually":4081,"ographic":4082,"Ġqual":4083,"Ġ2006":4084,"ĠPal":4085,"Ġphen":4086,"Ġexperiences":4087,"Ġdisorder":4088,"Ġpp":4089,"Ġtreated":4090,"uild":4091,"Ġbreast":4092,"Be":4093,"ĠInternet":4094,"Ġ2015":4095,"ĠMedic":4096,"Ġstrategies":4097,"Ġfert":4098,"Ġlearned":4099,"ĠGreen":4100,"ĠFrance":4101,"ald":4102,"Ġmap":4103,"lege":4104,"Ġresistance":4105,"Ġseven":4106,"Ġimmediately":4107,"Ġ27":4108,"iance":4109,"Ġfeature":4110,"eding":4111,"ĠUnion":4112,"Ġseparate":4113,"Ġsignificantly":4114,"RE":4115,"che":4116,"Ġcarried":4117,"ĠWestern":4118,"Ġapply":4119,"ĠFebruary":4120,"pped":4121,"Ġblue":4122,"Ġcollabor":4123,"After":4124,"nes":4125,"Ġcommercial":4126,"Ġboard":4127,"iment":4128,"Ġsac":4129,"Ġstructures":4130,"igen":4131,"Ġcelebr":4132,"Ġextremely":4133,"Ġexcess":4134,"tee":4135,"Ġiron":4136,"Ġgain":4137,"cont":4138,"Ġfix":4139,"eces":4140,"Ġutil":4141,"rome":4142,"Ġmal":4143,"Ġliqu":4144,"ĠTur":4145,"ĠUN":4146,"ĠJapanese":4147,"Ġdivid":4148,"Ġhappen":4149,"Ġdecades":4150,"ĠProgram":4151,"Ġspect":4152,"char":4153,"Ġmale":4154,"Ġpresented":4155,"Ġbank":4156,"Ġplans":4157,"Ġtopic":4158,"HE":4159,"ris":4160,"Is":4161,"Ġtruth":4162,"Ġorganizations":4163,"Ġhighest":4164,"Ġpick":4165,"wards":4166,"Ġbone":4167,"ching":4168,"ky":4169,"Ġincome":4170,"Ar":4171,"Ġdestroy":4172,"uit":4173,"ĠUK":4174,"ken":4175,"Ġfavor":4176,"Ġexplore":4177,"ĠInter":4178,"Ġclinical":4179,"ophy":4180,"Ġbecoming":4181,"uses":4182,"ĠSee":4183,"Ġrequirements":4184,"Ġhom":4185,"Ġstream":4186,"Ġapproximately":4187,"Ġsave":4188,"Ġspring":4189,"Ġeasier":4190,"Ġchallenge":4191,"Ġgene":4192,"They":4193,"care":4194,"Ġjournal":4195,"Ġdistribution":4196,"ĠCur":4197,"ulum":4198,"cast":4199,"Ġsexual":4200,"Ġgeneration":4201,"Ġrot":4202,"Ġmo":4203,"ĠPublic":4204,"Ġâ":4205,"ĠChe":4206,"Ġheavy":4207,"enth":4208,"Ġactual":4209,"Ġmoved":4210,"isation":4211,"ĠHuman":4212,"Ġreality":4213,"Ġdepression":4214,"ĠLord":4215,"Ġdyn":4216,"Ġbodies":4217,"ube":4218,"ĠDavid":4219,"Ġhousehold":4220,"Ġdecisions":4221,"Ġitems":4222,"ĠDon":4223,"iated":4224,"unction":4225,"ares":4226,"ĠMat":4227,"Ġurban":4228,"Ġfaith":4229,"Ġslight":4230,"Ġnutrition":4231,"plications":4232,"asks":4233,"Ġconducted":4234,"Ġparticipants":4235,"Ġdisorders":4236,"zz":4237,"Ġpopulations":4238,"Ġalternative":4239,"change":4240,"Ġvary":4241,"Ġintroduced":4242,"met":4243,"do":4244,"Ġcand":4245,"ĠBra":4246,"Ġreference":4247,"Ġlegis":4248,"Ġelectricity":4249,"ĠMary":4250,"ĠVol":4251,"Ġfrequently":4252,"Ġemphas":4253,"Ġcontrast":4254,"ĠMich":4255,"ulf":4256,"90":4257,"Ġmer":4258,"ĠJames":4259,"Ġestimated":4260,"Ġserve":4261,"ologist":4262,"35":4263,"Ġaspects":4264,"ĠDes":4265,"Ġ2005":4266,"ĠSpec":4267,"antic":4268,"Ġconnected":4269,"Ġmetal":4270,"Ġindustrial":4271,"ĠGreek":4272,"Ġves":4273,"Ġpartners":4274,"Ġperformed":4275,"ped":4276,"Ġign":4277,"Ġsetting":4278,"Ġwidely":4279,"ĠAut":4280,"Ġtransl":4281,"Ġnovel":4282,"Ġhomes":4283,"Ġrelease":4284,"bal":4285,"ructure":4286,"ĠRev":4287,"Ġresource":4288,"Ġfig":4289,"ĠChildren":4290,"order":4291,"ĠLet":4292,"Ġagg":4293,"Ġbed":4294,"Ph":4295,"Ġgames":4296,"Ġkid":4297,"Ġdiscussion":4298,"Ġesc":4299,"Ġspeech":4300,"Ġchronic":4301,"Ġnotes":4302,"erate":4303,"Ġremove":4304,"Ġ2016":4305,"rest":4306,"Ġcompl":4307,"Ġclearly":4308,"Ġviolence":4309,"Ġfilm":4310,"Ġopin":4311,"Ġ2014":4312,"Ġcycle":4313,"Ġcombination":4314,"Ġrecords":4315,"ĠOver":4316,"Ġreleased":4317,"clus":4318,"ĠMor":4319,"apers":4320,"Ġnuclear":4321,"Ġrecommended":4322,"porary":4323,"Ġletter":4324,"Ġcausing":4325,"Ġmag":4326,"ii":4327,"Ġexperiment":4328,"Ġstarting":4329,"Ġmedicine":4330,"Ġassessment":4331,"ida":4332,"Ġparty":4333,"Ġdesp":4334,"Ġ80":4335,"ĠCollege":4336,"ilit":4337,"Ġintellig":4338,"Ġoxygen":4339,"edic":4340,"ĠWeb":4341,"ias":4342,"Ġstore":4343,"key":4344,"ĠMuseum":4345,"roph":4346,"tered":4347,"Ġpolicies":4348,"ĠDec":4349,"ĠPlan":4350,"ognitive":4351,"Ġthr":4352,"imens":4353,"ĠDevelopment":4354,"Ġturned":4355,"Ġlived":4356,"Ġexpression":4357,"Ġdoub":4358,"Ġisol":4359,"Ġnumerous":4360,"roup":4361,"Ġpresident":4362,"Ġgrass":4363,"Ġindependent":4364,"ĠSocial":4365,"Ġappe":4366,"erved":4367,"Ġhear":4368,"ĠFound":4369,"Ġocean":4370,"Ġfields":4371,"ĠNet":4372,"Ġkilled":4373,"raw":4374,"Ġtechnique":4375,"hetic":4376,"Ġload":4377,"ĠRel":4378,"OS":4379,"Ġdivers":4380,"Ġdrive":4381,"Ġoperations":4382,"Ġcreation":4383,"Ġgets":4384,"Ġchanging":4385,"Ġanyone":4386,"ously":4387,"Ġflood":4388,"ager":4389,"Ġcovered":4390,"ET":4391,"Ġunivers":4392,"Ġvitamin":4393,"olved":4394,"AM":4395,"Ġtrust":4396,"Ġresulting":4397,"ij":4398,"ocal":4399,"erences":4400,"Ġminor":4401,"Ġgenes":4402,"othes":4403,"ĠFood":4404,"Ġtemperatures":4405,"ĠRetrieved":4406,"Ġbuy":4407,"Ġwin":4408,"Ġorganic":4409,"Sh":4410,"Ġready":4411,"Ġinternal":4412,"Ġgod":4413,"Ġbuildings":4414,"icial":4415,"ĠRepublic":4416,"atically":4417,"elines":4418,"Ġbattle":4419,"Ġbottom":4420,"Ġwanted":4421,"Ġliterature":4422,"Ġstorage":4423,"otes":4424,"Ġtour":4425,"Ġcharacteristics":4426,"tical":4427,"ĠAv":4428,"ĠCourt":4429,"Ġradio":4430,"ressive":4431,"urance":4432,"Ġshap":4433,"raction":4434,"iders":4435,"Ġfreedom":4436,"Ġrisks":4437,"ault":4438,"Ġpi":4439,"Ġ190":4440,"Ġconnection":4441,"EM":4442,"works":4443,"Ġprefer":4444,"Â°":4445,"ĠCath":4446,"ologists":4447,"Ġsample":4448,"Ġexactly":4449,"Ġcampaign":4450,"anging":4451,"Ġconv":4452,"Ġnor":4453,"Ġroot":4454,"Ġgraph":4455,"Ġnoted":4456,"45":4457,"Ġinitial":4458,"rant":4459,"Ġmeeting":4460,"Ġdogs":4461,"Ġanxiety":4462,"Ġdistinct":4463,"Ġreferred":4464,"Ġtrib":4465,"ĠGovernment":4466,"Ġprepar":4467,"ĠGeorge":4468,"Ġreducing":4469,"onic":4470,"amental":4471,"Ġtim":4472,"lick":4473,"Ġtrig":4474,"Ġprinciples":4475,"Ġoutput":4476,"essor":4477,"Ġvessel":4478,"Ġauthors":4479,"ĠUnder":4480,"Ġconfirm":4481,"Ġconflict":4482,"Ġencourage":4483,"Ġemail":4484,"Ġsem":4485,"Ġdrop":4486,"Ġinvolves":4487,"Ġmessage":4488,"Ġfeeling":4489,"ĠSpanish":4490,"Ġ#":4491,"onds":4492,"iveness":4493,"Ġfailure":4494,"ĠPaul":4495,"Ġcircum":4496,"ception":4497,"Ġlayer":4498,"Ġwhom":4499,"Ġmathemat":4500,"Ġburn":4501,"Ġbeautiful":4502,"Ġsolutions":4503,"Ġtum":4504,"Ġdangerous":4505,"Ġsand":4506,"Ġrelationships":4507,"Ġhappens":4508,"Ġrace":4509,"Ġannual":4510,"Ġ29":4511,"Ġupper":4512,"Ġalg":4513,"Ġdegrees":4514,"mark":4515,"Ġdri":4516,"Ġrul":4517,"ĠOb":4518,"ĠProject":4519,"lease":4520,"According":4521,"Ġmentioned":4522,"atform":4523,"Ġremoved":4524,"stitution":4525,"cers":4526,"Ġarm":4527,"ishing":4528,"PS":4529,"Ġreligion":4530,"ĠTherefore":4531,"osystem":4532,"ulating":4533,"Ġfinding":4534,"Ġconservation":4535,"Ġinjury":4536,"Ġmostly":4537,"riage":4538,"Ġdescribe":4539,"Ġvolunt":4540,"Ġhelped":4541,"Ġinterpret":4542,"Ġterrit":4543,"Here":4544,"Ġdetermined":4545,"However":4546,"orial":4547,"Ġcounter":4548,"33":4549,"olid":4550,"Ġsurgery":4551,"with":4552,"Ġtrou":4553,"Ġtooth":4554,"Ġisland":4555,"Ġreprodu":4556,"ĠAir":4557,"Ġupd":4558,"Ġdram":4559,"Ġreplace":4560,"Ġplease":4561,"Ġgender":4562,"Ġunf":4563,"ĠIsland":4564,"ĠDem":4565,"Ġfine":4566,"ortunately":4567,"Ġship":4568,"Ġbackground":4569,"Ġthick":4570,"Ġpreviously":4571,"Ġoption":4572,"ĠOrgan":4573,"Ġsav":4574,"ĠOnce":4575,"riculum":4576,"och":4577,"ĠTest":4578,"Ġvul":4579,"Ġcollege":4580,"Ġproperly":4581,"Ġphysic":4582,"Ġscen":4583,"ĠOff":4584,"bi":4585,"Ġcore":4586,"Ġexcell":4587,"Ġ186":4588,"ressed":4589,"Ġsynt":4590,"Ġinflamm":4591,"Ġregarding":4592,"Ġpromote":4593,"Ġgrant":4594,"ria":4595,"Ġheard":4596,"Ġmist":4597,"Ġtrend":4598,"oting":4599,"Ġeggs":4600,"Ġelimin":4601,"uing":4602,"Ġclasses":4603,"Ġunits":4604,"rog":4605,"Ġadvantage":4606,"Ġleads":4607,"Ġ2017":4608,"Ġserved":4609,"Ġbelong":4610,"rows":4611,"Ġhorm":4612,"uration":4613,"Ġadvanced":4614,"Ġinvolve":4615,"Ġmeat":4616,"Ġadjust":4617,"Ġexperienced":4618,"Ġinfections":4619,"Ġstatement":4620,"ĠWork":4621,"Ġcomprehens":4622,"ta":4623,"Con":4624,"ago":4625,"Ġvolume":4626,"Ġseeds":4627,"ĠSam":4628,"ategy":4629,"ieties":4630,"ĠWhy":4631,"rum":4632,"Ġarticles":4633,"ĠFore":4634,"Ġinterested":4635,"Ġcredit":4636,"Ġcast":4637,"Ġincorpor":4638,"Ġvictim":4639,"ĠSun":4640,"Ġspot":4641,"oyal":4642,"78":4643,"Ġpric":4644,"ux":4645,"Ġspent":4646,"Ġclick":4647,"Ġnorthern":4648,"Ġreaction":4649,"mal":4650,"Ġprocessing":4651,"Ġlinked":4652,"Ġround":4653,"Ġexposed":4654,"Ġinh":4655,"Ġstrategy":4656,"Ġsolid":4657,"Ġmanufacture":4658,"Ġyouth":4659,"Ġdie":4660,"Ġdecided":4661,"ributed":4662,"ĠMars":4663,"Ġreb":4664,"Ġacademic":4665,"New":4666,"Ġexperts":4667,"rates":4668,"ping":4669,"Ġrelevant":4670,"Ġlandsc":4671,"ĠMount":4672,"Ġtransform":4673,"ĠIts":4674,"ĠJews":4675,"leg":4676,"Ġdepending":4677,"ĠInf":4678,"Many":4679,"ĠTex":4680,"Ġseed":4681,"Ġradiation":4682,"ndrome":4683,"ander":4684,"ĠMark":4685,"Ġinstall":4686,"Ġconcerns":4687,"umn":4688,"Ġamounts":4689,"Ġkept":4690,"Ġsort":4691,"Ġobvious":4692,"rep":4693,"Ġinput":4694,"Sp":4695,"Ġcomfort":4696,"ĠRober":4697,"Ġpages":4698,"Ġprofession":4699,"Ġwest":4700,"itz":4701,"Ġmeant":4702,"Ġ2004":4703,"Ġ70":4704,"Ġhour":4705,"Ġoperation":4706,"vision":4707,"road":4708,"Ġpal":4709,"Ġpollution":4710,"Ġpip":4711,"Ġsaying":4712,"Ġjour":4713,"Ġsong":4714,"Ġlung":4715,"Ġsouthern":4716,"rans":4717,"uted":4718,"nic":4719,"ĠMexico":4720,"ĠGra":4721,"inate":4722,"Ġprepared":4723,"Ġ90":4724,"place":4725,"mat":4726,"ĠAsia":4727,"Ġmel":4728,"ĠMal":4729,"75":4730,"Ġhelping":4731,"Ġsquare":4732,"wood":4733,"36":4734,"CC":4735,"Ġprocedure":4736,"za":4737,"Ġsignal":4738,"ya":4739,"Ġinvent":4740,"ĠIslam":4741,"ĠBel":4742,"Ġeffectively":4743,"That":4744,"Ġcere":4745,"Ġdiss":4746,"Res":4747,"rete":4748,"Ġwealth":4749,"Ġpret":4750,"Ġimpl":4751,"eline":4752,"ifying":4753,"Ġ...":4754,"Ġemotional":4755,"Ġconcepts":4756,"tes":4757,"iverse":4758,"Ġmanage":4759,"Ġdiscover":4760,"ĠStudents":4761,"Ġatmosphere":4762,"Why":4763,"Ġmotor":4764,"Ġvegetables":4765,"Ġexpert":4766,"Ġcharge":4767,"ĠHen":4768,"ĠDi":4769,"Ġconcern":4770,"board":4771,"ĠPhys":4772,"Ġfol":4773,"urt":4774,"aughter":4775,"Ġsustainable":4776,"Ġfarmers":4777,"Ġpieces":4778,"Ġawareness":4779,"ĠSub":4780,"Ġclos":4781,"Ġfrequency":4782,"berg":4783,"Ġproposed":4784,"ĠHIV":4785,"well":4786,"ĠST":4787,"which":4788,"Ġofficial":4789,"Ġconclud":4790,"ĠLa":4791,"Ġmanner":4792,"Ġseek":4793,"ĠWhite":4794,"Ġlic":4795,"Ġphase":4796,"standing":4797,"ded":4798,"Ġhearing":4799,"ags":4800,"Ġinstitutions":4801,"Ġlooks":4802,"Ġengineering":4803,"Im":4804,"Ġessay":4805,"Our":4806,"Ġowners":4807,"Ġkill":4808,"Ġimproved":4809,"ĠRich":4810,"ĠBudd":4811,"Now":4812,"ek":4813,"Ġ2003":4814,"acing":4815,"Ġcompleted":4816,"ĠAcad":4817,"Ġconsult":4818,"Ġreached":4819,"Ġaid":4820,"Ġstation":4821,"Ġinfluen":4822,"ĠSen":4823,"Ġdatab":4824,"akers":4825,"Ġdefic":4826,"Ġfinally":4827,"Ġmath":4828,"oking":4829,"vis":4830,"Although":4831,"Ġrecorded":4832,"ams":4833,"Ġcontinues":4834,"isher":4835,"iling":4836,"Ġlesson":4837,"ĠâĢ¦":4838,"Ġsufficient":4839,"Ġmainly":4840,"Ġsupported":4841,"Ġnotice":4842,"RO":4843,"Ġsecret":4844,"astern":4845,"ĠService":4846,"Ġlib":4847,"ĠKore":4848,"ĠOld":4849,"Ġphenomen":4850,"ormal":4851,"Ġdefinition":4852,"Ġvaccine":4853,"ball":4854,"Ġlanguages":4855,"zing":4856,"Ġeast":4857,"Ġpresc":4858,"Ġallowing":4859,"38":4860,"Ġcorresp":4861,"Ġforced":4862,"Ġwet":4863,"Ġchemicals":4864,"Ġpractical":4865,"lig":4866,"Ġyellow":4867,"ĠJer":4868,"ĠJe":4869,"kin":4870,"Ġdrinking":4871,"Ġgrade":4872,"Ġcoal":4873,"onomic":4874,"Ġpun":4875,"roke":4876,"Ġwonder":4877,"Ġplatform":4878,"Ġbrother":4879,"Cl":4880,"Ġwaters":4881,"Ġformation":4882,"Ġbegins":4883,"Ġpurposes":4884,"Ġdiagnosis":4885,"Ġmotiv":4886,"ĠEv":4887,"Ġappoint":4888,"comes":4889,"Ġban":4890,"Ġconver":4891,"Ġstorm":4892,"Äģ":4893,"uable":4894,"CO":4895,"rence":4896,"ĠCivil":4897,"Ġintended":4898,"itors":4899,"Ġauthority":4900,"ĠRem":4901,"ĠPort":4902,"ĠMet":4903,"ĠArab":4904,"Ġtaught":4905,"acific":4906,"Ġvulner":4907,"Ġtoxic":4908,"ĠMr":4909,"Ġidentity":4910,"AD":4911,"rapy":4912,"Ġhop":4913,"ears":4914,"Ġbud":4915,"ado":4916,"Ġcenturies":4917,"nam":4918,"ĠVirgin":4919,"rations":4920,"Ġelectrical":4921,"ĠEvery":4922,"ĠThomas":4923,"Ġcomment":4924,"Ġefficiency":4925,"Ġsettle":4926,"Ġhit":4927,"ĠHel":4928,"Ġmorning":4929,"Ġcontribute":4930,"ĠBay":4931,"ĠMiss":4932,"Ġpark":4933,"Ġsituations":4934,"Ġfoss":4935,"From":4936,"atric":4937,"ishes":4938,"Ġfort":4939,"ĠMac":4940,"Ġremained":4941,"'ll":4942,"ĠMart":4943,"Ġrenew":4944,"ounced":4945,"Ġsusp":4946,"arrow":4947,"aturally":4948,"Ġblog":4949,"100":4950,"verty":4951,"Ġoffered":4952,"eters":4953,"Ġsamples":4954,"Ġlinks":4955,"Ġliquid":4956,"Ġcombined":4957,"oxide":4958,"ĠBritain":4959,"ĠNASA":4960,"alle":4961,"Ġpoverty":4962,"AP":4963,"Ġlov":4964,"Ġmaster":4965,"Ġreduction":4966,"Ġjobs":4967,"aker":4968,"ework":4969,"Ġvoice":4970,"ĠCentral":4971,"Ġindicate":4972,"clusion":4973,"otic":4974,"osite":4975,"Ġfacts":4976,"ĠLou":4977,"Ġprimarily":4978,"Ġdoll":4979,"Ġmuscles":4980,"Ġshared":4981,"yright":4982,"Ġnav":4983,"Ġdro":4984,"Ġgirls":4985,"Ġstraight":4986,"Ġkinds":4987,"Ġprofessor":4988,"Ġconsequences":4989,"Ġfocused":4990,"ĠLife":4991,"ossible":4992,"Ġmotion":4993,"ample":4994,"ĠIr":4995,"ht":4996,"34":4997,"ĠAD":4998,"Ġraised":4999,"gra":5000,"Ġ35":5001,"Ġideal":5002,"rich":5003,"Ġheight":5004,"Ġtechnical":5005,"oper":5006,"tion":5007,"Ġgrand":5008,"ĠFranc":5009,"anch":5010,"ixt":5011,"Ġiniti":5012,"des":5013,"espite":5014,"Ġperman":5015,"ĠMedicine":5016,"Ġflex":5017,"Ġbrief":5018,"Ġextent":5019,"Most":5020,"Ab":5021,"Ġcoord":5022,"Ġcertainly":5023,"ĠMedical":5024,"Ġdynam":5025,"Ġcollected":5026,"ĠBer":5027,"Ġtreatments":5028,"ĠBas":5029,"Ġcareer":5030,"Ġneut":5031,"Ġtasks":5032,"ĠEnergy":5033,"ĠTexas":5034,"ĠSpace":5035,"Ġecosystem":5036,"rian":5037,"Ġexistence":5038,"Ġhospital":5039,"Ġnerv":5040,"Ġnutrients":5041,"Ġlargely":5042,"Ġspecifically":5043,"istan":5044,"ĠDirect":5045,"Americ":5046,"Ġwife":5047,"ses":5048,"osen":5049,"Ġthoughts":5050,"Ġperspective":5051,"ĠMuslim":5052,"rier":5053,"Ġmort":5054,"Ġplaying":5055,"Ġfelt":5056,"Ġoperating":5057,"Ġsubjects":5058,"99":5059,"Ġkn":5060,"ĠAtl":5061,"ĠFre":5062,"oo":5063,"acters":5064,"Ġcert":5065,"going":5066,"west":5067,"Ġspend":5068,"ĠSer":5069,"Ġfib":5070,"ĠClass":5071,"Ġletters":5072,"Ġarmy":5073,"Ġotherwise":5074,"Ġnit":5075,"Ġpolice":5076,"zy":5077,"Ġbill":5078,"Ġshowing":5079,"Ġfif":5080,"gl":5081,"Ġpersons":5082,"Ġexcellent":5083,"col":5084,"Ġther":5085,"ĠSal":5086,"ĠBen":5087,"Ġbird":5088,"ĠCle":5089,"Ġoccurred":5090,"'ve":5091,"Ġcris":5092,"Ġresist":5093,"Ġ2001":5094,"EL":5095,"Ġfluid":5096,"ague":5097,"Pl":5098,"Ġpul":5099,"Ġtrial":5100,"ache":5101,"field":5102,"ĠÃ":5103,"Ġadvance":5104,"what":5105,"US":5106,"ĠNews":5107,"ĠQue":5108,"Ġtro":5109,"Ġshar":5110,"Ġvast":5111,"that":5112,"Ġleader":5113,"Ġbright":5114,"Ġresponsibility":5115,"Ġaffects":5116,"ael":5117,"olute":5118,"iced":5119,"Ġsyn":5120,"Ġinstrument":5121,"Ġparticles":5122,"Ġtrain":5123,"No":5124,"unk":5125,"ras":5126,"Ġflowers":5127,"Ġvital":5128,"rolog":5129,"Ġfaster":5130,"rastructure":5131,"Ġnations":5132,"Ġbiological":5133,"OT":5134,"Ġdespite":5135,"ĠMass":5136,"Ġproteins":5137,"Ġimpacts":5138,"ey":5139,"Ġstem":5140,"ĠCommission":5141,"band":5142,"Ġquar":5143,"anges":5144,"Ġmetab":5145,"Ġexplains":5146,"Ġ1990":5147,"ĠFurther":5148,"ari":5149,"Ġabuse":5150,"ĠTechnology":5151,"ĠLatin":5152,"la":5153,"Ġagricultural":5154,"Ġcognitive":5155,"Ġdetailed":5156,"Ġonto":5157,"Ġliver":5158,"Ġkeeping":5159,"Ġsalt":5160,"othing":5161,"Ġsend":5162,"?âĢĿ":5163,"ĠDise":5164,"Ġdigest":5165,"Ġsurrounding":5166,"Ġoral":5167,"Ġvehicle":5168,"Ġsector":5169,"ĠCam":5170,"ĠBible":5171,"Ġrevolution":5172,"Ġimmig":5173,"Ġpray":5174,"Ġsnow":5175,"Ġdiam":5176,"Ġpros":5177,".;":5178,"Ġsounds":5179,"Ġplayed":5180,"ipped":5181,"Ġclim":5182,"ails":5183,"Ġfamiliar":5184,"ĠWind":5185,"Ġreturned":5186,"ĠSecond":5187,"ĠDist":5188,"Ġrefers":5189,"inger":5190,"ĠRights":5191,"Ġemergency":5192,"Ġdouble":5193,"Ġmaximum":5194,"RI":5195,"ĠArmy":5196,"Ġincreasingly":5197,"ĠHol":5198,"Ġstone":5199,"olars":5200,"Ġrecy":5201,"Ġaren":5202,"Ġmeasured":5203,"oughly":5204,"Ġcrops":5205,"48":5206,"Ġsuggested":5207,"Ġstars":5208,"osa":5209,"nel":5210,"].":5211,"Ġlooked":5212,"cript":5213,"Ġwel":5214,"Ġhelpful":5215,"Ġgovernments":5216,"Ġroll":5217,"Ġtypical":5218,"point":5219,"Ġapparent":5220,"Ġmere":5221,"inent":5222,"Ġexplan":5223,"inf":5224,"Ġinterests":5225,"Ġadvice":5226,"Ġsche":5227,"stood":5228,"enses":5229,"ometimes":5230,"Ġmoist":5231,"Ġhyper":5232,"ĠBur":5233,"Ġchief":5234,"ancing":5235,"umin":5236,"ĠLearning":5237,"Ġexternal":5238,"Ġdomestic":5239,"omy":5240,"Ġattacks":5241,"ĠDef":5242,"Ġthin":5243,"Ġfundamental":5244,"ulin":5245,"Ġcomponent":5246,"stronom":5247,"name":5248,"utive":5249,"Ġperiods":5250,"Ġlik":5251,"lar":5252,"Ġdivided":5253,"ĠTreat":5254,"Ġhappened":5255,"Ġfollows":5256,"Ġrail":5257,"Ã¡":5258,"ĠCatholic":5259,"Ġcharacters":5260,"Ġflat":5261,"Ġslightly":5262,"ĠBC":5263,"pen":5264,"Ġfirm":5265,"Ġ2002":5266,"hips":5267,"Ġstudied":5268,"ĠBook":5269,"Ġtopics":5270,"Ġcontrolled":5271,"ĠLake":5272,"ĠBoth":5273,"Ġinstruction":5274,"39":5275,"ĠTwo":5276,"Ġgreatest":5277,"Ġfruits":5278,"Ġprotected":5279,"Ġmonitoring":5280,"itness":5281,"Ġrecognized":5282,"Ġhundreds":5283,"Ġbow":5284,"resents":5285,"down":5286,"Ġcontaining":5287,"Ġlose":5288,"Ġspiritual":5289,"itage":5290,"van":5291,"Ġsen":5292,"ĠStand":5293,"Ġconsists":5294,"racy":5295,"Ġfloor":5296,"Ġrural":5297,"Ġvalid":5298,"mp":5299,"ĠSou":5300,"right":5301,"ĠWomen":5302,"Ġhttps":5303,"Ġportion":5304,"ingly":5305,"Ġpotentially":5306,"Ġphone":5307,"Ġexplained":5308,"ĠToday":5309,"Ġelev":5310,"eria":5311,"ĠInformation":5312,"Ġgoods":5313,"ĠFlor":5314,"asure":5315,"ĠRussian":5316,"Ġknew":5317,"gal":5318,"ensus":5319,"omin":5320,"Ġneighbor":5321,"win":5322,"ÃŃ":5323,"igenous":5324,"iest":5325,"ĠPacific":5326,"Ġcurriculum":5327,"Ġfiles":5328,"oral":5329,"atever":5330,"Ġfacilities":5331,"Ġofficials":5332,"Ġaccurate":5333,"inding":5334,"Ġju":5335,"celer":5336,"Ġproport":5337,"ificial":5338,"Ġinterview":5339,"Ġtested":5340,"Ġpaint":5341,"ĠMil":5342,"Ġclaims":5343,"ĠFoundation":5344,"Ġhabitat":5345,"Ġspl":5346,"ĠUsing":5347,"Ġconscious":5348,"Ġimmun":5349,"ĠData":5350,"Ġharvest":5351,"Ġwalls":5352,"Ġdepends":5353,"state":5354,"Ġkil":5355,"Ġ2018":5356,"BC":5357,"Ġcrucial":5358,"Ġchann":5359,"Ġrapidly":5360,"Ġvent":5361,"Ġprocedures":5362,"Ġapproaches":5363,"iled":5364,"Ġcontinuous":5365,"37":5366,"Ġsubstant":5367,"Ġconcentration":5368,"Ġdepth":5369,"Ġsatis":5370,"cest":5371,"uke":5372,"Ġsubsequ":5373,"oviet":5374,"Ġminimum":5375,"Ġappeared":5376,"Ġtitle":5377,"Ġfeelings":5378,"Do":5379,"Ġconcerned":5380,"Ġsin":5381,"More":5382,"aks":5383,"Ġpig":5384,"ompl":5385,"Ġkm":5386,"Ġrequest":5387,"ĠCarol":5388,"Ġclosely":5389,"gment":5390,"ĠAN":5391,"Ġdisapp":5392,"Ġrepresents":5393,"Ġsmart":5394,"Ġwestern":5395,"ĠMicro":5396,"Ġfle":5397,"Ġinvestment":5398,"umber":5399,"Ġobtained":5400,"Ġhaz":5401,"Ġvisible":5402,"ville":5403,"ĠCharles":5404,"ellect":5405,"Ġsuffering":5406,"Ġconvent":5407,"ĠElect":5408,"Ġprices":5409,"hi":5410,"Ġgrown":5411,"Ġages":5412,"Ġtried":5413,"ĠMiddle":5414,"ĠCD":5415,"osc":5416,"Ġprison":5417,"Ġmoral":5418,"Ġcardi":5419,"ĠSea":5420,"Ġnaturally":5421,"Ġrand":5422,"oster":5423,"ĠOut":5424,"Ġsed":5425,"li":5426,"Ġroots":5427,"ooth":5428,"ĠNor":5429,"Ġdiscovery":5430,"Ġdiscussed":5431,"pat":5432,"Ġcontem":5433,"Another":5434,"Ġargument":5435,"Ġselected":5436,"95":5437,"ĠDel":5438,"ascular":5439,"ĠSmith":5440,"ION":5441,"Ġtips":5442,"abil":5443,"Ġjustice":5444,"ĠFam":5445,"Ġmovements":5446,"ĠMont":5447,"ĠAnother":5448,"ĠSte":5449,"Ġrandom":5450,"Ġpu":5451,"Ġgar":5452,"isp":5453,"Ġoutcomes":5454,"active":5455,"anes":5456,"Ġdiversity":5457,"ING":5458,"65":5459,"ĠRobert":5460,"ĠJose":5461,"Ġdistingu":5462,"Ġ188":5463,"roc":5464,"Ġstated":5465,"Ġcouple":5466,"anguage":5467,"alse":5468,"MS":5469,"Ġviews":5470,"Ġpaid":5471,"Ġleaving":5472,"ĠLibrary":5473,"ĠMem":5474,"Ġmedications":5475,"Ġsides":5476,"athy":5477,"Ġvaluable":5478,"Ġextract":5479,"Ġdirector":5480,"Ġdial":5481,"ĠJud":5482,"Ġadding":5483,"Ġ2020":5484,"ĠRussia":5485,"Ġexpensive":5486,"Ġresidents":5487,"Ġcrisis":5488,"Ġneuro":5489,"Ġsubstance":5490,"Ġcircumst":5491,"Ġstret":5492,"Ġlatest":5493,"Ġ*":5494,"Ġreform":5495,"Ġdeliver":5496,"32":5497,"TS":5498,"âĢĻ.":5499,"Ġmedium":5500,"44":5501,"Ġdocuments":5502,"ĠControl":5503,"Ġweap":5504,"ĠSupp":5505,"Ġsatell":5506,"Ġsets":5507,"Ġpump":5508,"ada":5509,"fall":5510,"ĠLand":5511,"ĠMake":5512,"Ġlessons":5513,"Ġcorrespond":5514,"ĠInstead":5515,"Ġpil":5516,"Ġmillions":5517,"eck":5518,"Ġallerg":5519,"ĠWell":5520,"ĠGoogle":5521,"ĠRef":5522,"chers":5523,"Ġaccompl":5524,"Ġinfrastructure":5525,"bing":5526,"Ġalt":5527,"ario":5528,"lers":5529,"olester":5530,"Ġrecognize":5531,"Ġmoon":5532,"Ġdut":5533,"Ġdiscrim":5534,"Ġrein":5535,"tenance":5536,"ato":5537,"De":5538,"Ġtalking":5539,"Ġregularly":5540,"Ġemployees":5541,"Ġappearance":5542,"Ġgun":5543,"Ġ45":5544,"ĠWild":5545,"ĠSuch":5546,"ĠEmp":5547,"Ġhunt":5548,"roid":5549,"Ġvillage":5550,"Ġpictures":5551,"Ġband":5552,"Ġod":5553,"ĠHenry":5554,"esity":5555,"Ġfunding":5556,"Ġinternet":5557,"Ġdecrease":5558,"Sc":5559,"ĠUp":5560,"ĠPsych":5561,"Ġcolors":5562,"Ġsyndrome":5563,"Ġmyth":5564,"Ġcapable":5565,"icks":5566,"ĠFederal":5567,"Ġwire":5568,"ĠSoviet":5569,"Gen":5570,"ĠLike":5571,"Ġdriving":5572,"ĠDisc":5573,"Ġagriculture":5574,"Ġstock":5575,"ĠTem":5576,"Ġaccomp":5577,"ĠStudies":5578,"Ġdeaths":5579,"Ġmobile":5580,"olesterol":5581,"free":5582,"ĠHam":5583,"Ġingred":5584,"Ġ2019":5585,"Ġsuffer":5586,"rid":5587,"exp":5588,"ocratic":5589,"Ġfrag":5590,"ĠCompany":5591,"Ġparam":5592,"Ġpregnancy":5593,"ĠNature":5594,"Ġprinciple":5595,"Dr":5596,"Ġcorpor":5597,"Go":5598,"Ind":5599,"omach":5600,"Ġhorse":5601,"Ġadvoc":5602,"ĠPost":5603,"mbly":5604,"stream":5605,"ĠHistor":5606,"Ġinfected":5607,"Ġrecovery":5608,"Ġdu":5609,"rem":5610,"Ġnarrow":5611,"Other":5612,"Ġhouses":5613,"Ġfacilit":5614,"Ġinflammation":5615,"During":5616,"idden":5617,"Ġmarine":5618,"Ġsecure":5619,"Ġformat":5620,"Ġintroduction":5621,"Ġsoldiers":5622,"Ġpure":5623,"Ġclosed":5624,"Ġinterf":5625,"Ġshel":5626,"Ġfertil":5627,"othe":5628,"plicated":5629,"Ġparties":5630,"Ġregional":5631,"ĠNav":5632,"Ġraise":5633,"Ġformal":5634,"Ġwear":5635,"Ġapart":5636,"Ġdream":5637,"ĠEngine":5638,"pass":5639,"dden":5640,"long":5641,"Ġcalls":5642,"ĠEnvironmental":5643,"198":5644,"Ġinject":5645,"DF":5646,"ĠWil":5647,"Ġchain":5648,"HO":5649,"Ġsick":5650,"olve":5651,"mas":5652,"Ġprotocol":5653,"Ġprevention":5654,"Ġproducing":5655,"indu":5656,"Ġtouch":5657,"Ġnarr":5658,"Ġimpossible":5659,"Ġcreative":5660,"Ġadequ":5661,"Ùİ":5662,"ĠSaf":5663,"Ġoriginally":5664,"Ġsan":5665,"Ġprecise":5666,"ĠLouis":5667,"ĠAp":5668,"uilding":5669,"Ġmarriage":5670,"Ġopened":5671,"Ġdescribes":5672,"Ġarms":5673,"Ġnormally":5674,"ota":5675,"Ġenhance":5676,"ĠBat":5677,"Ġinches":5678,"ca":5679,"burg":5680,"ĠVirginia":5681,"spec":5682,"hma":5683,"ĠSum":5684,"pping":5685,"ibilities":5686,"Ġaw":5687,"alian":5688,"ypes":5689,"Ġcoff":5690,"ĠManagement":5691,"ĠÎ":5692,"Ġunlike":5693,"ĠConstitution":5694,"CS":5695,"ĠGroup":5696,"Ġpossibly":5697,"ĠPers":5698,"Ġbusinesses":5699,"Ġlifest":5700,"Ġwave":5701,"Ġmit":5702,"hemical":5703,"Ġbones":5704,"Ġintelligence":5705,"76":5706,"My":5707,"Ġincl":5708,"inet":5709,"Ġexchange":5710,"ĠOx":5711,"Ġunderstood":5712,"Ġwors":5713,"Ġgenerate":5714,"Ġchapter":5715,"ona":5716,"iology":5717,"Ġcomputers":5718,"Te":5719,"rants":5720,"Ġtun":5721,"Ġtrad":5722,"Ġaccepted":5723,"ctic":5724,"ĠPower":5725,"Ġabsolute":5726,"ĠCommit":5727,"Ġancest":5728,"olf":5729,"46":5730,"Ġtraffic":5731,"Ġapprec":5732,"Ġopinion":5733,"Ġvehicles":5734,"Ġentirely":5735,"Ġrub":5736,"Ġpossibility":5737,"Ġsensitive":5738,"Ġera":5739,"31":5740,"ĠKnow":5741,"500":5742,"ĠTor":5743,"Ġflight":5744,"Ġrestrict":5745,"Ġsecondary":5746,"Ġshell":5747,"reed":5748,"osm":5749,"Ġlisted":5750,"hist":5751,"Ġadministration":5752,"Ġsudden":5753,"Ġbrown":5754,"Ġstored":5755,"ĠCanadian":5756,"Ġsuc":5757,"Ġpref":5758,"Ġpretty":5759,"ka":5760,".|":5761,"See":5762,"ditionally":5763,"Ġcandid":5764,"ifies":5765,"ĠBet":5766,"Ġstages":5767,"ocracy":5768,"bert":5769,"Ġrecon":5770,"add":5771,"osal":5772,"vironments":5773,"cling":5774,"Ġlabel":5775,"Ġtal":5776,"Ġphr":5777,"ye":5778,"Ġwaves":5779,"Ġprepare":5780,"Ġadopted":5781,"Ġrevealed":5782,"Ġtoler":5783,"ĠMo":5784,"inations":5785,"Ġmuseum":5786,"organ":5787,"Ġmassive":5788,"being":5789,"osph":5790,"Ġ185":5791,"CR":5792,"Us":5793,"Ġmamm":5794,"Ġworldwide":5795,"Ġspeaking":5796,"Ġworse":5797,"Ġrecip":5798,"Ġwindow":5799,"aser":5800,"agues":5801,"Ġble":5802,"Ġdental":5803,"Ġunless":5804,"Ġlands":5805,"obe":5806,"Ġmedication":5807,"LE":5808,"Ġselection":5809,"Ġwarming":5810,"ĠScient":5811,"Ġimproving":5812,"BN":5813,"ĠFlorida":5814,"alysis":5815,"Ġ1999":5816,"ĠTer":5817,"Ġvolunte":5818,"teries":5819,"anda":5820,"ĠMa":5821,"Ġleadership":5822,"ĠColumb":5823,"Ġexperiments":5824,"Ġfill":5825,"Ġcomprehensive":5826,"ĠKen":5827,"Ġdiverse":5828,"Ġintake":5829,"Ġindex":5830,"Ġacts":5831,"Ġstarts":5832,"Ġlibrary":5833,"lements":5834,"Ġrepeated":5835,"Ġdecline":5836,"Ġextensive":5837,"liam":5838,"asive":5839,"erals":5840,"ua":5841,"agers":5842,"Ġdatabase":5843,"Ġfigures":5844,"Ġlatter":5845,"Ġpoet":5846,"Re":5847,"ston":5848,"Ġmanufacturing":5849,"Ġleaf":5850,"Ġbehaviour":5851,"ropical":5852,"Ġsurvival":5853,"Ġstick":5854,"orrow":5855,"Ġminim":5856,"Ġcreates":5857,"apping":5858,"Ġnan":5859,"Ġ<":5860,"Ġcopy":5861,"war":5862,"Ġagencies":5863,"orith":5864,"Ġguidelines":5865,"Ġdoctors":5866,"imer":5867,"anged":5868,"Ġnetworks":5869,"Ġplate":5870,"rors":5871,"Ġcars":5872,"ĠLabor":5873,"Ġtransmission":5874,"Ġdedic":5875,"ĠId":5876,"rus":5877,"Ġdepos":5878,"Ġanswers":5879,"Ġelectronic":5880,"Ġassistance":5881,"Ġframework":5882,"Ġsuitable":5883,"Ġindeed":5884,"abric":5885,"ĠGood":5886,"ogue":5887,"normal":5888,"ĠDiv":5889,"Ġpossess":5890,"asp":5891,"ĠAtt":5892,"Ġwildlife":5893,"Ġcloud":5894,"gent":5895,"Ġmur":5896,"Ġprem":5897,"ĠLeg":5898,"Ġsurvive":5899,"ĠIN":5900,"Ġ1980":5901,"ini":5902,"Ġforests":5903,"Ġgall":5904,"Ġremaining":5905,"Ġroutine":5906,"Ġwid":5907,"Ġtow":5908,"ĠBro":5909,"Ġintellect":5910,"ĠOffice":5911,"Ġdistrict":5912,"Ġimper":5913,"tage":5914,"Ġachieved":5915,"Ġaccounts":5916,"flow":5917,"Ġreaders":5918,"ĠReview":5919,"Ġedge":5920,"Ġlandscape":5921,"Ġ31":5922,"ĠAnn":5923,"Ġharmful":5924,"Ġtail":5925,"Ġengage":5926,"inn":5927,"Ġtwice":5928,"Ġtransition":5929,"struct":5930,"Ġgather":5931,"Ġdoor":5932,"Se":5933,"Ġnurs":5934,"ĠNations":5935,"Ġuniverse":5936,"oto":5937,"ĠAlex":5938,"Ġacceler":5939,"ĠProv":5940,"Ġsell":5941,"Ġfoundation":5942,"Ġabund":5943,"Ġcalcium":5944,"last":5945,"ava":5946,"Ġbio":5947,"Ġchoices":5948,"orter":5949,"ĠRome":5950,"Ġmountain":5951,"ceived":5952,"Ġbudget":5953,"Ġfilled":5954,"htm":5955,"Cont":5956,"Ġplays":5957,"Ġslowly":5958,"Ġwww":5959,"Ġextended":5960,"ansion":5961,"Ġscholars":5962,"erent":5963,"Ġfell":5964,"ĠAny":5965,"Ġsequence":5966,"Ġinjuries":5967,"Ġchart":5968,"luding":5969,"Ġsurf":5970,"ashion":5971,"Ġequival":5972,"Ġgenerated":5973,"Ġantibiot":5974,"Ġseeing":5975,"77":5976,"Ġtiny":5977,"Ġsupplement":5978,"liament":5979,"Ġremote":5980,"Ġhealthcare":5981,"under":5982,"Ġreject":5983,"ĠTHE":5984,"Ġcourses":5985,"acts":5986,"ĠCommon":5987,"aria":5988,"Ġamb":5989,"Ġproduces":5990,"Ġafford":5991,"abits":5992,"ĠOF":5993,"Ġbroken":5994,"Ġtroops":5995,".âĢĻ":5996,"Ġagreement":5997,"Ġlaboratory":5998,"Ġenvironments":5999,"Ġstomach":6000,"Ġcircumstances":6001,"49":6002,"Ġprofessionals":6003,"Ġdiscipl":6004,"Ġexpressed":6005,"born":6006,"Ġtruly":6007,"ĠProfessor":6008,"ĠGlobal":6009,"using":6010,"Ġunknown":6011,"ĠExpl":6012,"Ġaudience":6013,"Ġsweet":6014,"Ġdust":6015,"ĠAbout":6016,"Ġhappy":6017,"UR":6018,"ĠVict":6019,"Ġpull":6020,"Ġsports":6021,"Ġwants":6022,"ĠThose":6023,"Ġjourney":6024,"Ġbattery":6025,"Ġfly":6026,"Ġfailed":6027,"Ġaf":6028,"Ġdomin":6029,"Ġaircraft":6030,"Ġcultiv":6031,"CT":6032,"ican":6033,"Ġobtain":6034,"Ġstruggle":6035,"Ġimplementation":6036,"wing":6037,"Ġsharing":6038,"Ġgrav":6039,"igation":6040,"Ġdecade":6041,"Ġfossil":6042,"Ġenable":6043,"Ġopening":6044,"Ġhus":6045,"Ġcatch":6046,"Ġsky":6047,"Ġderived":6048,"mary":6049,"ĠOnly":6050,"iform":6051,"Ġmaintenance":6052,"ĠThrough":6053,"Ġaqu":6054,"reland":6055,"ums":6056,"Ġinsects":6057,"ront":6058,"Ġbeneficial":6059,"Ġconsistent":6060,"Ġtraum":6061,"ĠYet":6062,"Ġdoubt":6063,"ĠSk":6064,"ĠLong":6065,"Ġchildhood":6066,"Ġcholesterol":6067,"Ġdecide":6068,"Ġpermanent":6069,"Ġmarried":6070,"Ġmulti":6071,"no":6072,"arant":6073,"Ġacids":6074,"zen":6075,"Ġsentence":6076,"Ġmanaged":6077,"Ġerror":6078,"Ġgreatly":6079,"ĠBre":6080,"Ġthor":6081,"itan":6082,"Ġlocations":6083,"Ġsuccessfully":6084,"Stud":6085,"Ġwish":6086,"Ġlots":6087,"Read":6088,"Ġswitch":6089,"Ġ500":6090,"ĠGet":6091,"Ġskill":6092,"ctive":6093,"Ġtells":6094,"Ġflav":6095,"Ġconstitution":6096,"icians":6097,"Ġsteel":6098,"Ġ>":6099,"Ġnewsp":6100,"Ġsolve":6101,"Ġremind":6102,"icide":6103,"ĠUSA":6104,"Ġresponses":6105,"Ġethnic":6106,"Ġstudying":6107,"itt":6108,"ĠAustralian":6109,"inction":6110,"ita":6111,"47":6112,"Ġoptim":6113,"Ġax":6114,"....":6115,"body":6116,"Ġ300":6117,"ĠIll":6118,"Ġ1998":6119,"Ġrepresented":6120,"Ġcorn":6121,"Ġorganized":6122,"Ġmechanism":6123,"ĠDesign":6124,"ĠDan":6125,"ĠJoseph":6126,"Ġindicates":6127,"Ġuns":6128,"ĠFe":6129,"ĠCommittee":6130,"ribed":6131,"from":6132,"Ġsignals":6133,"Ġgal":6134,"kes":6135,"ĠAI":6136,"ĠGold":6137,"eper":6138,"stone":6139,"Ġcultures":6140,"Ġmolecules":6141,"pet":6142,"Ġauthorities":6143,"Ġcompr":6144,"Ġopposite":6145,"Ġreplaced":6146,"ĠCare":6147,"âĢĺ":6148,"itative":6149,"but":6150,"Ġdescription":6151,"En":6152,"ĠPeter":6153,"ki":6154,"ivery":6155,"edu":6156,"usal":6157,"Ġaer":6158,"Ġdaughter":6159,"Ġinstitution":6160,"ny":6161,"Ġdifficulty":6162,"Ġprincip":6163,"Ġbear":6164,"Ġyounger":6165,"Ġconsumers":6166,"Ġfixed":6167,"ifications":6168,"zil":6169,"Ġdin":6170,"Ġsight":6171,"level":6172,"Ġcarefully":6173,"wo":6174,"ĠStreet":6175,"ĠParis":6176,"Ġunable":6177,"Ġcolour":6178,"Ġhydrogen":6179,"Ġdestroyed":6180,"ĠLab":6181,"Ġcomposition":6182,"then":6183,"Ġalgorith":6184,"Ġdensity":6185,"rine":6186,"ĠReport":6187,"Ġath":6188,"ĠStat":6189,"word":6190,"ĠDisease":6191,"Ġmarked":6192,"Can":6193,"phone":6194,"Ġfasc":6195,"Ġinner":6196,"Ġphilosophy":6197,"ester":6198,"ĠMad":6199,"Ġunp":6200,"Ġthousand":6201,"cel":6202,"ĠBul":6203,"ymph":6204,"Ġfiber":6205,"gu":6206,"uts":6207,"ĠIreland":6208,"inking":6209,"fish":6210,"Ġsupplies":6211,"Ġintervention":6212,"Ġcart":6213,"ocy":6214,"Ġagency":6215,"Ġrefuge":6216,"ĠSouthern":6217,"American":6218,"hand":6219,"gans":6220,"Ġremark":6221,"Ġfalse":6222,"lets":6223,"Ġ1970":6224,"Ġinteraction":6225,"Ġphotograph":6226,"Ġlaun":6227,"tra":6228,"ait":6229,"Ã¼":6230,"Ġvessels":6231,"Ġoutl":6232,"ĠHaw":6233,"Ġelectron":6234,"Ġcoffee":6235,"ĠSl":6236,"ĠCancer":6237,"antly":6238,"ints":6239,"ĠStudy":6240,"Ġultimately":6241,"elled":6242,"Ġ189":6243,"ĠHall":6244,"Ġraw":6245,"05":6246,"Ġfewer":6247,"Ġpup":6248,"Ġarrived":6249,"Ġwalking":6250,"Ġcloser":6251,"Ġchosen":6252,"sey":6253,"abul":6254,"Ġshift":6255,"Ġsod":6256,"ĠRad":6257,"ĠHome":6258,"Ġboost":6259,"Ġgone":6260,"Ġourselves":6261,"Ġfounded":6262,"Since":6263,"Ġdedicated":6264,"ena":6265,"Ġsimpl":6266,"Ġimmediate":6267,"Ġgluc":6268,"Ġamaz":6269,"Ġhandle":6270,"Ġcutting":6271,"icago":6272,"ĠGal":6273,"ĠKh":6274,"Pe":6275,"IL":6276,"Ġlimits":6277,"Ġends":6278,"Ġpurchase":6279,"iration":6280,"ĠCult":6281,"Ġlifestyle":6282,"stein":6283,"ĠTime":6284,"Ġstanding":6285,"Ġdesire":6286,"Ġattend":6287,"irty":6288,"Ġmixed":6289,"Ġemotions":6290,"aped":6291,"Ġlisten":6292,"Ġhighlight":6293,"kins":6294,"Ġevaluation":6295,"Ġjoin":6296,"opy":6297,"Ġbrand":6298,"Ġcolleagues":6299,"Ġwitness":6300,"Ġregist":6301,"âĢĻ,":6302,"Ġhero":6303,"ipping":6304,"Ġcritic":6305,"ĠNorthern":6306,"agon":6307,"Ġnecessarily":6308,"Ġratio":6309,"Ġzone":6310,"Ġmac":6311,"Ġaccum":6312,"Ġparalle":6313,"Ġmild":6314,"isters":6315,"EP":6316,"called":6317,"top":6318,"umes":6319,"Ġcircuit":6320,"ĠEth":6321,"Ġdioxide":6322,"Ġregulations":6323,"Ġsupports":6324,"fortunately":6325,"anta":6326,"ĠCamp":6327,"Ġattached":6328,"Ġgrew":6329,"ĠExp":6330,"Ġmechanisms":6331,"ĠNatural":6332,"Ġregul":6333,"esis":6334,"ĠClin":6335,"Ġcomments":6336,"Ġpus":6337,"Ġoccasion":6338,"itudes":6339,"throp":6340,"Ġcomparison":6341,"ĠCat":6342,"ĠCa":6343,"ĠMag":6344,"Ġcarb":6345,"Ġfighting":6346,"Ġyield":6347,"Ġknows":6348,"Ġnine":6349,"Ġvoc":6350,"ĠAcademy":6351,"rating":6352,"Ġsucceed":6353,"Ġalle":6354,"Ġacknow":6355,"Ġtransportation":6356,"ĠItaly":6357,"Ġnerve":6358,"Ġhem":6359,"hop":6360,"zed":6361,"inity":6362,"Ġpersist":6363,"Ġsupporting":6364,"Ġdebate":6365,"Ġparticipate":6366,"ribe":6367,"Ġstands":6368,"ĠStep":6369,"cycl":6370,"Ġtwenty":6371,"hav":6372,"icon":6373,"Ġneck":6374,"UN":6375,"Ġresolution":6376,"ĠDet":6377,"Ġreader":6378,"Ġcommunicate":6379,"ĠBrown":6380,"Ġpreval":6381,"Ġconventional":6382,"Bl":6383,"Ġstroke":6384,"55":6385,"Ġships":6386,"ĠAdminist":6387,"omic":6388,"Ġunus":6389,"Ġoverl":6390,"ĠFrank":6391,"ĠIP":6392,"Ġwriter":6393,"orous":6394,"Ġbehaviors":6395,"Ġcontained":6396,"ĠVis":6397,"Ġclust":6398,"Ġpowers":6399,"Ġsubs":6400,"Ġmembr":6401,"ĠValley":6402,"Ġuniversity":6403,"Ġrelax":6404,"Ġbiggest":6405,"Ġwhatever":6406,"sts":6407,"ĠExt":6408,"Ġdownload":6409,"izer":6410,"heast":6411,"tering":6412,"ĠISBN":6413,"utch":6414,"ĠExper":6415,"________":6416,"ĠAdd":6417,"Ġbreathing":6418,"Ġrising":6419,"Let":6420,"Ġconcrete":6421,"Ġfeeding":6422,"Ø§":6423,"cher":6424,"Ġobesity":6425,"Ġwilling":6426,"ĠSpain":6427,"bridge":6428,"ĠPub":6429,"rd":6430,"Ġtank":6431,"Ġdent":6432,"Ġbread":6433,"Ġeastern":6434,"Ġveter":6435,"Ġvote":6436,"DP":6437,"Ġfabric":6438,"ctor":6439,"Ġmold":6440,"tic":6441,"Ġborder":6442,"ĠColor":6443,"nect":6444,"isk":6445,"orses":6446,"Ġinstructions":6447,"Ġeld":6448,"Ġvulnerable":6449,"Ġunderlying":6450,"Ġorganisms":6451,"ĠSciences":6452,"ĠAS":6453,"Ġfeedback":6454,"Ġcats":6455,"Ġdrawing":6456,"ora":6457,"inating":6458,"Ġmachines":6459,"Ġmagnetic":6460,"Ġpron":6461,"comm":6462,"hether":6463,"Ġturns":6464,"Ġfrequent":6465,"Ġpra":6466,"Ġ1960":6467,"Ġepid":6468,"otion":6469,"ĠSol":6470,"Int":6471,"Ġarchitecture":6472,"bour":6473,"riting":6474,"Ġterritory":6475,"such":6476,"Ġteen":6477,"Ġexists":6478,"ione":6479,"ĠBank":6480,"BS":6481,"ĠRichard":6482,"Figure":6483,"Ġhousing":6484,"Ġwhereas":6485,"Ġaccident":6486,"ĠCarolina":6487,"Ġcompounds":6488,"teen":6489,"Ġroof":6490,"ĠEmpire":6491,"etime":6492,"Ġpresentation":6493,"Ġreserv":6494,"01":6495,"Ġserver":6496,"Ġlaunch":6497,"Ġgreenhouse":6498,"Ġguarant":6499,"ĠRevolution":6500,"Ġlies":6501,"ĠRoyal":6502,"ĠOcean":6503,"Ġhabits":6504,"Ġsmoking":6505,"ictionary":6506,"rovers":6507,"Ġinhib":6508,"ĠBoard":6509,"Ġtrained":6510,"Ġfunctional":6511,"irds":6512,"stract":6513,"Ġcontamin":6514,"Ġnoise":6515,"Ġinstruments":6516,"Ġmice":6517,"riers":6518,"igned":6519,"Ġpercentage":6520,"ĠEnd":6521,"weight":6522,"Ġhoriz":6523,"iratory":6524,"Ġ1997":6525,"net":6526,"Ġtea":6527,"Ġsupposed":6528,"Ġexplo":6529,"Ġdemonstrated":6530,"ĠPenn":6531,"Ġpool":6532,"Ġcrow":6533,"yles":6534,"ĠâĢ¢":6535,"Ġkit":6536,"Ġreactions":6537,"ested":6538,"Ġdemonstrate":6539,"ĠRob":6540,"Ġfunds":6541,"Ġinsurance":6542,"onia":6543,"Ġconnections":6544,"Ã³":6545,"earchers":6546,"eless":6547,"ella":6548,"Ġprove":6549,"Ġjoined":6550,"Ġbot":6551,"Ġresulted":6552,"Ġtaste":6553,"Ġdistur":6554,"Ġimprovement":6555,"Ġpsychological":6556,"Ġcapture":6557,"roduction":6558,"Ġbutter":6559,"Ġrecognition":6560,"while":6561,"Ġplayers":6562,"Ġment":6563,"struction":6564,"66":6565,"Ġartificial":6566,"ittle":6567,"Ġchick":6568,"ups":6569,"Ġru":6570,"irt":6571,"Ġequivalent":6572,"Ġtall":6573,"ĠMill":6574,"itter":6575,"Ġchrom":6576,"Ġneur":6577,"Ġconfidence":6578,"Ġshot":6579,"Ġemployment":6580,"42":6581,"Ġusage":6582,"Ġadministr":6583,"Ġscript":6584,"Ġobservations":6585,"Ġastronom":6586,"Ġcalories":6587,"Ġshut":6588,"Ġcompetition":6589,"Ġtissues":6590,"Ġstable":6591,"Ġsurve":6592,"Ġblocks":6593,"Ġdebt":6594,"Ġsections":6595,"irus":6596,"plant":6597,"ĠFort":6598,"Ġpartner":6599,"hered":6600,"Ġahead":6601,"Ġfu":6602,"ĠWood":6603,"Ġrhy":6604,"Ġshop":6605,"LA":6606,"ĠTimes":6607,"ĠPract":6608,"Ġissued":6609,"Ġgenerations":6610,"Ġcryst":6611,"ĠAgricult":6612,"Ġmatters":6613,"ĠMichael":6614,"ults":6615,"Ġbeliefs":6616,"Ġprev":6617,"Ġdefe":6618,"Ġhur":6619,"een":6620,"how":6621,"xts":6622,"ĠBrazil":6623,"Ġmand":6624,"Ġvoltage":6625,"aine":6626,"Ġtrials":6627,"Ġnearby":6628,"Ġenemy":6629,"Ġvariable":6630,"ĠGard":6631,"Ġexamine":6632,"pan":6633,"abled":6634,"Ġsmoke":6635,"icious":6636,"ĠForm":6637,"ediatric":6638,"earing":6639,"Ġdelivery":6640,"Ġcustomers":6641,"Â·":6642,"hesis":6643,"anches":6644,"ĠPan":6645,"ditional":6646,"Ġcards":6647,"Ġdelay":6648,"Ġhypothes":6649,"car":6650,"Ġcup":6651,"79":6652,"Ġlegs":6653,"Ġwasn":6654,"Ġmanif":6655,"Ġarrange":6656,"ĠOh":6657,"ulty":6658,"iah":6659,"scale":6660,"erior":6661,"oding":6662,"Ġcamera":6663,"CD":6664,"Ġprompt":6665,"Not":6666,"ĠChicago":6667,"Ġconclusion":6668,"Ġentry":6669,"osion":6670,"Ġspok":6671,"Ġflag":6672,"Ġdiagnosed":6673,"ĠScott":6674,"Ġcounty":6675,"aked":6676,"Lear":6677,"Ġdefine":6678,"Ġrank":6679,"Ġpainting":6680,"Ġpolitics":6681,"First":6682,"aph":6683,"Ġprogramming":6684,"Ġparticipation":6685,"Ġboy":6686,"Ġrecept":6687,"Ġgap":6688,"Ġestimates":6689,"Rec":6690,"pread":6691,"Ġobjective":6692,"cons":6693,"uter":6694,"ĠPC":6695,"Ġcentre":6696,"Ġmaps":6697,"ourage":6698,"Ġlayers":6699,"ĠFree":6700,"everal":6701,"ih":6702,"ĠNative":6703,"itivity":6704,"Ġeveryday":6705,"43":6706,"ĠStr":6707,"Ġinsulin":6708,"ugh":6709,"ĠBab":6710,"Ġswim":6711,"Ġinteractions":6712,"Ġzero":6713,"peror":6714,"Ġrelation":6715,"Ġholds":6716,"Ġexplanation":6717,"ĠCap":6718,"Ġcrime":6719,"Ġstring":6720,"ĠScot":6721,"itely":6722,"iability":6723,"Ġcovers":6724,"ĠKeep":6725,"Ġdanger":6726,"Ġthy":6727,"Ġsheet":6728,"Ġframe":6729,"oln":6730,"ĠCreat":6731,"Ġlegislation":6732,"Le":6733,"idespread":6734,"Ġsettings":6735,"ĠWik":6736,"Ġlect":6737,"IP":6738,"Ã¶":6739,"ether":6740,"Ġforget":6741,"Ġmanip":6742,"Ġpair":6743,"ĠClimate":6744,"Ġfold":6745,"Ġbridge":6746,"Ġdrain":6747,"ĠVictor":6748,"Ġpositions":6749,"Ġoperate":6750,"Ġtrip":6751,"Ġundert":6752,"eenth":6753,"Ġscan":6754,"asters":6755,"ritis":6756,"Ġmode":6757,"gov":6758,"Ġagreed":6759,"Ġmeth":6760,"88":6761,"ĠIII":6762,"Ġflo":6763,"Ġsubstances":6764,"ĠIndians":6765,"Ġconsumer":6766,"Ġsole":6767,"Ġaccessible":6768,"Ġindicated":6769,"Ġpapers":6770,"ĠFace":6771,"Ġ75":6772,"Ġinvolving":6773,"ĠPM":6774,"Ġindependence":6775,"%)":6776,"Ġcoastal":6777,"Ġ36":6778,"ĠIrish":6779,"Ġmatch":6780,"ĠDiff":6781,"Ġdepartment":6782,"ĠGuide":6783,"ĠDig":6784,"uh":6785,"urrent":6786,"Ġphysics":6787,"usiness":6788,"ishment":6789,"etics":6790,"IG":6791,"Ġspaces":6792,"Ġelection":6793,"Ġaward":6794,"Ġassociation":6795,"Ġlaunched":6796,"Ġburning":6797,"icit":6798,"idity":6799,"Ġnob":6800,"Ġcategories":6801,"aud":6802,"Ġcommitted":6803,"Ġislands":6804,"Ġreliable":6805,"Ġpoison":6806,"Ġmos":6807,"Ġrelief":6808,"ighter":6809,"ola":6810,"Ġrow":6811,"ĠEss":6812,"Ġbrings":6813,"Ġroute":6814,"Ġputting":6815,"Ġblow":6816,"Ġsacr":6817,"Ġelectro":6818,"Ġ1995":6819,"Ġpassage":6820,"Med":6821,"Ġmaintaining":6822,"Ġdoi":6823,"orph":6824,"Qu":6825,"Ġforth":6826,"Ġorgans":6827,"Ġcontrols":6828,"Ġnone":6829,"ĠSing":6830,"Ġbanks":6831,"Ġdestruction":6832,"opes":6833,"ĠHoly":6834,"Ġfever":6835,"Ġfract":6836,"ĠZeal":6837,"Ġintegrated":6838,"ĠBig":6839,"Ġestimate":6840,"Ġspending":6841,"Ġemployed":6842,"Of":6843,"Ġrepair":6844,"ĠGeorg":6845,"Ġoblig":6846,"IA":6847,"Ġtight":6848,"Ġreven":6849,"Ġminerals":6850,"azine":6851,"Your":6852,"fit":6853,"Ġconven":6854,"andon":6855,"Ġexpansion":6856,"Ġboys":6857,"IR":6858,"Ġsmooth":6859,"Ġglucose":6860,"Ġindustries":6861,"Ġruns":6862,"occ":6863,"Ġmeal":6864,"utrition":6865,"Ġvs":6866,"Ġcolumn":6867,"Ġtons":6868,"Ġille":6869,"Ġconstructed":6870,"Ġhun":6871,"ployment":6872,"Ġended":6873,"ĠLanguage":6874,"Ġholding":6875,"Ġadequate":6876,"Ġongoing":6877,"she":6878,"dule":6879,"Ġcircle":6880,"Ġcrim":6881,"ĠCre":6882,"41":6883,"ented":6884,"Ġkidney":6885,"Ġske":6886,"ocation":6887,"Ġmeters":6888,"Ġhusband":6889,"Ġring":6890,"ĠPy":6891,"Ġearn":6892,"Ġ150":6893,"ĠHave":6894,"Once":6895,"Ġrivers":6896,"Ġbiod":6897,"Ġearthqu":6898,"Ġgram":6899,"Ġneither":6900,"ohyd":6901,"cul":6902,"Ġapproved":6903,"Ġcm":6904,"Ġmm":6905,"arsh":6906,"Ġreceiving":6907,"Ġdamaged":6908,"Ġchallenging":6909,"Ġdepart":6910,"Ġfashion":6911,"ĠEarly":6912,"Ġarrest":6913,"Ġmolecular":6914,"isdom":6915,"inally":6916,"Ġrealize":6917,"Ġnervous":6918,"Ġ1996":6919,"oples":6920,"Ġnegot":6921,"Ġmoisture":6922,"ĠServices":6923,"Ġloved":6924,"Ġentered":6925,"Ġasking":6926,"Ġphoto":6927,"Ġintellectual":6928,"Ġbond":6929,"iox":6930,"Ġcategory":6931,"ĠEastern":6932,"umps":6933,"Ġsoul":6934,"Ġlegisl":6935,"ML":6936,"Ġvac":6937,"Ġrocks":6938,"Ġdistributed":6939,"Ġexercises":6940,"Ġdivision":6941,"Ġorient":6942,"ĠItalian":6943,"ĠâĨ":6944,"Ġprohib":6945,"Ġmarkets":6946,"Ġstreet":6947,"Ġtexts":6948,"Ġscene":6949,"Ġstrongly":6950,"Ġdrawn":6951,"Ġmales":6952,"incoln":6953,"Ġhistoric":6954,"Over":6955,"Ġfemales":6956,"Ġdomain":6957,"Ġtrouble":6958,"Ġhole":6959,"ĠZealand":6960,"gers":6961,"ading":6962,"Ġturning":6963,"Ġasthma":6964,"Ġwait":6965,"Ġmeasurements":6966,"IM":6967,"Ġwidespread":6968,"ĠFamily":6969,"ureau":6970,"Ġpublication":6971,"Ġrely":6972,"opic":6973,"Ġvirtual":6974,"Ġhonor":6975,"Ġmissing":6976,"ĠTake":6977,"ortion":6978,"ibl":6979,"Ġevaluate":6980,"Ġ32":6981,"Ġbeings":6982,"liest":6983,"making":6984,"Ġdeclared":6985,"ĠParty":6986,"alm":6987,"ĠAtlantic":6988,"Ġinstalled":6989,"Ġwithd":6990,"Ġpreparation":6991,"cyclop":6992,"ett":6993,"ĠWhere":6994,"Ġdesigns":6995,"Ġdiscrimination":6996,"Ġintense":6997,"OL":6998,"Ġholid":6999,"Ġviruses":7000,"ĠJac":7001,"Even":7002,"Ġkne":7003,"VID":7004,"Ġworry":7005,"Ġshif":7006,"Ġmerely":7007,"Ġrecommendations":7008,"Ġsomewhat":7009,"Ġbreath":7010,"Ġmood":7011,"rey":7012,"Ġdollars":7013,"Ġreduces":7014,"ĠAccess":7015,"ĠMer":7016,"ĠKingdom":7017,"Ġstimul":7018,"Ġnest":7019,"Ġparallel":7020,"abulary":7021,"ĠCop":7022,"Ġcomposed":7023,"herent":7024,"Ġcontrovers":7025,"ĠSup":7026,"Ġoutbre":7027,"gical":7028,"Ġtransp":7029,"Ġfurn":7030,"Ġstrict":7031,"Ġped":7032,"Ġrig":7033,"Ġtract":7034,"Ġconstantly":7035,"arn":7036,"iral":7037,"ĠYear":7038,"pes":7039,"Ġsignificance":7040,"Ġrenewable":7041,"mes":7042,"rial":7043,"Ġvictims":7044,"CA":7045,"Ġseeking":7046,"ĠForest":7047,"Ġthanks":7048,"ĠMartin":7049,"ĠAcc":7050,"Ġrice":7051,"Ġproportion":7052,"Ġpregnant":7053,"gs":7054,"Ġstre":7055,"rary":7056,"Ġbabies":7057,"health":7058,"Ġmechanical":7059,"Ġescape":7060,"igan":7061,"Ġseemed":7062,"Ġguidance":7063,"sis":7064,"alls":7065,"Ġtel":7066,"ĠEffect":7067,"idential":7068,"airy":7069,"ĠProp":7070,"operation":7071,"Ġexamination":7072,"Ġrid":7073,"'m":7074,"ala":7075,"ĠEqu":7076,"Ġconversation":7077,"Ġmathematics":7078,"Don":7079,"Ġphenomenon":7080,"85":7081,"bra":7082,"Ġplus":7083,"Ġfacing":7084,"Ġagents":7085,"Ġfulf":7086,"ĠTV":7087,"Ġoffering":7088,"ĠAge":7089,"ĠSecurity":7090,"Ġfacility":7091,"va":7092,"rite":7093,"Ġfro":7094,"Ġcenters":7095,"Ġengaged":7096,"Ġmoves":7097,"reek":7098,"Ġchest":7099,"ĠSat":7100,"CE":7101,"rowing":7102,"ĠWindows":7103,"Ġarchae":7104,"Ġadvert":7105,"ĠTeac":7106,"ĠCy":7107,"Ġdependent":7108,"ĠDar":7109,"Ġroles":7110,"Ġbringing":7111,"ĠRom":7112,"Ġcompare":7113,"asty":7114,"Ġpharm":7115,"ĠCoast":7116,"forcement":7117,"ivered":7118,"olesc":7119,"Ġheating":7120,"ady":7121,"onomy":7122,"Ġscore":7123,"Ġoutcome":7124,"Ġbiology":7125,"inson":7126,"hent":7127,"ĠIss":7128,"Ġannounced":7129,"rane":7130,"ĠPlease":7131,"Because":7132,"oven":7133,"heimer":7134,"CH":7135,"osh":7136,"Ġconfirmed":7137,"Ġvolcan":7138,"aded":7139,"Ġcontemporary":7140,"Ġtheories":7141,"Ġmessages":7142,"ĠHill":7143,"Ġrespectively":7144,"ĠAgency":7145,"Ġincred":7146,"Ġmeasurement":7147,"amins":7148,"Ġcriminal":7149,"Ġsatellite":7150,"Ġhorses":7151,"Ġaccuracy":7152,"Ġpounds":7153,"ĠLib":7154,"Ġofficers":7155,"Every":7156,"Ġsought":7157,"Ġdischar":7158,"Ġtheme":7159,"SS":7160,"Ġblind":7161,"ĠSometimes":7162,"ĠViet":7163,"Ġmining":7164,"Ġfavorite":7165,"yal":7166,"Ġcomplicated":7167,"Ġpassing":7168,"htt":7169,"Ġbeauty":7170,"rooms":7171,"Ġartists":7172,"esides":7173,"ĠBefore":7174,"Ġdefense":7175,"Ġplenty":7176,"ĠResources":7177,"Ġfarming":7178,"Ġdose":7179,"itamin":7180,"Ġserving":7181,"Ġfourth":7182,"Ġcarrying":7183,"06":7184,"orders":7185,"71":7186,"Ġmaintained":7187,"ĠNaz":7188,"Ġconsidering":7189,"ĠCast":7190,"hyd":7191,"Ġracial":7192,"Ġcriteria":7193,"iological":7194,"ĠPop":7195,"Ġbees":7196,"Ġmetabol":7197,"medi":7198,"ĠEp":7199,"ĠChange":7200,"aired":7201,"Ġcav":7202,"Ġsurfaces":7203,"IDS":7204,"ĠList":7205,"UT":7206,"Ġingredients":7207,"Ġclothing":7208,"quit":7209,"Ġimplications":7210,"Ġdys":7211,"Ġrarely":7212,"Ġabandon":7213,"ĠAngel":7214,"heric":7215,"Ġfairly":7216,"Ġbath":7217,"Ġscreening":7218,"Ġstatistics":7219,"ĠLar":7220,"Ġcollaboration":7221,"Ġhoney":7222,"Me":7223,"Ġcombat":7224,"including":7225,"Ġtelevision":7226,"%.":7227,"estion":7228,"ĠThough":7229,"example":7230,"Ġpreventing":7231,"acco":7232,"Ġvisitors":7233,"ĠMoreover":7234,"Ġsession":7235,"Ġproof":7236,"ĠMel":7237,"vard":7238,"Ġjump":7239,"Ġseconds":7240,"Ġimplemented":7241,"ĠAsian":7242,"ĠSecret":7243,"Ġweapons":7244,"Ġintest":7245,"Am":7246,"Ġclaimed":7247,"Ġexperimental":7248,"Ġtheore":7249,"Ġangle":7250,"Ġid":7251,"Ġwound":7252,"Ġshock":7253,"agram":7254,"Ġinterpretation":7255,"Ġinfect":7256,"ĠSpecial":7257,"Ġforg":7258,"Ġdefend":7259,"Ġopposed":7260,"Ġ65":7261,"Ġmicrob":7262,"Ġphotos":7263,"Ġtub":7264,"Ġinsert":7265,"ĠPolic":7266,"Ġabnormal":7267,"Ġessentially":7268,"ĠCheck":7269,"trans":7270,"ollowing":7271,"thritis":7272,"ventions":7273,"Ġtemple":7274,"Ġvariables":7275,"ĠHeb":7276,"Ġarts":7277,"Ġshapes":7278,"Ġattempts":7279,"ĠMen":7280,"Ġtowns":7281,"Ġcoc":7282,"ĠHy":7283,"Ġ1950":7284,"Ġminute":7285,"Ġinfluenced":7286,"fl":7287,"Ġconsiderable":7288,"ĠIran":7289,"eren":7290,"inder":7291,"ommod":7292,"Ġlake":7293,"ĠOxford":7294,"Ġinher":7295,"Ġproven":7296,"Ġowner":7297,"Ġinterpre":7298,"ixture":7299,"ĠPo":7300,"Ġnitrogen":7301,"itual":7302,"Ġadvantages":7303,"Ġbreeding":7304,"ĠDen":7305,"Ġparas":7306,"sm":7307,"Ġempt":7308,"Ġpanel":7309,"Ġsail":7310,"Ġdesired":7311,"Ġimagine":7312,"raining":7313,"ĠSil":7314,"Ġcareful":7315,"Ġevil":7316,"Ġknowing":7317,"Ġbranches":7318,"Ġelected":7319,"Ġnose":7320,"Su":7321,"Ġtube":7322,"Ġirrit":7323,"ipedia":7324,"Ġcosm":7325,"Ġpush":7326,"outs":7327,"Ġmicrosc":7328,"ĠChristmas":7329,"Ġsigned":7330,"72":7331,"raq":7332,"Ġphosph":7333,"Ġoverw":7334,"oom":7335,"adder":7336,"Ġpresents":7337,"Ġtargets":7338,"Ġsubsequent":7339,"ĠWord":7340,"Ġinn":7341,"Ġdelivered":7342,"reated":7343,"ani":7344,"Ġclar":7345,"Ġfinished":7346,"Ġuncertain":7347,"Ġeffectiveness":7348,"Ġorbit":7349,"ogether":7350,"Ġaims":7351,"ĠGrand":7352,"Ġcaptured":7353,"ĠColumbia":7354,"Ġanalys":7355,"greg":7356,"Ġassume":7357,"Ġpeak":7358,"Ġencouraged":7359,"ĠDistrict":7360,"Ġsurprising":7361,"Ġitem":7362,"Ġstronger":7363,"Ġcrew":7364,"ooking":7365,"Ġprincipal":7366,"Ġdealing":7367,"Ġexclus":7368,"Ġacute":7369,"Ġdisaster":7370,"Ġinformed":7371,"Today":7372,"Ġcompound":7373,"ĠLincoln":7374,"Ġartist":7375,"Ġroughly":7376,"Ġplanned":7377,"ĠPlant":7378,"ĠDirector":7379,"OC":7380,"Ġfer":7381,"Ġabsence":7382,"essions":7383,"Ġgradually":7384,"Ġcooking":7385,"Ġjudge":7386,"ĠFurthermore":7387,"ĠWho":7388,"Ġproceed":7389,"Ġcommission":7390,"ĠOpen":7391,"Ġequally":7392,"theless":7393,"Ġplane":7394,"Ġexcessive":7395,"oids":7396,"atial":7397,"Ġwriters":7398,"Ġbranch":7399,"Ġgro":7400,"apse":7401,"Ġrespiratory":7402,"Ġradical":7403,"Ġuniversal":7404,"Ġdefect":7405,"amine":7406,"ĠKorea":7407,"illa":7408,"riz":7409,"Ġterror":7410,"ĠSym":7411,"Ġmodified":7412,"Ġproved":7413,"oured":7414,"ĠPet":7415,"ĠAmong":7416,"73":7417,"Ġdates":7418,"itarian":7419,"ĠWall":7420,"ĠNon":7421,"tles":7422,"ĠAdv":7423,"aska":7424,"ovascular":7425,"riend":7426,"Ġteams":7427,"aning":7428,"ioxid":7429,"Ġtut":7430,"Ġroads":7431,"ĠMD":7432,"Ġstructural":7433,"Ġlaid":7434,"Ġremoval":7435,"produ":7436,"Ġmineral":7437,"amination":7438,"Ġinfant":7439,"Ġcleaning":7440,"ĠBill":7441,"eness":7442,"Ġreward":7443,"ĠEU":7444,"Ġcomfortable":7445,"ĠMethod":7446,"Ġregulation":7447,"Ġassigned":7448,"uality":7449,"Ġdeeper":7450,"Ġdetection":7451,"rous":7452,"Ġunusual":7453,"Ġordered":7454,"Ġflour":7455,"Ġbigger":7456,"ĠLow":7457,"Ġmaybe":7458,"74":7459,"ĠYoung":7460,"Ġmortality":7461,"ĠCommunity":7462,"Ġeliminate":7463,"Ġ400":7464,"ĠNetwork":7465,"Ġ1994":7466,"Ġwarning":7467,"Ġflower":7468,"Ġfocuses":7469,"icted":7470,"ĠArticle":7471,"ĠAdministration":7472,"ishop":7473,"ĠSwed":7474,"otype":7475,"Ġusual":7476,"ĠFund":7477,"Ġexamined":7478,"Ġdifficulties":7479,"rene":7480,"oric":7481,"ĠCentre":7482,"ĠDoes":7483,"Ġserves":7484,"ĠSar":7485,"Ġlie":7486,"emia":7487,"68":7488,"Ġcash":7489,"ĠResp":7490,"mers":7491,"Ġtranslation":7492,"Ġcompens":7493,"Ġdecor":7494,"olving":7495,"Ġstead":7496,"Ġerrors":7497,"Ġfalls":7498,"Or":7499,"ĠRock":7500,"Ġsla":7501,"ĠVen":7502,"Ġtraditions":7503,"Ġfed":7504,"eut":7505,"Ġhormone":7506,"Ġfishing":7507,"Ġneighborhood":7508,"Ġnewly":7509,"ruption":7510,"Ġ38":7511,"Ġbiom":7512,"onym":7513,"Ġplayer":7514,"Note":7515,"ude":7516,"Ġembry":7517,"PR":7518,"roat":7519,"Ġobserve":7520,"Ġkilomet":7521,"rox":7522,"Ġsport":7523,"Ġconcerning":7524,"agraph":7525,"oir":7526,"Ġvarieties":7527,"Ġouter":7528,"rance":7529,"omer":7530,"iana":7531,"Ġguard":7532,"Ġsuffered":7533,"ersonal":7534,"Ġedition":7535,"Ġinvestigation":7536,"ĠMS":7537,"Ġphysician":7538,"ilation":7539,"action":7540,"ĠFour":7541,"ĠÐ":7542,"Ġstuff":7543,"Ġgained":7544,"ĠAND":7545,"Ġamazing":7546,"Comm":7547,"vin":7548,"bar":7549,"unicip":7550,"Ġidentification":7551,"ĠDespite":7552,"98":7553,"Ġimaging":7554,"Ġfung":7555,"Ġspectrum":7556,"Ġencoun":7557,"Ġflows":7558,"Ġcab":7559,"eli":7560,"Ġinitially":7561,"Ġconfig":7562,"ucky":7563,"ĠGr":7564,"class":7565,"oston":7566,"Ġcorner":7567,"ĠSund":7568,"Ġbreed":7569,"Ġscientist":7570,"Ġcharacterized":7571,"zheimer":7572,"ĠIndust":7573,"arents":7574,"Ġfest":7575,"Ġslavery":7576,"Ġgalax":7577,"ounce":7578,"Ġsitting":7579,"Ġceremon":7580,"Ġdrought":7581,"Ġtreating":7582,"Ġconsume":7583,"Ġwindows":7584,"soft":7585,"itals":7586,"ograp":7587,"ĠAdditionally":7588,"Ġaccompan":7589,"ruit":7590,"Ġrose":7591,"ĠChristians":7592,"iat":7593,"Ġye":7594,"Ġchlor":7595,"lvan":7596,"Ġtropical":7597,"elfare":7598,"ĠSuper":7599,"istical":7600,"Ġexceed":7601,"Ġexception":7602,"ĠFinally":7603,"Ġathlet":7604,"Ġspin":7605,"ĠFacebook":7606,"Ġformula":7607,"Ġcorrel":7608,"Ġsatisf":7609,"OM":7610,"Ġthreats":7611,"Ġprinted":7612,"ĠJeff":7613,"ĠOrganization":7614,"Ġalter":7615,"ĠKar":7616,"Ġhappening":7617,"Ġisolated":7618,"aming":7619,"Ġcaught":7620,"ĠTim":7621,"print":7622,"Ġcopper":7623,"ĠPen":7624,"Ġinnovation":7625,"ptions":7626,"ĠStar":7627,"oga":7628,"Ġpestic":7629,"Ġstatements":7630,"Ġmarks":7631,"Ġturb":7632,"Ġwine":7633,"ĠVer":7634,"ĠPrinc":7635,"Ġrect":7636,"Ġstores":7637,"fts":7638,"Ġsubstantial":7639,"otton":7640,"ano":7641,"Ġearliest":7642,"Ġdemands":7643,"ogs":7644,"Ġlearners":7645,"Ġtrends":7646,"Ġ)":7647,"Ġvideos":7648,"Ġsenior":7649,"Ġrab":7650,"Ġdiameter":7651,"Ġcomplications":7652,"Ġconj":7653,"Ġconference":7654,"Ġtrigger":7655,"rency":7656,"Ġperception":7657,"Ġholes":7658,"Ġhealing":7659,"Ġgut":7660,"ricts":7661,"Ġworship":7662,"Ġanywhere":7663,"Ġpit":7664,"Ġunw":7665,"Ġsharp":7666,"ocial":7667,"ogenic":7668,"lishing":7669,"Ġepis":7670,"ĠLiter":7671,"Ġdecreased":7672,"html":7673,"Ġintent":7674,"Ġfaced":7675,"ĠSupreme":7676,"Ġfilter":7677,"Ġvariation":7678,"Ġdetected":7679,"Ġprominent":7680,"Ġconsideration":7681,"Ġrepresentation":7682,"bles":7683,"Ġdriven":7684,"ĠMoon":7685,"Ġhazard":7686,"Ġgranted":7687,"rays":7688,"Ġinspired":7689,"ĠThree":7690,"Comp":7691,"effect":7692,"Ġmeasuring":7693,"Ġsettlement":7694,"ĠUr":7695,"coming":7696,"Ġcham":7697,"ĠWorks":7698,"Ġenorm":7699,"Ġprocessed":7700,"isco":7701,"igue":7702,"App":7703,"ĠEr":7704,"ĠAM":7705,"Ġmountains":7706,"sylvan":7707,"Ġreveal":7708,"Ġdesert":7709,"Ġampl":7710,"enger":7711,"Ġcort":7712,"Ġunion":7713,"Ġsup":7714,"Ġconcluded":7715,"People":7716,"iary":7717,"ĠEst":7718,"icate":7719,"abeth":7720,"ĠDev":7721,"Ġliteracy":7722,"orted":7723,"ĠIraq":7724,"64":7725,"ĠType":7726,"ieval":7727,"Ġremed":7728,"Ġdisabilities":7729,"Ã¢":7730,"03":7731,"Ġov":7732,"sell":7733,"Ġclient":7734,"ima":7735,"Ġwheel":7736,"Ġindigenous":7737,"Ġlistening":7738,"thm":7739,"onal":7740,"She":7741,"ĠConservation":7742,"ustain":7743,"Per":7744,"night":7745,"Ġaccommod":7746,"ĠAP":7747,"Ġsubt":7748,"ĠCell":7749,"ĠLo":7750,"otherapy":7751,"Ed":7752,"ĠSign":7753,"Ġdirected":7754,"requ":7755,"Ġacres":7756,"Ġadds":7757,"Ġgiant":7758,"Ġasc":7759,"allow":7760,"atively":7761,"Ġritual":7762,"ĠNever":7763,"Ġdemocracy":7764,"chen":7765,"Ġmusical":7766,"04":7767,"akistan":7768,"Ġpoem":7769,"Ġmic":7770,"Ġautomatically":7771,"AA":7772,"Ġoccurring":7773,"Ġarray":7774,"lete":7775,"pd":7776,"08":7777,"Ġlymph":7778,"Ġschedule":7779,"erman":7780,"Ġcorrectly":7781,"rot":7782,"uits":7783,"Ġsales":7784,"Ġeditor":7785,"ĠCross":7786,"Ġbag":7787,"Ġvan":7788,"Ġabilities":7789,"ĠAmaz":7790,"Ġgirl":7791,"Ġadm":7792,"Ġchannel":7793,"Ġovercome":7794,"Ġidentifying":7795,"Ġstrengthen":7796,"quir":7797,"Ġgrain":7798,"ostic":7799,"aneously":7800,"Ġsunlight":7801,"ĠLearn":7802,"Ġpeoples":7803,"urolog":7804,"Ġexperiencing":7805,"Ġintensity":7806,"Ġevolved":7807,"Ġalph":7808,"ĠIns":7809,"Ġcounsel":7810,"real":7811,"Col":7812,"Ġbomb":7813,"Ġstations":7814,"Ġcarbohyd":7815,"Ġrecover":7816,"ĠSir":7817,"aws":7818,"Ġlights":7819,"Ġgrid":7820,"Ġoldest":7821,"Ġsplit":7822,"ĠTre":7823,"rav":7824,"Ġaged":7825,"ansas":7826,"Ġheads":7827,"Ġobservation":7828,"Ġ1992":7829,"haust":7830,"igate":7831,"ĠHebrew":7832,"Ġprovider":7833,"Ear":7834,"ĠProtection":7835,"just":7836,"Ġbless":7837,"Ġobjectives":7838,"Ġviewed":7839,"iture":7840,"Ġvisited":7841,"Ġsuperior":7842,"ĠLead":7843,"RA":7844,"pling":7845,"Ġfatty":7846,"icing":7847,"ĠAlzheimer":7848,"Ġnice":7849,"def":7850,"esh":7851,"Ġheavily":7852,"Ġ48":7853,"Ġsilver":7854,"mod":7855,"ĠIV":7856,"Ġrelie":7857,"acent":7858,"Ġvocabulary":7859,"Ġgrows":7860,"69":7861,"ĠJo":7862,"Ġprinting":7863,"Ġassets":7864,"irms":7865,"?\"":7866,"isted":7867,"Ġfinds":7868,"Ġlaser":7869,"Car":7870,"ĠSafety":7871,"Ġscar":7872,"ĠMult":7873,"Ġcontribution":7874,"Ġregardless":7875,"Ġmathematical":7876,"Ġdietary":7877,"Ġweakness":7878,"Ġreaching":7879,"Ġhence":7880,"Ġbacterial":7881,"ĠFather":7882,"century":7883,"Ġsuscept":7884,"Ġdisrupt":7885,"Ġextend":7886,"Ġconqu":7887,"otal":7888,"Ġinhabit":7889,"plete":7890,"Ġslaves":7891,"May":7892,"ura":7893,"ĠDou":7894,"ĠForce":7895,"ercury":7896,"Ġstability":7897,"athered":7898,"Ġperm":7899,"Ġdynamic":7900,"iop":7901,"ĠSand":7902,"Ġagent":7903,"asts":7904,"Ġplot":7905,"HD":7906,"ĠSimilar":7907,"Ġdriver":7908,"Ġplanets":7909,"Ġquarter":7910,"ĠPot":7911,"',":7912,"Ġargue":7913,"Ġmir":7914,"AB":7915,"Ġmyst":7916,"etary":7917,"Ġpin":7918,"09":7919,"sylvania":7920,"ENT":7921,"door":7922,"anger":7923,"Ġpermission":7924,"ĠCurrent":7925,"itory":7926,"Ġcalling":7927,"ĠRoad":7928,"Ġhidden":7929,"erty":7930,"ontal":7931,"ĠDutch":7932,"Ġmeals":7933,"Ġ33":7934,"aneous":7935,"Ġles":7936,"ema":7937,"Ġaddressed":7938,"ildren":7939,"Ġworst":7940,"angered":7941,"Ġopposition":7942,"Ġfunctioning":7943,"Ġpanels":7944,"una":7945,"ĠHor":7946,"ega":7947,"Ġemphasis":7948,"Ġcovering":7949,"Ġwrites":7950,"Ġstrain":7951,"ĠChapter":7952,"Ġforming":7953,"Get":7954,"Ġcattle":7955,"gence":7956,"ĠJul":7957,"eping":7958,"forest":7959,"Ġrational":7960,"Ġregarded":7961,"About":7962,"Ġwisdom":7963,"Ġadolesc":7964,"urches":7965,"holders":7966,"Ġpy":7967,"Ġmanufacturers":7968,"Ġcommitment":7969,"icy":7970,"ĠSet":7971,"ailable":7972,"Ġeducators":7973,"ĠMinister":7974,"Ġmoderate":7975,"ĠEngineering":7976,"Ġalive":7977,"Ġ1993":7978,"brid":7979,"Ġengineers":7980,"ĠMah":7981,"Ġadvent":7982,"Ġantioxid":7983,"ba":7984,"Ġseparated":7985,"dr":7986,"02":7987,"eor":7988,"ĠLight":7989,"cyclopedia":7990,"Pre":7991,"asant":7992,"apor":7993,"ette":7994,"Ġdecay":7995,"Ġflying":7996,"Ġconsciousness":7997,"Ġgases":7998,"ĠPrevention":7999,"ĠAuthor":8000,"Ġpurs":8001,"Ġjur":8002,"Ġpreced":8003,"ĠQueen":8004,"Ġconserv":8005,"endment":8006,"ĠStart":8007,"Ġinnovative":8008,"Ġinterface":8009,"Ġvitamins":8010,"Ġphrase":8011,"Ġprofit":8012,"Ġinsight":8013,"Ġmg":8014,"Ġautism":8015,"ĠCOVID":8016,"Ġcontributed":8017,"izabeth":8018,"Ġthereby":8019,"Ġmouse":8020,"ĠFigure":8021,"icular":8022,"Ġproviders":8023,"Ġtribes":8024,"sen":8025,"angle":8026,"neys":8027,"ĠOnline":8028,"Ġinteractive":8029,"Part":8030,"Ġmothers":8031,"usalem":8032,"Ġbrows":8033,"ulpt":8034,"ĠNov":8035,"Ġcoverage":8036,"ĠDC":8037,"ĠHeart":8038,"Ġ55":8039,"Ġcharged":8040,"ĠBoston":8041,"ĠPalest":8042,"Ġoverwhel":8043,"Ġstake":8044,"Ġversions":8045,"oli":8046,"Ġconcentrations":8047,"hea":8048,"ĠUt":8049,"Ġplain":8050,"Ġarguments":8051,"Ġantibiotics":8052,"mm":8053,"Ġprotecting":8054,"eries":8055,"Ġmixture":8056,"Ġven":8057,"Ġillegal":8058,"Ġuniform":8059,"ĠMichigan":8060,"rection":8061,"Ġfats":8062,"ĠNote":8063,"uten":8064,"Ġcopyright":8065,"ĠOper":8066,"ĠReading":8067,"rat":8068,"iments":8069,"iva":8070,"Ġchemistry":8071,"amples":8072,"Ġpolar":8073,"ĠBattle":8074,"rolled":8075,"Ġcooling":8076,"ĠFire":8077,"ĠJohnson":8078,"Ġvaccines":8079,"Also":8080,"ographical":8081,"ĠTop":8082,"Ġorb":8083,"Ġseat":8084,"ĠGeorgia":8085,"ĠAL":8086,"har":8087,"Ġchap":8088,"Ġpla":8089,"Ġrac":8090,"asma":8091,"Ġburied":8092,"Ġacquired":8093,"ĠTable":8094,"ĠPolicy":8095,"yer":8096,"Ġelder":8097,"Ġresid":8098,"ĠPlay":8099,"ĠAT":8100,"adel":8101,"Ġadverse":8102,"zym":8103,"Ġran":8104,"Ġslave":8105,"Ġstopped":8106,"],":8107,"Ġappointed":8108,"lines":8109,"Last":8110,"ĠHospital":8111,"ĠTom":8112,"58":8113,"Ġwheat":8114,"Ġattach":8115,"ptic":8116,"archy":8117,"Ġauthent":8118,"Ġtaxes":8119,"Ġupdated":8120,"aren":8121,"Ġrobot":8122,"ĠPolit":8123,"Ġpointed":8124,"Ġbeat":8125,"Ġcancers":8126,"Ġsched":8127,"uset":8128,"Ġvel":8129,"Com":8130,"Ġhosp":8131,"Ġaffecting":8132,"Ġsmell":8133,"hus":8134,"atal":8135,"berry":8136,"Ġpreserve":8137,"ĠAssess":8138,"Ġscores":8139,"Ġbehavioral":8140,"Pr":8141,"quar":8142,"Step":8143,"Ġhardware":8144,"ĠOhio":8145,"Ġtong":8146,"Ġfaces":8147,"ĠHand":8148,"Ġparameters":8149,")|":8150,".).":8151,"Ġtables":8152,"Ġtumor":8153,"Ġsizes":8154,"ipher":8155,"Ġimprovements":8156,"ĠUnfortunately":8157,"Ġquiet":8158,"Ġlists":8159,"Ġexped":8160,"Ġprotective":8161,"ocolate":8162,"Ġhouseholds":8163,"Ġcontainer":8164,"ila":8165,"Ġresearcher":8166,"Ġdrag":8167,"ĠEdward":8168,"Ġduty":8169,"ourse":8170,"ÙĦ":8171,"Ġcommittee":8172,"Ġorders":8173,"ĠPakistan":8174,"Ġprogramme":8175,"Ġfarms":8176,"Ġspray":8177,"Ġordinary":8178,"Ġtrauma":8179,"Ġ1930":8180,"Ġflash":8181,"Ġsensitivity":8182,"ĠWithout":8183,"BT":8184,"Ġreporting":8185,"Ġnarrative":8186,"EF":8187,"Ġsurge":8188,"Ġsupplements":8189,"ĠIslamic":8190,".'":8191,"Ġspr":8192,"Ġneutral":8193,"Ġcomprom":8194,"Ġton":8195,"Ġdescript":8196,"Ġharder":8197,"achuset":8198,"Ġdegrad":8199,"Ġintroduce":8200,"ĠColorado":8201,"achusetts":8202,"Ġ;":8203,"Ġmembrane":8204,"raham":8205,"Ġinitiative":8206,"Ġmigration":8207,"Ġenables":8208,"Ġkilling":8209,"Ġinterior":8210,"Art":8211,"ĠLess":8212,"Ġfuels":8213,"Ġcharacteristic":8214,"through":8215,"ĠScotland":8216,"opher":8217,"Ġdramatic":8218,"iti":8219,"Ġinequ":8220,"irth":8221,"Ġfra":8222,"eting":8223,"uting":8224,"Ġhumanity":8225,"Ġlens":8226,"adow":8227,"ĠMath":8228,"ĠArctic":8229,"ĠJerusalem":8230,"ĠChristianity":8231,"ĠCho":8232,"Ġbelieves":8233,"Ġwonderful":8234,"Ġaimed":8235,"Ġowned":8236,"Ġspoken":8237,"ĠGulf":8238,"Ġethical":8239,"Ġinterventions":8240,"Ġparad":8241,"Hist":8242,"bec":8243,"Ġgrounds":8244,"Ġavailability":8245,"kind":8246,"ĠHead":8247,"Ġdance":8248,"Ġelsewhere":8249,"Ġfalling":8250,"Ġlosses":8251,"Ġnutrient":8252,"Ġexpanded":8253,"ugg":8254,"Ġom":8255,"Ġtor":8256,"Ġcommunications":8257,"Ġfur":8258,"ĠOl":8259,"Ġincident":8260,"Ġroyal":8261,"Ġwaiting":8262,"ricted":8263,"ĠPennsylvania":8264,"Ġlogic":8265,"ĠÂ£":8266,"ecess":8267,"Ġparagraph":8268,"Ġemerging":8269,"ĠCambridge":8270,"urning":8271,"Ġcreatures":8272,"Ġargued":8273,"IF":8274,"imm":8275,"ami":8276,"idal":8277,"bean":8278,"Ġboundaries":8279,"ĠPur":8280,"Ġcord":8281,"asm":8282,"ĠFind":8283,"Ġgenome":8284,"Ġconsumed":8285,"Where":8286,"ao":8287,"Ġtechnological":8288,"ĠImp":8289,"EG":8290,"rical":8291,"Ġevening":8292,"Ġaudio":8293,"Ġexpectations":8294,"ĠDivision":8295,"56":8296,"zyme":8297,"Ġphysically":8298,"Ġequality":8299,"disc":8300,"Ġsimult":8301,"Ġpursu":8302,"Ġdeficiency":8303,"Ġexhibit":8304,"ali":8305,"Ġcourts":8306,"Ġexciting":8307,"John":8308,"gener":8309,"Ġthermal":8310,"Ġdirections":8311,"Ã¤":8312,"rize":8313,"Ġsensors":8314,"mann":8315,"ĠTry":8316,"ĠSurvey":8317,"Ġexhaust":8318,"Ġlip":8319,"Ġheritage":8320,"Ġprobability":8321,"ĠLittle":8322,"Ġstreets":8323,"Ġmine":8324,"ĠHarvard":8325,"Ġhunting":8326,"Ġfought":8327,"Ġvegetation":8328,"advant":8329,"Ġreasonable":8330,"Ġshoot":8331,"Ġquantity":8332,"Ġfellow":8333,"Ġecological":8334,"uum":8335,"ĠBooks":8336,"ptom":8337,"Ġdisability":8338,"Ġtemporary":8339,"Ġattitude":8340,"Ġsubstit":8341,"Ġmosquit":8342,"07":8343,"Ġentit":8344,"Ġtort":8345,"Ġtempor":8346,"Ġfinger":8347,"Ġboat":8348,"Ġthreatened":8349,"Ġachievement":8350,"Pub":8351,"wan":8352,"ĠLee":8353,"elve":8354,"iations":8355,"Ġkeeps":8356,"Ġsentences":8357,"Ġstones":8358,"Ġ1991":8359,"Ġgeomet":8360,"lymp":8361,"apes":8362,"Ġpropag":8363,"Ġmanaging":8364,"Ġprovince":8365,"Ġheaven":8366,"Ġanalyze":8367,"Ġbare":8368,"Ġlungs":8369,"áĥ":8370,"ĠpH":8371,"ĠRNA":8372,"Ġglac":8373,"Ġflexible":8374,"HS":8375,"RC":8376,"Ġengaging":8377,"Ġemotion":8378,"Ġchances":8379,"Ġresc":8380,"Ġexplicit":8381,"thon":8382,"Ġextension":8383,"Ġgrains":8384,"Ġcalculated":8385,"ĠWay":8386,"Ġentertain":8387,"ĠAnalysis":8388,"endar":8389,"Ġestablishment":8390,"utation":8391,"Ġadvis":8392,"Ġbiodiversity":8393,"gien":8394,"Ġaddiction":8395,"ogy":8396,"hire":8397,"Ġpand":8398,"Ġfo":8399,"Ġcure":8400,"Ġbeans":8401,"DS":8402,"Ġdim":8403,"Ġpersonality":8404,"Ġofficer":8405,"Ġperforming":8406,"pled":8407,"Ġbutton":8408,"Ġcolonies":8409,"Ġlibr":8410,"ependent":8411,"ĠJustice":8412,"you":8413,"Ġvariations":8414,"ĠModel":8415,"Ġnewspaper":8416,"Ġstyles":8417,"ĠConference":8418,"Ġcardiovascular":8419,"ĠCard":8420,"Ġdism":8421,"Ġ37":8422,"uther":8423,"Ġmarketing":8424,"Ġenormous":8425,"ĠSpring":8426,"Ġurine":8427,"Ġtargeted":8428,"ĠCorn":8429,"ĠRh":8430,"Ġassumed":8431,"Ġproductivity":8432,"Ġdimens":8433,"Ġmyself":8434,"zer":8435,"ĠIdent":8436,"alities":8437,"ĠBusiness":8438,"Ġpainful":8439,"ĠMassachusetts":8440,"67":8441,"Ġdress":8442,"ĠOtt":8443,"Ġease":8444,"rix":8445,"Ġguess":8446,"bell":8447,"ivest":8448,"Ġcyber":8449,"Ġsteam":8450,"ĠClick":8451,"Ġvertical":8452,"ashes":8453,"ĠFar":8454,"Ġfocusing":8455,"box":8456,"ĠIslands":8457,"Ġliterary":8458,"iger":8459,"Ġexploration":8460,"Ġgods":8461,"Ġtob":8462,"Ġinvestigate":8463,"Ġplanting":8464,"Ġminds":8465,"Ġoxid":8466,"Ġperceived":8467,"ĠIT":8468,"Ġexecutive":8469,"Ġuniversities":8470,"!!":8471,"Cons":8472,"Ġcas":8473,"ĠObs":8474,"HA":8475,"Ġfing":8476,"Ġherb":8477,"ifice":8478,"Ġreverse":8479,"Ġsevent":8480,"ranean":8481,"ĠFrancisco":8482,"Ġdense":8483,"Ġattribut":8484,"ĠSystems":8485,"ĠSpirit":8486,"Ġpriority":8487,"ĠBiology":8488,"Ġcontributions":8489,"jo":8490,"Ġmovie":8491,"world":8492,"unct":8493,"ensed":8494,"ĠHawai":8495,"anted":8496,"istant":8497,"Ġhabitats":8498,"Ġphotographs":8499,"Under":8500,"asy":8501,"enced":8502,"Ġempty":8503,"Co":8504,"Sim":8505,"Ġfeels":8506,"Ġensuring":8507,"Ġcorresponding":8508,"ushing":8509,"ician":8510,"ĠEPA":8511,"ipe":8512,"Ġ95":8513,"ĠDO":8514,"Ġsettled":8515,"89":8516,"Sm":8517,"Ġsocieties":8518,"Ġremarkable":8519,"foot":8520,"Ġfatigue":8521,"ĠPass":8522,"ĠBa":8523,"Ġduration":8524,"aints":8525,"Ġchair":8526,"Ġclassified":8527,"ĠConvention":8528,"Ġembra":8529,"http":8530,"ĠLast":8531,"stant":8532,"ĠLin":8533,"Ġappeal":8534,"orig":8535,"ouds":8536,"mentia":8537,"aret":8538,"Ġtelling":8539,"63":8540,"Just":8541,"Ġentering":8542,"Ġbatteries":8543,"Ġtick":8544,"ĠFact":8545,"MP":8546,"CP":8547,"ĠBack":8548,"ĠJacob":8549,"ĠBu":8550,"Ġtransmit":8551,"Ġsad":8552,"ĠPhilipp":8553,"Using":8554,"Â®":8555,"Ġrequirement":8556,"ĠLy":8557,"actions":8558,"Ġ39":8559,"Ġlifetime":8560,"ĠModern":8561,"ĠAgain":8562,"Ġdrivers":8563,"ket":8564,"Ġreferences":8565,"Ġstrike":8566,"encing":8567,"Ġdeeply":8568,"ĠTestament":8569,"Ġconverted":8570,"Ġgast":8571,"Ġsummary":8572,"Ġcolonial":8573,"Ġwatching":8574,"%,":8575,"bel":8576,"Ġcapabilities":8577,"oul":8578,"'.":8579,"uscript":8580,"Ġscope":8581,"Ġcustomer":8582,"Ġpreferred":8583,"agen":8584,"imp":8585,"Ġdifferently":8586,"ĠElizabeth":8587,"Ġshaped":8588,"Ġcontinuing":8589,"ĠHim":8590,"Ġclub":8591,"Ġlowest":8592,"Ġcollective":8593,"Ġpassion":8594,"Ġsaved":8595,"Ġecosystems":8596,"Ġtobacco":8597,"Ġengines":8598,"Ġpromoting":8599,"Ġaccompanied":8600,"59":8601,"Ġnotion":8602,"ĠLos":8603,"Ġabstract":8604,"Ġacting":8605,"Ġviolent":8606,"Ġirrig":8607,"Ġgent":8608,"ĠTO":8609,"Ġcann":8610,"Ġtens":8611,"CL":8612,"thew":8613,")||":8614,"Ġdistricts":8615,"Ġdefinitely":8616,"Ġsustainability":8617,"Ġfires":8618,"Ġremoving":8619,"Ġtip":8620,"Ġevident":8621,"Ġadapted":8622,"ĠAsse":8623,"ĠMur":8624,"Ġclothes":8625,"Ġconclus":8626,"Ġgravity":8627,"ivestock":8628,"Ġequation":8629,"agan":8630,"Ref":8631,"Ġpromise":8632,"Ġloose":8633,"Ġdrinks":8634,"ĠOlymp":8635,"Ġcouncil":8636,"Ġmetals":8637,"ĠSenate":8638,"Ġcrack":8639,"Are":8640,"Ġmarg":8641,"Ġwider":8642,"ĠParliament":8643,"Before":8644,"Ġlosing":8645,"Ġconvey":8646,"Ġ2021":8647,"Ġmanifest":8648,"Ġfet":8649,"Ġdetermining":8650,"Ġdominant":8651,"Ġthread":8652,"ĠLaboratory":8653,"ĠOrig":8654,"kl":8655,"aka":8656,"havior":8657,"iner":8658,"Ġsculpt":8659,"Ġaccord":8660,"Ġenterpr":8661,"Each":8662,"ĠSaint":8663,"Ġweigh":8664,"ĠTurk":8665,"NS":8666,"Ġtrick":8667,"Ġintegration":8668,"Ġintention":8669,"roud":8670,"eutic":8671,"hemistry":8672,"borne":8673,"ĠPoint":8674,"Ġclock":8675,"Ġlock":8676,"Ġprofile":8677,"Ġfisher":8678,"ceans":8679,"ĠEconomic":8680,"Ġmanager":8681,"Ġsodium":8682,"fast":8683,"ĠFred":8684,"Ġcompost":8685,"Ġinfants":8686,"aware":8687,"Ġhall":8688,"ĠCr":8689,"Ġwouldn":8690,"Ġeru":8691,"Ġverb":8692,"ĠWal":8693,"Ġclassical":8694,"Ġranging":8695,"awn":8696,"Ġprayer":8697,"was":8698,"Ġbee":8699,"text":8700,"Ġexisted":8701,"Ne":8702,"ĠWildlife":8703,"ĠImm":8704,"Ġfacilitate":8705,"53":8706,"Ġshore":8707,"ĠIndeed":8708,"Ġcelebrated":8709,"umer":8710,"Ġcomputing":8711,"ĠDown":8712,"erts":8713,"Ġstood":8714,"Ġapplying":8715,"Ġnutritional":8716,"2010":8717,"Ġraising":8718,"Ġwebsites":8719,"Ġwelfare":8720,"Ġdairy":8721,"mentation":8722,"Ġprey":8723,"Ġwithdraw":8724,"aya":8725,"ĠPage":8726,"feed":8727,"Ġspots":8728,"ati":8729,"Ġcow":8730,"Ġspinal":8731,"ĠNavy":8732,"EE":8733,"uan":8734,"chain":8735,"Ġsessions":8736,"ĠCirc":8737,"Ġvirtually":8738,"words":8739,"ĠEgyptian":8740,"ailed":8741,"Ġrecycling":8742,"Ġversus":8743,"Ġpoetry":8744,"Ġseriously":8745,"Ġbuff":8746,"Ġapparently":8747,"Ġ1920":8748,"Ġactively":8749,"Ġorange":8750,"ĠColl":8751,"Ġassert":8752,"Ġlabour":8753,"Who":8754,"ĠAgriculture":8755,"Ġcraft":8756,"Ġsongs":8757,"Ġaging":8758,"Ġdiffer":8759,"ĠCP":8760,"Ġobst":8761,"Ġtransmitted":8762,"Sec":8763,"ĠØ":8764,"Ġtension":8765,"MA":8766,"made":8767,"Ġdies":8768,"!âĢĿ":8769,"fe":8770,"Ġdating":8771,"Ġquantum":8772,"Ġsuit":8773,"Ġoccas":8774,"ĠPhot":8775,"Ġaggressive":8776,"ĠConfed":8777,"ĠAlexander":8778,"Ġhormones":8779,"ĠGreece":8780,"Ġtack":8781,"ĠID":8782,"awa":8783,"Ġsafely":8784,"play":8785,"Ġdevast":8786,"Ġrepresentative":8787,"Ġresistant":8788,"zo":8789,"Ġlinear":8790,"Ġstrategic":8791,"ĠAmazon":8792,"ĠGar":8793,"ologically":8794,"Ġbegun":8795,"Ġpsychology":8796,"Ġteens":8797,"Ġvictory":8798,"ref":8799,"Ġgathered":8800,"Ġasp":8801,"Ġhypothesis":8802,"rh":8803,"ĠSection":8804,"unc":8805,"Ġ34":8806,"Ġhaven":8807,"plo":8808,"specific":8809,"Ġmunicip":8810,"ĠSunday":8811,"mented":8812,"Ġcoat":8813,"sub":8814,"Ġgif":8815,"fulness":8816,"Ġconstra":8817,"Ġliterally":8818,"Ġtom":8819,"ĠSolar":8820,"Ġdevelops":8821,"Ġclassic":8822,"Ġsensor":8823,"'d":8824,"ĠProcess":8825,"Ġrecre":8826,"Ġbarrier":8827,"ĠStan":8828,"Ġsacred":8829,"Ġnoticed":8830,"Ġresil":8831,"usive":8832,"Eng":8833,"Ġcul":8834,"isd":8835,"itting":8836,"ĠCub":8837,"Ġbalanced":8838,"ĠRail":8839,"after":8840,"Ġwars":8841,"Ġhydro":8842,"Ġpilot":8843,"Ġneurons":8844,"Ġ×":8845,"ĠDrug":8846,"Ġcolony":8847,"Ġpione":8848,"Ġtransc":8849,"Ġfrust":8850,"Ġdefault":8851,"ĠConsider":8852,"Ġintegr":8853,"EA":8854,"Ġcooperation":8855,"press":8856,"oline":8857,"Ġclients":8858,"Ġengagement":8859,"Ġcomplexity":8860,"Ġpill":8861,"Ġunn":8862,"ĠSS":8863,"Ġchose":8864,"cho":8865,"ĠAsk":8866,"Ġlimitations":8867,"Ġcotton":8868,"dep":8869,"Ġcontents":8870,"Ġwearing":8871,"Ġdil":8872,"section":8873,"this":8874,"ĠBang":8875,"Ġtelesc":8876,"Ġpurchased":8877,"ĠMedia":8878,"lights":8879,"Then":8880,"ĠBlue":8881,"Ġreadily":8882,"Ġdiscussions":8883,"ĠTreatment":8884,"ĠDigital":8885,"Ġarmed":8886,"Ġfaculty":8887,"Despite":8888,"Ġanticip":8889,"Ð°":8890,"Ġreaches":8891,"omal":8892,"ĠCode":8893,"ĠMax":8894,"unning":8895,"ateral":8896,"Ġassembly":8897,"Ġfunded":8898,"Ġadopt":8899,"ĠNob":8900,"Ġmature":8901,"Ġkingdom":8902,"cin":8903,"ĠTown":8904,"icking":8905,"Ġsymbols":8906,"Ġjuice":8907,"abs":8908,"estions":8909,"Ġfriendly":8910,"Ġcelebrate":8911,"Ġpartnership":8912,"Ġwat":8913,"Ġoccupied":8914,"ĠMess":8915,"Ġsoph":8916,"Ġ120":8917,"Ġpupils":8918,"adelph":8919,"Ġvolunteers":8920,"Ġtone":8921,"Ġcontrolling":8922,"zymes":8923,"olt":8924,"ĠHa":8925,"Ġspacecraft":8926,"Ġstreams":8927,"ĠAvoid":8928,"Ġchromos":8929,"ga":8930,"thod":8931,"Ġrealized":8932,"Ġshorter":8933,"Ġprivile":8934,"operative":8935,"Ġgrades":8936,"books":8937,"52":8938,"EO":8939,"amil":8940,"oded":8941,"Ġsolving":8942,"ĠPu":8943,"Ġears":8944,"Ġsees":8945,"61":8946,"Ġcrown":8947,"Ġpersonnel":8948,"Ġemerged":8949,"Ġinvolvement":8950,"friend":8951,"Ġconvert":8952,"ĠBal":8953,"onday":8954,"Ġtrem":8955,"Ġviral":8956,"Ġexpertise":8957,"ĠNO":8958,"Ġacknowled":8959,"ĠSeveral":8960,"icts":8961,"Ġincent":8962,"Ġscheme":8963,"ĠAR":8964,"Ġforecast":8965,"Ġlogical":8966,"Ġvaries":8967,"Ġchurches":8968,"Ġcompass":8969,"ĠHeritage":8970,"Ġdisplayed":8971,"obile":8972,"Ġspan":8973,"Like":8974,"rue":8975,"Ġpairs":8976,"ilst":8977,"ĠContin":8978,"claim":8979,"Ġfinish":8980,"also":8981,"Ġamino":8982,"Ġimmigrants":8983,"Ġspoke":8984,"Ġrestore":8985,"Ġbarriers":8986,"agnetic":8987,"ĠKey":8988,"Ġholiday":8989,"2011":8990,"Ġbreaking":8991,"ĠSecretary":8992,"atus":8993,"ĠRight":8994,"Ġorigins":8995,"Ġoste":8996,"Ġscat":8997,"Ġtact":8998,"Ġvibr":8999,"green":9000,"Ġmanual":9001,"Ġspecified":9002,"iterranean":9003,"ĠIncre":9004,"Ġsug":9005,"ĠGall":9006,"Ġcough":9007,"ĠMach":9008,"Ġspatial":9009,"lected":9010,"Ġunlikely":9011,"Ġassociate":9012,"Ġlighting":9013,"Source":9014,"Ġalign":9015,"Ġreplacement":9016,"Ġ1940":9017,"mail":9018,"Ġ1989":9019,"Ã±":9020,"Ġreturns":9021,"Ġatoms":9022,"Ġopinions":9023,"ols":9024,"Ġanger":9025,"Ġspecialized":9026,"Ġsaving":9027,"Ġmodule":9028,"2012":9029,":||":9030,"ifier":9031,"2013":9032,"Ġgift":9033,"ospel":9034,"ĠMuslims":9035,"Ġcub":9036,"Ġdeploy":9037,"Ġprevalence":9038,"Ġregime":9039,"Ġenthus":9040,"Ġposts":9041,"Ġpeer":9042,"Ġcouldn":9043,"Ġchoosing":9044,"ĠMusic":9045,"rin":9046,"izz":9047,"Ġhat":9048,"Ġgum":9049,"Ġhandling":9050,"ĠAst":9051,"ĠFil":9052,"Ġpaying":9053,"neum":9054,"Ġassemb":9055,"adelphia":9056,"Ġrecording":9057,"ĠCT":9058,"Ġtap":9059,"Rel":9060,"Ġnom":9061,"Ġplanted":9062,"inois":9063,"Ġownership":9064,"swe":9065,"----":9066,"ĠStandard":9067,"ĠBuilding":9068,"mond":9069,"izers":9070,"Ġvegetable":9071,"Ġreflected":9072,"ĠDie":9073,"Tra":9074,"ĠWikipedia":9075,"Use":9076,"Ġsons":9077,"Ġcellular":9078,"ĠChief":9079,"Ġauto":9080,"Ġcurve":9081,"Ġhal":9082,"Ġthroat":9083,"chnology":9084,"Ġindirect":9085,"ĠLim":9086,"Ġmeaningful":9087,"Ġbleeding":9088,"ĠAbraham":9089,"ĠTemple":9090,"Ġtrace":9091,"Ġmammals":9092,"Ġshed":9093,"Ġtraits":9094,"Rep":9095,"BM":9096,"Ġeverywhere":9097,"Ġrestaur":9098,"Ġdropped":9099,"Ġborrow":9100,"Ġreef":9101,"Ġbreaks":9102,"Ġanalyzed":9103,"62":9104,"Ġcheap":9105,"Ġexploring":9106,"ĠVietnam":9107,"Ġash":9108,"Ġpenet":9109,"Ġsurprise":9110,"Ġenjoyed":9111,"ĠDaniel":9112,"Ġtongue":9113,"ifer":9114,"ĠKent":9115,"oons":9116,"Ġqualities":9117,"Ġfifth":9118,"cut":9119,"Ġgly":9120,"ĠFarm":9121,"Ġdraft":9122,"Ġoils":9123,"Ġutility":9124,"Ġpreserved":9125,"Ġcompetitive":9126,"ĠMove":9127,"assium":9128,"Ge":9129,"reens":9130,"Ġpel":9131,"ocated":9132,"Ġrepresenting":9133,"Ġpasses":9134,"Ġprox":9135,"ĠAndrew":9136,"shaped":9137,"Ġmaxim":9138,"ĠKids":9139,"ĠCapt":9140,"Ġsciences":9141,"Ġannually":9142,"sex":9143,"Ġjoints":9144,"oves":9145,"rowth":9146,"ĠFrid":9147,"ĠImpro":9148,"Ġchicken":9149,"Ġvisits":9150,"Ġdisadvant":9151,"Ġalgorithm":9152,"Ð¾":9153,"ĠHistorical":9154,"Ġalarm":9155,"ĠVe":9156,"ĠPerhaps":9157,"Ġminority":9158,"Ġearthquake":9159,"Ps":9160,"Ġdescend":9161,"Ġprescribed":9162,"function":9163,"Ġpets":9164,"ĠHum":9165,"Ġworkshe":9166,"Ðµ":9167,"ĠNeed":9168,"Ġpace":9169,"Ġpractition":9170,"Two":9171,"Ġwing":9172,"Ġul":9173,"Ġreserved":9174,"Ġprivacy":9175,"Ġgraduate":9176,"OD":9177,"mental":9178,"Ġtill":9179,"Ġsulf":9180,"ĠCommons":9181,"otypes":9182,"ackson":9183,"ĠInvest":9184,"Ġrefused":9185,"Ġnuts":9186,"54":9187,"mble":9188,"acles":9189,"Ġuncle":9190,"Ġsale":9191,"ĠCreek":9192,"Ġaddresses":9193,"Ġburden":9194,"ĠSmall":9195,"Ġshr":9196,"Ġadvances":9197,"onents":9198,"Ġrestoration":9199,"Post":9200,"lock":9201,"Ġsleeping":9202,"ĠBeing":9203,"Ġtends":9204,"Ġattitudes":9205,"Ġbuying":9206,"Ġidentical":9207,"Ġminimal":9208,"Ġworker":9209,"Ġdiarr":9210,"Ġham":9211,"Ġchocolate":9212,"Ġdict":9213,"Ġsuicide":9214,"Ġimpair":9215,"Ġpermit":9216,"bury":9217,"ĠMA":9218,"ghan":9219,"stru":9220,"Ġdocumented":9221,"Ġsister":9222,"ĠConnect":9223,"Ġdiscipline":9224,"aterials":9225,"gments":9226,"amps":9227,"Ġvaried":9228,"Ġreveals":9229,"ĠPortug":9230,"ĠLew":9231,"Ġspecialist":9232,"Ġgardens":9233,"Ġmeetings":9234,"Gl":9235,"Ġbene":9236,"Mar":9237,"Ġevolutionary":9238,"ysical":9239,"Ġbasically":9240,"Ġrequiring":9241,"Ġscenario":9242,"ĠArts":9243,"Ġprofound":9244,"Ġzones":9245,"Ġoverview":9246,"ĠMid":9247,"enter":9248,"Ġol":9249,"Ġinvasion":9250,"Ġdevelopments":9251,"à¥":9252,"Ġ^":9253,"ador":9254,"ĠAff":9255,"Ġclay":9256,"ĠMinistry":9257,"Ġsavings":9258,"power":9259,"uis":9260,"emb":9261,"Ġglobe":9262,"ĠMediterranean":9263,"Ġdipl":9264,"Ġtransferred":9265,"Ġdigestive":9266,"Ġarise":9267,"Ġprecip":9268,"Ġmetabolism":9269,"Ġabsorb":9270,"iblical":9271,"GE":9272,"ouri":9273,"iano":9274,"pring":9275,"outheast":9276,"ĠKorean":9277,"ĠVitamin":9278,"Ġcreativity":9279,"irable":9280,"uled":9281,"Ġtumors":9282,"ocity":9283,"Ġincidence":9284,"93":9285,"Ġconversion":9286,"uity":9287,"Ġherself":9288,"ĠLi":9289,"rizona":9290,"ĠBureau":9291,"Ġsurgical":9292,"ĠBlood":9293,"Ġcited":9294,"Ġparticle":9295,"Ġcurrency":9296,"apped":9297,"ĠFair":9298,"Ġentitled":9299,"Ġvillages":9300,"Ġultimate":9301,"Please":9302,"ĠDiet":9303,"Ġreflection":9304,"86":9305,"pre":9306,"ĠVar":9307,"Ġapplies":9308,"Ġbought":9309,"Ġoutbreak":9310,"ĠHindu":9311,"Ġjoy":9312,"ĠNext":9313,"Ġcertific":9314,"regon":9315,"vation":9316,"olk":9317,"ĠDictionary":9318,"ĠAntar":9319,"Ġsuddenly":9320,"Ġstrange":9321,"Ġmorph":9322,"Ġmedicines":9323,"Ġprime":9324,"Google":9325,"Ġinfluences":9326,"ĠÂ©":9327,"Ġbeneath":9328,"Ġancestors":9329,"Ġbeach":9330,"ogens":9331,"Ġlivestock":9332,"Ġinsights":9333,"ĠEncyclopedia":9334,"Ġswelling":9335,"Ġaccurately":9336,"Ġruled":9337,"Ġcirculation":9338,"Ġdivine":9339,"ricks":9340,"urable":9341,"astics":9342,"science":9343,"ĠHelp":9344,"erally":9345,"Ġprovision":9346,"zone":9347,"ologic":9348,"Ġregistered":9349,"iro":9350,"Ġhier":9351,"rait":9352,"western":9353,"Ġreign":9354,"Ġconsequence":9355,"fly":9356,"Ġhappiness":9357,"2009":9358,"Ġaccomplish":9359,"Ġperfectly":9360,"Ġdistinguish":9361,"rust":9362,"Ġinev":9363,"thur":9364,"ĠVan":9365,"Ġion":9366,"rip":9367,"oked":9368,"ĠMoses":9369,"ĠEll":9370,"Ġenzyme":9371,"bris":9372,"opl":9373,"ĠField":9374,"Ġestate":9375,"Ġsuspect":9376,"Ġtomat":9377,"Ġlakes":9378,"Ġproductive":9379,"Scient":9380,"Ġinhabitants":9381,"Ġpossibilities":9382,"Ġattempted":9383,"ĠOffic":9384,"Ġ42":9385,"Ġillnesses":9386,"mia":9387,"Ġwal":9388,"Ġworkplace":9389,"issance":9390,"Learn":9391,"ĠCentury":9392,"Ġpaintings":9393,"Ġ(âĢľ":9394,"ĠMexican":9395,"Ġjudgment":9396,"Ġpuzz":9397,"Ġdesignated":9398,"quiry":9399,"Ġlegit":9400,"Ġputs":9401,"Ġacceptable":9402,"Ġunderground":9403,"bow":9404,"ĠColon":9405,"TH":9406,"Ġcycles":9407,"ĠDesc":9408,"enda":9409,"Ġcontributing":9410,"Ġrestrictions":9411,"Ġaddressing":9412,"ĠCA":9413,"ĠCost":9414,"ĠIce":9415,"Ġvot":9416,"Ġinitiatives":9417,"ĠObama":9418,"ĠMicrosoft":9419,"Ġtu":9420,"Ġpreparing":9421,"UL":9422,"Ġsending":9423,"Ġcalculate":9424,"ideo":9425,"Ġcompos":9426,"issipp":9427,"giene":9428,"Ġencl":9429,"QL":9430,"erving":9431,"sur":9432,"ĠSanta":9433,"Ġmanuscript":9434,"Ġdiets":9435,"ĠLuc":9436,"ĠLevel":9437,"ĠWhether":9438,"ĠIndones":9439,"Ġreasoning":9440,"ĠHT":9441,"Ġneurolog":9442,"ĠLater":9443,"Ġtranslated":9444,"Ġmagnitude":9445,"Ġabsolutely":9446,"Ġft":9447,"Ġwise":9448,"Ġinvention":9449,"Ġtherm":9450,"Ġtotally":9451,"Ġmotivation":9452,"ĠâĨĳ":9453,"about":9454,"Ġwash":9455,"ceive":9456,"ĠPhiladelphia":9457,"ĠIllinois":9458,"DL":9459,"Ġassignment":9460,"ĠMajor":9461,"ĠÙ":9462,"\")":9463,"97":9464,"Ġrevers":9465,"Ġinvasive":9466,"Ġinstances":9467,"Ġmemor":9468,"Ġdementia":9469,"Ġoutdoor":9470,"Ġphilosoph":9471,"ĠAction":9472,"ritten":9473,"igious":9474,"ĠWhich":9475,"Ġdramatically":9476,"Ġsubsc":9477,"emies":9478,"Ġpowder":9479,"Ġdistant":9480,"ĠSon":9481,"Ġvig":9482,"ĠMic":9483,"Ġdistinction":9484,"Ġconflicts":9485,"Ĥ¬":9486,"Ġcoron":9487,"Ġbias":9488,"Ġpert":9489,"sk":9490,"Ġtransplant":9491,"Ġpandemic":9492,"Ġalumin":9493,"2006":9494,"Ġrooms":9495,"ometer":9496,"2008":9497,"ĠOnt":9498,"ulates":9499,"terior":9500,"Ġpainted":9501,"Ġcuts":9502,"ĠAdam":9503,"Ġalternatives":9504,"elly":9505,"Ġwooden":9506,"Ġestablishing":9507,"ais":9508,"Ġcream":9509,"inces":9510,"ĠNorm":9511,"ĠWeek":9512,"Ġ(\"":9513,"aved":9514,"Ġthemes":9515,"regular":9516,"Ġcopies":9517,"Ġvarying":9518,"Sub":9519,"Ġrod":9520,"Ġquantities":9521,"ĠUV":9522,"ĠAngeles":9523,"Ġchannels":9524,"ĠPain":9525,"Ġdimin":9526,"Ġalert":9527,"isting":9528,"Ġconsent":9529,"isations":9530,"á¹":9531,"ĠRam":9532,"Ġdish":9533,"Ġsubsid":9534,"orus":9535,"ĠDam":9536,"Ġscr":9537,"esium":9538,"Ġelections":9539,"Ġstatistical":9540,"Ġreproductive":9541,"quality":9542,"Ġsurrounded":9543,"Ġbears":9544,"SP":9545,"Ġbonds":9546,"Ġeleph":9547,"Ġ250":9548,"ught":9549,"Ġembed":9550,"Ġpredicted":9551,"ĠPoly":9552,"Ġrelate":9553,"Ġrestricted":9554,"ĠPeace":9555,"ĠHard":9556,"Ġpackage":9557,"Ġphones":9558,"ĠTrust":9559,"Ġcandidate":9560,"Ġoptimal":9561,"Ġbroke":9562,"Ġfavour":9563,"51":9564,"host":9565,"Ġattractive":9566,"Ġsusceptible":9567,"eras":9568,"Ġdisturb":9569,".),":9570,"Students":9571,"Ġ?":9572,"oler":9573,"Ġelectrons":9574,"raine":9575,"Ġsoils":9576,"amic":9577,"pectives":9578,"Ġenforcement":9579,"Ġrainfall":9580,"ĠTurkey":9581,"Ġregulate":9582,"Ġfilms":9583,"Ġwage":9584,"inth":9585,"Ġlob":9586,"ĠUnivers":9587,"Ġcaps":9588,"Ġseparation":9589,"han":9590,"Ġanalyses":9591,"ĠFriday":9592,"Ġtheoretical":9593,"Ġminimize":9594,"ustainable":9595,"ĠBM":9596,"ĠHence":9597,"Ġfascinating":9598,"Ġdisag":9599,"ools":9600,"ictions":9601,"Ġpenal":9602,"Ġempire":9603,"Ġ1988":9604,"Ġlingu":9605,"Ġranges":9606,"aternal":9607,"Ġdevelopmental":9608,"engers":9609,"Ġhonest":9610,"Ġlun":9611,"Ġefficiently":9612,"ĠStation":9613,"eem":9614,"Ġneural":9615,"rub":9616,"ĠEmer":9617,"Ġelementary":9618,"Ġhospitals":9619,"Ġprecisely":9620,"Ġcandidates":9621,"Ġinherent":9622,"Ġdemocratic":9623,"Ġcitizen":9624,".||":9625,"ĠRab":9626,"Ġseal":9627,"plate":9628,"Ġsheep":9629,"Ġisolation":9630,"Ġprosper":9631,"Ġtrail":9632,"ĠIssue":9633,"Ġdimensions":9634,"anwhile":9635,"Ġcalm":9636,"Ġcorporate":9637,"Ġadolescents":9638,"Ġwings":9639,"ĠOften":9640,"Ġscholar":9641,"ĠNutrition":9642,"ĠBush":9643,"Ġabsorption":9644,"Ġoccasionally":9645,"OW":9646,"Ġcamps":9647,"Ġoperated":9648,"sters":9649,"Ġsegment":9650,"ĠBulgar":9651,"Ġthirty":9652,"ceptions":9653,"Ġencounter":9654,"Man":9655,"Ġattributed":9656,"rose":9657,"Ġcombine":9658,"Ġsimultaneously":9659,"92":9660,"worth":9661,"ĠArea":9662,"Ġaside":9663,"Ġpayment":9664,"Ġrobust":9665,"ĠBuddh":9666,"ivities":9667,"Ġproposal":9668,"olves":9669,"Ġmedieval":9670,"Ġallergic":9671,"abling":9672,"Ġseverity":9673,"Ġlecture":9674,"pos":9675,"Ġoptical":9676,"Ġ600":9677,"Ġdoors":9678,"ĠAssembly":9679,"omed":9680,"ĠProble":9681,"ĠRemember":9682,"ĠSqu":9683,"ĠFDA":9684,"ois":9685,"Ġjurisd":9686,"Ġplates":9687,"ugs":9688,"Ġsummar":9689,"Ġending":9690,"Ġsurveys":9691,"ori":9692,"Ġdischarge":9693,"di":9694,"Ġclouds":9695,"Ġscales":9696,"ĠTH":9697,"ethe":9698,"96":9699,"Ġrib":9700,"ouses":9701,"57":9702,"Table":9703,"ĠMain":9704,"View":9705,"ĠGuard":9706,"2007":9707,"ĠPhysical":9708,"**":9709,"orters":9710,"ĠBased":9711,"oca":9712,"Ġgest":9713,"Ġblank":9714,"reprene":9715,"Ġconfusion":9716,"Ġerosion":9717,"Ġneighb":9718,"Ke":9719,"BI":9720,"Ġincorporated":9721,"Click":9722,"Ġrough":9723,"Ġendangered":9724,"Ġelevated":9725,"page":9726,"Ġbags":9727,"Ġextens":9728,"etically":9729,"Ġenzymes":9730,"Ġengineer":9731,"issippi":9732,"esthetic":9733,"ĠOregon":9734,"Ġdried":9735,"ĠHaving":9736,"lectric":9737,"Ġpersu":9738,"Ġceleb":9739,"rons":9740,"Ġho":9741,"Health":9742,"Ġrhythm":9743,"ĠCrit":9744,"Ġflexibility":9745,"best":9746,"Ġkilometers":9747,"Ġperpet":9748,"Ġvisiting":9749,"ĠPhD":9750,"Ġmerch":9751,"Ġnoun":9752,"Ġ1000":9753,"egin":9754,"Ġamongst":9755,"ĠJackson":9756,"Ġlegend":9757,"eling":9758,"ocument":9759,"ĠLine":9760,"profit":9761,"Ġsoy":9762,"Ġrelating":9763,"Ġhybrid":9764,"aven":9765,"even":9766,"Ġperf":9767,"Ġcable":9768,"Ġsediment":9769,"Ġprol":9770,"Ġsatisfact":9771,"ĠJr":9772,"Ġallergies":9773,"Ġencouraging":9774,"ĠBern":9775,"Ġextraord":9776,"Ġadoption":9777,"Ġimagination":9778,"Ġabundance":9779,"Ġlanding":9780,"Ġcollections":9781,"Ġreflects":9782,"Ġmistakes":9783,"ĠStandards":9784,"Ġresemb":9785,"Ġrecall":9786,"Ġfraction":9787,"ĠThanks":9788,"ropol":9789,"Ġbrains":9790,"acle":9791,"ĠTwitter":9792,"Ġrefugees":9793,"ffe":9794,"ĠGarden":9795,"Ġverte":9796,"Ġsynthetic":9797,"Os":9798,"Ġcontinent":9799,"Ġdeposits":9800,"ĠHem":9801,"ĠCH":9802,"Ġpleasure":9803,"ications":9804,"Ġemployee":9805,"Ġmetabolic":9806,"Ġthyroid":9807,"ĠAk":9808,"Ġplasma":9809,"Ġpeers":9810,"ĠPL":9811,"ĠFed":9812,"ivation":9813,"nesota":9814,"Ġduties":9815,"Ġspons":9816,"ĠPlace":9817,"Ġrepeat":9818,"Ġgrammar":9819,"expected":9820,"ĠMarine":9821,"ĠScholar":9822,"Ġswimming":9823,"ĠMot":9824,"Ġboundary":9825,"Ġintra":9826,"oving":9827,"cking":9828,"Ġster":9829,"Ġhopes":9830,"Ġrevenue":9831,"Ġabandoned":9832,"Ġknee":9833,"Ġarc":9834,"III":9835,"itches":9836,"Reg":9837,"urd":9838,"Ġdebris":9839,"duction":9840,"Ġdynamics":9841,"Ġmask":9842,"redit":9843,"Ġbottle":9844,"itic":9845,"Ġinch":9846,"Ġinvented":9847,"cular":9848,"ĠDue":9849,"Ġsurvived":9850,"Ġabol":9851,"ĠView":9852,"Ġregister":9853,".:":9854,"ĠArizona":9855,"Ġgrad":9856,"Ġatmospheric":9857,"ĠMaster":9858,"Ġwidth":9859,"Ġtanks":9860,"ayer":9861,"Ġrays":9862,"Ġsurprised":9863,"Ġdeer":9864,"Ġprevents":9865,"lear":9866,"ĠUnlike":9867,"ĠProduct":9868,"Ġoceans":9869,"Ġsemi":9870,"Ġhung":9871,"Ġcrypt":9872,"isons":9873,"rible":9874,"Ġmurder":9875,"ĠMissouri":9876,"ĠLat":9877,"Ġregulatory":9878,"elihood":9879,"Ġresponsibilities":9880,"ĠSus":9881,"Ġsequences":9882,"who":9883,"Ġpipe":9884,"ĠAsh":9885,"Ġapproval":9886,"Ġburned":9887,"Ġerect":9888,"ĠFish":9889,"Ġcalendar":9890,"Ġmemories":9891,"300":9892,"Ġmagazine":9893,"Ġ44":9894,"Ġminister":9895,"Ġexpanding":9896,"Ġdoses":9897,"Ġinstallation":9898,"Ġpesticides":9899,"Ġpopularity":9900,"Ġtag":9901,"Ġthank":9902,"Ġglob":9903,"Ġfan":9904,"Ġwhenever":9905,"ĠAlaska":9906,"Any":9907,"Ġtab":9908,"Ġarthritis":9909,"Ġsystematic":9910,"ĠCorpor":9911,"Ġcontaminated":9912,"rypt":9913,"Ġcontainers":9914,"olph":9915,"Ġcontamination":9916,"Ġathletes":9917,"Ġtwelve":9918,"ĠAssessment":9919,"ĠPope":9920,"Ġsymptom":9921,"Ġguarantee":9922,"oa":9923,"Ġgate":9924,"reshold":9925,"ĠSchools":9926,"isition":9927,"Ġstere":9928,"Ġpartly":9929,"Ġsuggesting":9930,"Ġalongside":9931,"Ġdivide":9932,"ĠRest":9933,"Ġintr":9934,"ATION":9935,"National":9936,"Ġreh":9937,"Ġexport":9938,"iating":9939,"pdf":9940,"Ġmanagers":9941,"Ġcollecting":9942,"Ġelderly":9943,"Ġdiagram":9944,"Ġconsistently":9945,"Researchers":9946,"rium":9947,"ĠLook":9948,"acon":9949,"ighth":9950,"Ġvalley":9951,"Ġspeaker":9952,"da":9953,"ĠIde":9954,"illance":9955,"Ġconfident":9956,"Ġarrival":9957,"ĠSupport":9958,"2000":9959,"bage":9960,"angel":9961,"they":9962,"Ġvom":9963,"Ġincorporate":9964,"Ġfant":9965,"Ġtreaty":9966,"87":9967,"ĠOp":9968,"ĠMountain":9969,"Ġposted":9970,"Ġexclud":9971,"Ġbull":9972,"ĠOs":9973,"economic":9974,"Ġenhanced":9975,"Ġmyster":9976,"Ġlibraries":9977,"Aut":9978,"ĠOS":9979,"Ġdescribing":9980,"Ġfitness":9981,"Ġholy":9982,"ĠAllah":9983,"ĠWilliams":9984,"Ġhurt":9985,"nea":9986,"Ġcanal":9987,"Ġstrains":9988,"Ġcodes":9989,"ĠAC":9990,"enti":9991,"Ġtherapeutic":9992,"Ġsuggestions":9993,"OP":9994,"Ġentrance":9995,"Ġorganism":9996,"Ġlicense":9997,"urse":9998,"ĠMap":9999,"Ġexhibition":10000,"ĠLog":10001,"Ġgrams":10002,"Ġabundant":10003,"owered":10004,"isticated":10005,"author":10006,"Ġtendency":10007,"Ġsurviv":10008,"ĠWriting":10009,"Ġrh":10010,"ĠFer":10011,"Rem":10012,"ricane":10013,"Ġevaluated":10014,"vae":10015,"Ġpale":10016,"itate":10017,"Ġthrow":10018,"Ġreceives":10019,"Ġspreading":10020,"Ġeaten":10021,"ĠBell":10022,"ĠBest":10023,"Ġabsorbed":10024,"Ġphenomena":10025,"wa":10026,"Yes":10027,"efficient":10028,"Ġshoes":10029,"Ġcharges":10030,"Ġwinds":10031,"Ġachieving":10032,"ĠBrain":10033,"Ġsew":10034,"Ġeconomics":10035,"ĠBetween":10036,"Ġcomplement":10037,"Ġtransformation":10038,"ĠRather":10039,"Ġdentist":10040,"Ġoffices":10041,"ĠAncient":10042,"Ġliberal":10043,"Ġweaken":10044,"ĠClinical":10045,"enh":10046,"Ġ2022":10047,"Ġbron":10048,"ylon":10049,"ipation":10050,"Ġloud":10051,"Ġmutations":10052,"ker":10053,"Ġdisk":10054,"ĠMississippi":10055,"Ġtough":10056,"aylor":10057,"Ġcrimes":10058,"Ġconclusions":10059,"Ġexcav":10060,"Fig":10061,"Ġstabil":10062,"Ġhealthier":10063,"Ġmile":10064,"Ġmail":10065,"Ġfiction":10066,"ĠSP":10067,"ivate":10068,"Ġcave":10069,"Ġstruck":10070,"Ġprovisions":10071,"Ġseasonal":10072,"Ġattributes":10073,"Ġunem":10074,"Ġsubmit":10075,"ĠCharl":10076,"orms":10077,"Ġpollut":10078,"ĠGovernor":10079,"comp":10080,"Ġpartially":10081,"ĠOcc":10082,"Ġproducers":10083,"Ġirrigation":10084,"berries":10085,"ĠKn":10086,"healthy":10087,"Ġsocio":10088,"develop":10089,"ĠOthers":10090,"Ġow":10091,"Ġbusy":10092,"Ġlikelihood":10093,"Ġsectors":10094,"Ġconsisting":10095,"Ġwelcome":10096,"list":10097,"found":10098,"ntil":10099,"TA":10100,"Ġappl":10101,"Ġhumidity":10102,"Ġschem":10103,"ĠMinnesota":10104,"Ġselling":10105,"imen":10106,"ĠPut":10107,"Ġtrading":10108,"ĠCDC":10109,"ashed":10110,"duate":10111,"rics":10112,"Ġcig":10113,"Ġbinding":10114,"Ġbell":10115,"Ġdiagnostic":10116,"Ġutilized":10117,"ĠPDF":10118,"Ġstriking":10119,"ji":10120,"Ġrepet":10121,"ĠPhilos":10122,"Ġbrothers":10123,"Ġspine":10124,"Ġassessments":10125,"Ġadjacent":10126,"anz":10127,"Ġaltered":10128,"Ġsovere":10129,"Ġtower":10130,"Ġmissions":10131,"ubble":10132,"ĠStory":10133,"Ġconsuming":10134,"Will":10135,"ĠSelf":10136,"ĠMind":10137,"Ġaccounting":10138,"Ġfingers":10139,"cal":10140,"step":10141,"law":10142,"ĠTheory":10143,"Ġinjured":10144,"Ġretain":10145,"Ġsensory":10146,"ĠOntario":10147,"ĠEmperor":10148,"ĠNic":10149,"ĠMother":10150,"Ġstraw":10151,"imensional":10152,"Ġpose":10153,"Ġgerm":10154,"Ġhorizontal":10155,"Ġclassification":10156,"2005":10157,"Ġtolerance":10158,"Ġmilit":10159,"Ġcivilization":10160,"Che":10161,"Ġ1987":10162,"Ġawarded":10163,"pert":10164,"ulture":10165,"Ġ85":10166,"ĠJack":10167,"Ġsomewhere":10168,"Ġfibers":10169,"Cop":10170,"ĠWed":10171,"Ġofficially":10172,"fold":10173,"Ġaster":10174,"ctors":10175,"Ġpond":10176,"ĠLocal":10177,"Ġplatforms":10178,"Ġprolong":10179,"Ġattended":10180,"ĠCarib":10181,"Ġpunishment":10182,"orer":10183,"arks":10184,"Ġninet":10185,"Ġpartial":10186,"Ġstretch":10187,"Ac":10188,"ĠTurn":10189,"athan":10190,"Ġappreciate":10191,"yes":10192,"Ġnumer":10193,"ĠScript":10194,"ĠProm":10195,"Ġadministrative":10196,"Ġrepresentatives":10197,"94":10198,"umns":10199,"Ġimpr":10200,"ĠNOT":10201,"Ġimproves":10202,"ĠNether":10203,"Ġfles":10204,"Ġpatent":10205,"Ġargues":10206,"Ġreputation":10207,"Ġfreely":10208,"nia":10209,"erb":10210,"Ġkitchen":10211,"Ġchamber":10212,"Ġpine":10213,"ĠWatch":10214,"Ġdefinitions":10215,"plex":10216,"Ġweekly":10217,"ĠPractice":10218,"ĠRen":10219,"Ġconvenient":10220,"Ġmolecule":10221,"Ġphysicians":10222,"ĠMonday":10223,"ĠWales":10224,"Ġpromising":10225,"Ġpediatric":10226,"phal":10227,"Ġcontrad":10228,"ĠAfghan":10229,"Ġsettlers":10230,"Trans":10231,"ĠIsa":10232,"Ġaffairs":10233,"ĠJersey":10234,"Ġmisc":10235,"ĠLuther":10236,"Ġdesk":10237,"dess":10238,"ĠThird":10239,"ĠBerlin":10240,"ĠNeg":10241,"Ġconnecting":10242,"ĠMatthew":10243,"Ġintegrity":10244,"Ġmuc":10245,"Ġequipped":10246,"compass":10247,"Ġprisoners":10248,"Ġorientation":10249,"Ġproud":10250,"Ġinfin":10251,"Ġpod":10252,"ĠHyd":10253,"91":10254,"inery":10255,"ĠMrs":10256,"ĠClub":10257,"Ġdying":10258,"ĠHit":10259,"Ġdevelopers":10260,"Ġflavor":10261,"ĠUk":10262,"Ġedges":10263,"itzer":10264,"ĠES":10265,"arded":10266,"obic":10267,"iances":10268,"ĠClean":10269,"Ġfatal":10270,"Ġbroader":10271,"Ġvalve":10272,"Ġ1986":10273,"Ġbits":10274,"Ġvelocity":10275,"Ġplacing":10276,"ctu":10277,"Ġsubsequently":10278,"Ġwake":10279,"TP":10280,"Ġshares":10281,"Ġfactory":10282,"Ġforever":10283,"eller":10284,"ĠRisk":10285,"Ġgrace":10286,"Ġcheese":10287,"Ġassault":10288,"yard":10289,"Ġhol":10290,"Ġworkshop":10291,"raid":10292,"ependence":10293,"ĠBuddha":10294,"Finally":10295,"Ġblo":10296,"Ġsalmon":10297,"thood":10298,"CN":10299,"ĠBol":10300,"grade":10301,"jud":10302,"leton":10303,"Ġ64":10304,"Ġcollapse":10305,"ques":10306,"Ġspeakers":10307,"Ġonset":10308,"Ġprevented":10309,"ĠGDP":10310,"adequ":10311,"iosity":10312,"Back":10313,"83":10314,"Ġretail":10315,"Ġcampus":10316,"RNA":10317,"ĠCN":10318,"Ġdevoted":10319,"iac":10320,"Ġsacrifice":10321,"ĠSav":10322,"afe":10323,"ulsion":10324,"Ġpassword":10325,"Ġfinance":10326,"Ġcarbohydrates":10327,"Ass":10328,"iy":10329,"ĠDyn":10330,"formed":10331,"Ġdiscom":10332,"Ġcourage":10333,"Ġcircular":10334,"RS":10335,"Ġmira":10336,"ĠShould":10337,"Ġimplementing":10338,"Ġmirror":10339,"burn":10340,"arios":10341,"ĠAud":10342,"Ġborders":10343,"Ġresidential":10344,"ĠWilson":10345,"ĠTeachers":10346,"utical":10347,"Ġseiz":10348,"acher":10349,"Ġgentle":10350,"aping":10351,"ĠOrder":10352,"Ġtied":10353,"Ġsymb":10354,"ĠCulture":10355,"Ġwireless":10356,"flies":10357,"igm":10358,"Ġpotassium":10359,"Ġparks":10360,"Ġfluor":10361,"ooked":10362,"Ġassistant":10363,"Ġaggreg":10364,"ĠNY":10365,"Ġaccidents":10366,"Ġintermedi":10367,"Ġkeys":10368,"Ġoperational":10369,"Ġsophisticated":10370,"ĠHig":10371,"Ġvine":10372,"ĠLED":10373,"iously":10374,"ĠPrince":10375,"Ġdialogue":10376,"Ġbrush":10377,"Ġgran":10378,"Ġ1945":10379,"Ġpor":10380,"Ġexch":10381,"Ġpredomin":10382,"TER":10383,"estone":10384,"ĠMcC":10385,"Ġinfectious":10386,"atories":10387,"ĠAh":10388,"ĠCS":10389,"Ġalgae":10390,"ĠStill":10391,"ypically":10392,"ĠReserve":10393,"Ġassociations":10394,"Ġparticipating":10395,"84":10396,"Ġpest":10397,"Ġpriest":10398,"Ġattacked":10399,"Ġbullying":10400,"Ġfertilizer":10401,"Ġmalaria":10402,"ĠHot":10403,"early":10404,"Ġshelter":10405,"Through":10406,"800":10407,"Cal":10408,"Ġrent":10409,"ĠVolume":10410,"cor":10411,"ussion":10412,"ĠComputer":10413,"ĠJones":10414,"Ġloan":10415,"ĠApplic":10416,"Ġwashing":10417,"Ġsperm":10418,"Ġdeliber":10419,"Ġvaccination":10420,"Ġalgorithms":10421,"Ġdisplays":10422,"Ġindependently":10423,"type":10424,"atoes":10425,"Ġfirms":10426,"ĠYes":10427,"onsin":10428,"there":10429,"Ġmeteor":10430,"Christ":10431,"Ġacquire":10432,"Ġshade":10433,"ĠJefferson":10434,"Mod":10435,"Ġnodes":10436,"Ġvice":10437,"arten":10438,"Ġtribe":10439,"Ġinvestments":10440,"ĠMaryland":10441,"ika":10442,"Ġappointment":10443,"ÙĲ":10444,"istically":10445,"Ġavoiding":10446,"Ġloop":10447,"inch":10448,"Ġsubstr":10449,"Ġdesigning":10450,"isconsin":10451,"Ġfemin":10452,"Ġinfluenza":10453,"original":10454,"Ġnort":10455,"Ġreturning":10456,"Ġanthrop":10457,"Ġ1900":10458,"Ġnursing":10459,"Ġcoral":10460,"ĠText":10461,"Ġindicating":10462,"ĠFac":10463,"ĠWW":10464,"Ġapps":10465,"ĠPrint":10466,"Ġavoided":10467,"Ġrender":10468,"velength":10469,"gged":10470,"Ġconfused":10471,"Ġeducated":10472,"ĠSud":10473,"Ġbearing":10474,"iotic":10475,"bul":10476,"dd":10477,"Ġthreshold":10478,"Ġpermitted":10479,"ĠTrade":10480,"oult":10481,"ĠCall":10482,"Ġessence":10483,"ursday":10484,"ĠNeuro":10485,"ĠTenn":10486,"ĠMarsh":10487,"run":10488,"emor":10489,"General":10490,"ĠBon":10491,"Ġassessed":10492,"Ġpink":10493,"cts":10494,"Ġunexpected":10495,"Ġdistribut":10496,"Ġdepr":10497,"ĠCorps":10498,"Ġcyl":10499,"Ġspeeds":10500,"BA":10501,"bro":10502,"Ġappet":10503,"Ġbroadcast":10504,"osaur":10505,"Ġhomework":10506,"Ġinspiration":10507,"vol":10508,"Ġgray":10509,"effective":10510,"Ġmini":10511,"Ġhistorians":10512,"aver":10513,"ecessary":10514,"Ġreviewed":10515,"ĠSimilarly":10516,"Ġcloth":10517,"Ġbladder":10518,"Ġlasting":10519,"ĠWithin":10520,"idae":10521,"Ġcluster":10522,"Ġhygiene":10523,"Research":10524,"uble":10525,"Ġsheets":10526,"generation":10527,"Ġdrives":10528,"ĠNG":10529,"itus":10530,"Ġvag":10531,"Ġresolve":10532,"Ġartistic":10533,"Ġspark":10534,"uesday":10535,"ĠArm":10536,"ropriate":10537,"ĠHom":10538,"ÙĨ":10539,"Ġroutes":10540,"thodox":10541,"vy":10542,"friendly":10543,"cled":10544,"only":10545,"otten":10546,"Ġelabor":10547,"nedy":10548,"Ġtherapies":10549,"ĠIntroduction":10550,"Ġoccupation":10551,"Ġ43":10552,"Ġ~":10553,"ĠFig":10554,"Ġcarries":10555,"Ġimmigration":10556,"Ġconcentrated":10557,"ĠTeaching":10558,"PL":10559,"Ġrefrig":10560,"Ġarrive":10561,"ĠIndigenous":10562,"Ġtraveling":10563,"Ġobviously":10564,"Ġpursue":10565,"ĠDemocratic":10566,"case":10567,"uy":10568,"Ġstems":10569,"Ġthoroughly":10570,"ĠPaper":10571,"anol":10572,"olds":10573,"security":10574,"Ġaxis":10575,"eterm":10576,"Ġworn":10577,",'":10578,"Ġcolored":10579,"Ġpreservation":10580,"ĠPrim":10581,"ĠNetherlands":10582,"azz":10583,"Ġsucceeded":10584,"ĠNation":10585,"ĠDiabetes":10586,"Ġexcited":10587,"Ġ800":10588,"Ġdecreases":10589,"abilitation":10590,"Ġpneum":10591,"ĠFuture":10592,"psy":10593,"dominal":10594,"Ġdrops":10595,"Ġprotest":10596,"commun":10597,"Ġteaches":10598,"Ġdispers":10599,"ĠTree":10600,"Ġmeditation":10601,"ĠInteg":10602,"Ġrejected":10603,"uine":10604,"Ġbills":10605,"plan":10606,"Ġmobility":10607,"Ġinjection":10608,"Ġindoor":10609,"Ġkg":10610,"Ġessays":10611,"ĠON":10612,"Ġbark":10613,"Ġelig":10614,"ĠGermans":10615,"rophic":10616,"PV":10617,"ĠNa":10618,"Ġcontrary":10619,"itle":10620,"Ġbuck":10621,"aceutical":10622,"Ġmonthly":10623,"ĠScientific":10624,"Ġharsh":10625,"Ġcompletion":10626,"ĠSab":10627,"Ġhardly":10628,"Ġhide":10629,"akespe":10630,"Ġvector":10631,"Ġchron":10632,"ĠFrancis":10633,"Ġdiarrhea":10634,"uv":10635,"Ġhills":10636,"Ġimportantly":10637,"Ġdistinguished":10638,"PD":10639,"ĠCarl":10640,"Ġmapping":10641,"Ġauthentic":10642,"ĠTib":10643,"Ġimpressive":10644,"Have":10645,"Ġtraditionally":10646,"Ġirregular":10647,"atile":10648,"neg":10649,"81":10650,"teenth":10651,"ĠStudent":10652,"Ġcelebration":10653,"Ġdiscomfort":10654,"Ġpredators":10655,"Ġreviews":10656,"Ġmanufacturer":10657,"ĠTraining":10658,"forced":10659,"Ġtracking":10660,"insula":10661,"ĠSem":10662,"Ġallergy":10663,"ĠThink":10664,"Ġaccomplished":10665,"Ġyes":10666,"Ġstruggling":10667,"ĠWorking":10668,"ĠWalk":10669,"Ġadaptation":10670,"ĠRedu":10671,"Ã¨":10672,"agle":10673,"asses":10674,"Ġfault":10675,"Ġadministered":10676,"akespeare":10677,"Ġtalks":10678,"iatric":10679,"ĠRomans":10680,"Ġtoxins":10681,"Ġmonument":10682,"Ġexpressions":10683,"fire":10684,"Ġthesis":10685,"Ġundergo":10686,"bat":10687,"nals":10688,"ĠExamples":10689,",âĢĻ":10690,"Further":10691,"Ġbind":10692,"ĠMes":10693,"Ġenabled":10694,"Def":10695,"spring":10696,"ĠCenters":10697,"Ġcameras":10698,"quarters":10699,"Ġtremend":10700,"dis":10701,"âĢĿ)":10702,"Ġwritings":10703,"nesday":10704,"ĠSn":10705,"Ġconfront":10706,"uclear":10707,"ĠFa":10708,"ĠFull":10709,"Ġenlar":10710,"Ġtracks":10711,"ĠResearchers":10712,"doors":10713,"Ġheal":10714,"Ġconstitutional":10715,"income":10716,"Î±":10717,"Ġbeet":10718,"ĠShort":10719,"Ġradi":10720,"Ġearned":10721,"sequently":10722,"CI":10723,"omatic":10724,"anche":10725,"ĠDavis":10726,"Ġsituated":10727,"Ġrats":10728,"Ġgovernor":10729,"ĠSyria":10730,"ĠMarc":10731,"istent":10732,"reatment":10733,"Ġgaps":10734,"Ġprone":10735,"Ġattain":10736,"Ġdiscl":10737,"stic":10738,"Ġentreprene":10739,"Ġupdate":10740,"Ġconfiguration":10741,"Ġbite":10742,"anium":10743,"Ġdeadly":10744,"Ġextinction":10745,"ĠPoland":10746,"Ġbeam":10747,"ĠDifferent":10748,"Ġfounder":10749,"Ġaffordable":10750,"Dep":10751,"iph":10752,"Ġnerves":10753,"Ġes":10754,"ĠFollowing":10755,"Ġrelatives":10756,"Ġtransformed":10757,"Ġimplies":10758,"Ġdemonstrates":10759,"ĠLewis":10760,"ĠCaribbean":10761,"hedral":10762,"gregation":10763,"onymous":10764,"Ġexplored":10765,"aying":10766,"ĠQuestions":10767,"Ġfate":10768,"Ġrear":10769,"Ġleak":10770,"ĠAnimal":10771,"ĠStephen":10772,"icides":10773,"Ġrend":10774,"Ġhill":10775,"Ġhazards":10776,"Ġpromotes":10777,"fare":10778,"ãģ":10779,"Ġ41":10780,"Ġdefines":10781,"ĠTar":10782,"ĠCore":10783,"Ġpersistent":10784,"Ġhack":10785,"DR":10786,"ĠTel":10787,"ĠNep":10788,"Ġ1984":10789,"Ġpathways":10790,"Ġarranged":10791,"Ġantibodies":10792,"Ġdefects":10793,"400":10794,"role":10795,"Ġsynthesis":10796,"agger":10797,"Ġdestination":10798,"ĠHo":10799,"Ġspir":10800,"front":10801,"Ġnic":10802,"ĠMuch":10803,"Ġfeatured":10804,"ela":10805,"Ġcrust":10806,"Ġmi":10807,"thal":10808,"ĠHarr":10809,"ĠScientists":10810,"oved":10811,"Ġlabels":10812,"Ġportray":10813,"ĠWars":10814,"actic":10815,"ĠInterest":10816,"Ġqualified":10817,"Ġhunger":10818,"Ġcounties":10819,"iking":10820,"Ġethics":10821,"Ġpublications":10822,"Ġoccurrence":10823,"Ġsampling":10824,"Ġpock":10825,"ĠWisconsin":10826,"Ġprescription":10827,"Cs":10828,"chron":10829,"rac":10830,"Ġexpedition":10831,"onin":10832,"upiter":10833,"ĠReal":10834,"ronaut":10835,"Ġprogressive":10836,"Ġcontroversial":10837,"Ġcolumns":10838,"sch":10839,"Ġflooding":10840,"vi":10841,"Ġrecommends":10842,"Ġsearching":10843,"arians":10844,"Ġsteady":10845,"ĠKansas":10846,"Ġdistract":10847,"Ġemployers":10848,"ammad":10849,"Ġinver":10850,"ermat":10851,"ĠQur":10852,"Ġindicators":10853,"Ġrobots":10854,"Ġutilize":10855,"BD":10856,"Ġpests":10857,"don":10858,"orney":10859,"ressing":10860,"aze":10861,"Ġhistorian":10862,"ja":10863,"Ġsubmitted":10864,"Ġoverwhelming":10865,"Ġoutline":10866,"Ġaccompany":10867,"ĠCR":10868,"Ġprogression":10869,"Ġlarvae":10870,"heastern":10871,"ceeds":10872,"verages":10873,"Ġextraordinary":10874,"Well":10875,"ĠHon":10876,"rels":10877,"Ġafraid":10878,"ĠHop":10879,"Ġillustrated":10880,"Ġempower":10881,"Ġmart":10882,"Ġsustained":10883,"High":10884,"Ġgear":10885,"ĠEnt":10886,"Ġfallen":10887,"ĠDuke":10888,"Ġruling":10889,"Ġmistake":10890,"Ġrubber":10891,"Ġpap":10892,"Ġ978":10893,"Ġcompliance":10894,"date":10895,"high":10896,"Ġcope":10897,"ĠBio":10898,"ĠAz":10899,"Ġdoctrine":10900,"ĠProtest":10901,"ĠMathemat":10902,"Water":10903,"Ġencourages":10904,"Ġber":10905,"Ġorganisation":10906,"Children":10907,"ĠDid":10908,"Ġtourism":10909,"Ġdefeat":10910,"umbers":10911,"Ġtermin":10912,"oil":10913,"Ġ`":10914,"Ġcontinuously":10915,"ĠGM":10916,"ĠImport":10917,"Ġshallow":10918,"LS":10919,"Ġ1985":10920,"Ġmercury":10921,"ĠDal":10922,"Ġride":10923,"His":10924,"Ġtorn":10925,"ĠArabic":10926,"Ġinflation":10927,"ĠFront":10928,"Ġboxes":10929,"ĠSource":10930,"Ġemit":10931,"Ġconducting":10932,"ĠJon":10933,"ĠKennedy":10934,"Ġrom":10935,"Ġenact":10936,"ĠJim":10937,"ĠExec":10938,"Ġnotable":10939,"Ġfeather":10940,"Ġdistances":10941,"Ġsafer":10942,"Ġcomparing":10943,"Ġcalculations":10944,"ĠBuddhist":10945,"inflamm":10946,"Ġembedded":10947,"Ġanat":10948,"Ġprecision":10949,"ĠPython":10950,"Ġbrowser":10951,"Ġnamely":10952,"Ġsenses":10953,"ĠHispan":10954,"ĠSac":10955,"Ġassumptions":10956,"urated":10957,"Ġinstant":10958,"Ġparliament":10959,"ĠVictoria":10960,"swered":10961,"velt":10962,"Ġpries":10963,"Ġfluids":10964,"Ġelectronics":10965,"Ġepidemic":10966,"Ġmystery":10967,"Ġvoting":10968,"2004":10969,"ĠAmendment":10970,"ĠJun":10971,"Ġsubtle":10972,"iversary":10973,"Ġaccordance":10974,"Ġwed":10975,"Ġdeleg":10976,"auc":10977,"Ġaluminum":10978,"school":10979,"Ġgenetics":10980,"Ġregen":10981,"Ð¸":10982,"Ġdiver":10983,"Ġgenerating":10984,"Ġmetap":10985,"ĠIndividual":10986,"Ġtiming":10987,"ĠProper":10988,"inian":10989,"Ġlying":10990,"Ġhighlights":10991,"ĠDun":10992,"Ġorganisations":10993,"Ġcapability":10994,"IST":10995,"burgh":10996,"Ġprospect":10997,"ĠHur":10998,"Ġgenus":10999,"Ġasks":11000,"ĠJava":11001,"Ġshouldn":11002,"Ġvacuum":11003,"Ġobser":11004,"Ġguns":11005,"Ġbrid":11006,"ĠNazi":11007,"atre":11008,"Ġcircles":11009,"ĠMonth":11010,"Ġthrive":11011,"Ġdrainage":11012,"Ġatomic":11013,"ĠOil":11014,"ognition":11015,"Ġarbit":11016,"Ġswallow":11017,"Ġreserve":11018,"Ġsurre":11019,"ercise":11020,"Ġnecessity":11021,"ĠIntellig":11022,"arer":11023,"Ġfertility":11024,"Ġalike":11025,"ĠRay":11026,"Ġinvited":11027,"Ġmodeling":11028,"ECT":11029,"ĠPhysics":11030,"entieth":11031,"Ġlunch":11032,"ierce":11033,"Ġsle":11034,"Ġ47":11035,"Ġmeter":11036,"Ġpushed":11037,"Ġcycl":11038,"Ġlift":11039,"ĠApple":11040,"ĠEconom":11041,"nings":11042,"reement":11043,"ĠBehavior":11044,"Ġimperial":11045,"Ġmud":11046,"pson":11047,"Ġexclusively":11048,"Ġ%":11049,"Ġnick":11050,"Ġheter":11051,"owners":11052,"ĠDarwin":11053,"Ġpubl":11054,"ĠPath":11055,"ĠNevertheless":11056,"82":11057,"PDF":11058,"Ġwavelength":11059,"Ġà¤":11060,"Ġloyal":11061,"ulator":11062,"emet":11063,"uster":11064,"some":11065,"ogram":11066,"Ġdiscoveries":11067,"ĠCase":11068,"Ġwhales":11069,"ĠChap":11070,"Ġloans":11071,"Ġtelephone":11072,"Ġthickness":11073,"yan":11074,"ĠLeague":11075,"Ġinadequ":11076,"arium":11077,"ĠAnne":11078,"Ġtoys":11079,"Ġreplic":11080,"Ġmarkers":11081,"ĠCit":11082,"ocent":11083,"osevelt":11084,"Ġintelligent":11085,"Ġoverweight":11086,"Ġshoulder":11087,"Ġgathering":11088,"Ġvomiting":11089,"ĠHung":11090,"Ġartif":11091,"Ġassumption":11092,"Ġdinner":11093,"Ġdow":11094,"Ġdeterior":11095,"Ġtape":11096,"rying":11097,"Ġliberty":11098,".-":11099,"Ġspecimens":11100,"Ġemerge":11101,"Ġintegral":11102,"EV":11103,"hard":11104,"hops":11105,"Ġjaw":11106,"Ġopens":11107,"Ġseverely":11108,"ĠRog":11109,"akh":11110,"Ġthorough":11111,"Ġconsensus":11112,"2017":11113,"Ġcategor":11114,"ĠDaily":11115,"enders":11116,"eared":11117,"igration":11118,"Ġreferring":11119,"Ġattracted":11120,"Ġreservoir":11121,"ĠLinux":11122,"ĠMoh":11123,"ĠBow":11124,"ĠHitler":11125,"Ġlegacy":11126,"Ġgolden":11127,"ĠSher":11128,"Ġscenarios":11129,"Ġgains":11130,"Ġsolely":11131,"Ġfrozen":11132,"xic":11133,"Ġseasons":11134,"ĠMP":11135,"ondition":11136,"Ġhang":11137,"ĠHas":11138,"ĠDeath":11139,"erness":11140,"ĠGiven":11141,"Ġencompass":11142,"ternoon":11143,"Ġ46":11144,"Ġfoster":11145,"phones":11146,"Ã³n":11147,"ĠPA":11148,"Ġenemies":11149,"Ġdominated":11150,"ergarten":11151,"Ġadvertising":11152,"aturday":11153,"ochond":11154,"bet":11155,"Ġrings":11156,"ĠGre":11157,"Ġrestored":11158,"Ġpoorly":11159,"Ġcerv":11160,"anas":11161,"Ġhip":11162,"Ġfrog":11163,"ĠEvent":11164,"ĠIndex":11165,"Ġarrangement":11166,"Ġtoile":11167,"olecular":11168,"iki":11169,"ĠFlow":11170,"ikes":11171,"Ġrealistic":11172,"Ġstakeholders":11173,"Ġspelling":11174,"etry":11175,"ĠSweden":11176,"!)":11177,"Ġexecution":11178,"ĠSamuel":11179,"Ġfilling":11180,"ĠHu":11181,"Ġ1979":11182,"Spec":11183,"Ġpipes":11184,"Ġinequality":11185,"non":11186,"ĠÂ°":11187,"Ġcontributes":11188,"father":11189,"Ġanten":11190,"Ġirre":11191,"ĠAvailable":11192,"Ġmarch":11193,"Ġdollar":11194,"ĠTherapy":11195,"ĠChall":11196,"Ġreserves":11197,"ĠDiego":11198,"restrial":11199,"onics":11200,"stration":11201,"ushed":11202,"ĠKim":11203,"Ġlocally":11204,"Ġscenes":11205,"ĠEthiop":11206,"Both":11207,"Ġalk":11208,"Ġsuspected":11209,"eav":11210,"Ġjew":11211,"Ġdegradation":11212,"Ġportions":11213,"human":11214,"govern":11215,"Ġcorrelation":11216,"Scientists":11217,"ĪĴ":11218,"Ġreson":11219,"Ġskull":11220,"Ġquote":11221,"Ġextrem":11222,"Ġfacial":11223,"Ġrotation":11224,"HT":11225,"Ġcommod":11226,"ĠAltern":11227,".]":11228,"Ġought":11229,"Ġdehyd":11230,"âĤ¬":11231,"ĠTro":11232,"gered":11233,"ĠSTEM":11234,"ĠTurkish":11235,"iors":11236,"arest":11237,"Ġweapon":11238,"feeding":11239,"Ġmakers":11240,"Ġmasses":11241,"ĠUnderstanding":11242,"Ġmultip":11243,"Ġimmunity":11244,"Ġalien":11245,"El":11246,"uty":11247,"Ġcoinc":11248,"Ġinvestigated":11249,"Ġstrand":11250,"ĠHan":11251,"Ġenabling":11252,"icked":11253,"Ġboards":11254,"asures":11255,"owa":11256,"Ġdistinctive":11257,"first":11258,"orb":11259,"Ġcha":11260,"ez":11261,"Ġ1800":11262,"Ġstops":11263,"ĠUrban":11264,"Ġcong":11265,"Ġanswered":11266,"Ġprotects":11267,"ĠFive":11268,"Ġsimulation":11269,"Ġcounterpart":11270,"ĠCold":11271,"ĠObject":11272,"ĠTibet":11273,"Â©":11274,"Ġdesigners":11275,"emetery":11276,"arter":11277,"ĠUnit":11278,"Ġinsu":11279,"Ġmatrix":11280,"Jan":11281,"Ġorn":11282,"2014":11283,"Ġstimulate":11284,"Ġfifty":11285,"Ġincredible":11286,"grim":11287,"âĦ":11288,"ĠBalt":11289,"Ġcasual":11290,"Ġthinks":11291,"Ġgeographic":11292,"ĠLarge":11293,"Ġsel":11294,"imals":11295,"dimensional":11296,"lings":11297,"Ġpatri":11298,"Ġnewspapers":11299,"onent":11300,"orie":11301,"Ġvow":11302,"Ġemission":11303,"ĠSpecies":11304,"ĠSymptoms":11305,"lyn":11306,"Ġclassrooms":11307,"aft":11308,"ĠTaylor":11309,"Ġmutual":11310,"ĠScottish":11311,"Ġmes":11312,"Ġprostate":11313,"ountered":11314,"Ġgenetically":11315,"olescent":11316,"Ġcooked":11317,"Ġmarginal":11318,"arts":11319,"conf":11320,"ĠStatistics":11321,"Ġintensive":11322,"Ġquad":11323,"Ġvolumes":11324,"Ġpicked":11325,"Ġfurniture":11326,"obs":11327,"Ġpoliticians":11328,"Ġverse":11329,"ART":11330,"Prof":11331,"natural":11332,"oning":11333,"anth":11334,"otyp":11335,"Ġcareg":11336,"ĠBarb":11337,"Ant":11338,"ĠChemical":11339,"Instit":11340,"Ġmoments":11341,"Ġrepublic":11342,"Ġconsiderably":11343,"UM":11344,"nected":11345,"ĠTalk":11346,"essional":11347,"Ġmagnet":11348,"Gu":11349,"asse":11350,"ĠShakespeare":11351,"Ġstorms":11352,"range":11353,"Ġovers":11354,"Ġtransactions":11355,"onomous":11356,"Ġcatast":11357,"ĠConc":11358,"Ġdismiss":11359,"rared":11360,"ĠHay":11361,"Ġuncertainty":11362,"ĠMovement":11363,"imedia":11364,"Ġsurveillance":11365,"Ġyard":11366,"2015":11367,"Ġdangers":11368,"Ġcensus":11369,"Ġbor":11370,"Ġbehalf":11371,"AF":11372,"efits":11373,"Ġcondem":11374,"Ġoriginated":11375,"Ġrepeatedly":11376,"Ġincredibly":11377,"Ġacceptance":11378,"Ġdiscussing":11379,"Ġhazardous":11380,"Ã§":11381,"ĠRose":11382,"Ġpayments":11383,"Ġpitch":11384,"ĠRepublican":11385,"Ġhypert":11386,"!\"":11387,"omon":11388,"ĠImper":11389,"Ġbulk":11390,"olit":11391,"Ġanalog":11392,"Ġdetermination":11393,"ĠBh":11394,"ĠGir":11395,"formance":11396,"rass":11397,"igma":11398,"Ġviable":11399,"Ġvon":11400,"Ġinfluential":11401,"ĠGuid":11402,"Ġcatal":11403,"ĠWHO":11404,"Ġignore":11405,"Ġlapt":11406,"Ġprosec":11407,"Ġfilters":11408,"Ġbattles":11409,"ĠNumber":11410,"vals":11411,"Ġimpression":11412,"ĠLeon":11413,"Ġperipher":11414,"ĠConstant":11415,"World":11416,"ĠLiving":11417,"Ġadmitted":11418,"orient":11419,"ivals":11420,"ĠFram":11421,"Ġillustrate":11422,"Ġmethane":11423,"Ag":11424,"Find":11425,"Ġsyll":11426,"alo":11427,"icting":11428,"acular":11429,"Ġcompat":11430,"Ġlicensed":11431,"supp":11432,"Ġflesh":11433,"Ġchapters":11434,"Ġbrill":11435,"Ġencountered":11436,"atching":11437,"Ġpackaging":11438,"Ġexecuted":11439,"ĠFOR":11440,"Ġtransf":11441,"Ġinclusion":11442,"ulus":11443,"Ġoutdoors":11444,"Ġpreschool":11445,"Ġmetres":11446,"ĠPsychology":11447,"ĠNi":11448,"inea":11449,"Ġrelieve":11450,"mic":11451,"Ġhorn":11452,"Ġdeclined":11453,"Ġignored":11454,"Ġacknowledge":11455,"Ġunto":11456,"Ġpupp":11457,"Ġkings":11458,"Ġorganize":11459,"ĠAIDS":11460,"Ġpresum":11461,"makers":11462,"isible":11463,"uns":11464,"anna":11465,"Ġstressed":11466,"Ġvapor":11467,"Ġrises":11468,"Ġinstitutional":11469,"Ġinspect":11470,"ĠFle":11471,"avirus":11472,"Ġphases":11473,"stud":11474,"ĠUlt":11475,"Ġsupplied":11476,"Ġsinging":11477,"Ġperspectives":11478,"seud":11479,"Ġconversations":11480,"Ġalphabet":11481,"Ġforb":11482,"eland":11483,"Ġgenuine":11484,"ĠTransport":11485,"osphere":11486,"arding":11487,"ĠBridge":11488,"Ġaquatic":11489,"Ġpec":11490,"Ġviewing":11491,"Ġcompensation":11492,"hour":11493,"kh":11494,"ĠMong":11495,"emed":11496,"Ġeconomies":11497,"ĠEducational":11498,"Ġapplicable":11499,"2003":11500,"Ġapple":11501,"Ġdisappear":11502,"Ġappetite":11503,"Ġwages":11504,"Ġtexture":11505,"Ġfrequencies":11506,"Ġprevalent":11507,"aus":11508,"Ġpride":11509,"inition":11510,"Ġgums":11511,"ĠFord":11512,"ĠName":11513,"Ġunity":11514,"Ġoverse":11515,"Ġphrases":11516,"Ġchains":11517,"rup":11518,"Ġreproduction":11519,"Ġcompassion":11520,"Ġ49":11521,"Ġpowered":11522,"ĠSix":11523,"Ġcoordination":11524,"Ġracism":11525,"Ġterritories":11526,"Ġpanc":11527,"icut":11528,"Ġcriticism":11529,"Ġrescue":11530,"Ġphilosophical":11531,"ĠMand":11532,"Ġdigit":11533,"Ġcardiac":11534,"Ġpoems":11535,"Ġdetermines":11536,"Ġtubes":11537,"pm":11538,"iler":11539,"ĠQuality":11540,"Ġinterpreted":11541,"Ġeducate":11542,"Ġinvestors":11543,"Ġparticipated":11544,"ĠRoosevelt":11545,"Ġshield":11546,"Though":11547,"Ġic":11548,"ochemical":11549,"ĠYears":11550,"ĠÂ·":11551,"ashing":11552,"Ġceremony":11553,"Ġmainstream":11554,"elson":11555,"uilt":11556,"ĠIron":11557,"ancial":11558,"Based":11559,"ĠNap":11560,"reating":11561,"Ġflowing":11562,"Ġpathway":11563,"Ġdiagnose":11564,"Ġconclude":11565,"ĠPap":11566,"Ġfled":11567,"Ġmagnesium":11568,"ĠJupiter":11569,"Ġepisode":11570,"Aug":11571,"uct":11572,"Ġgau":11573,"sized":11574,"olas":11575,"Ġsatellites":11576,"Ġconservative":11577,"EW":11578,"yo":11579,"Ġnas":11580,"keys":11581,"Ġdisput":11582,"Ġexpend":11583,"isphere":11584,"Ġantibiotic":11585,"Ġexpenses":11586,"osex":11587,"Intern":11588,"letter":11589,"Ġ1983":11590,"Ġpollen":11591,"Ġsoap":11592,"Ġcaffe":11593,"Ġfestival":11594,"Ġconjunction":11595,"ausea":11596,"Ġcataly":11597,"Ġanch":11598,"ĠWin":11599,"Ġtimber":11600,"FA":11601,"Ġwhilst":11602,"aki":11603,"Ġblacks":11604,"Ġdimension":11605,"Ġaccessed":11606,"Ġbugs":11607,"Ġinherited":11608,"Ġseeks":11609,"thening":11610,"ĠZh":11611,"good":11612,"Ġtang":11613,"Ġscal":11614,"Ġexplaining":11615,"VD":11616,"Ġgroundwater":11617,"Ġdepartments":11618,"rell":11619,"ĠSleep":11620,"Ġepidem":11621,"Ġgalaxy":11622,"stead":11623,"Ġ99":11624,"Ġlimiting":11625,"Ġdamaging":11626,"ĠPear":11627,"Ġincorrect":11628,"Ġyields":11629,"viously":11630,"Ġarchitectural":11631,"ĠFreder":11632,"Ġequations":11633,"Ġwax":11634,"Ġguides":11635,"ĠJean":11636,"Ġprotocols":11637,"ĠIndonesia":11638,"pur":11639,"Take":11640,"ilateral":11641,"Ġnurse":11642,"ĠEle":11643,"ĠTreaty":11644,"GS":11645,"ĠIniti":11646,"ĠLower":11647,"Ġhearts":11648,"Ġchecking":11649,"Ġprecious":11650,"Ġmounted":11651,"bral":11652,"ĠJane":11653,"Ġfolk":11654,"Ġemperor":11655,"screen":11656,"Ġtired":11657,"Ġbowel":11658,"inton":11659,"Ġwealthy":11660,"ĠDefense":11661,"aug":11662,"Ġnineteenth":11663,"ĠSep":11664,"ructive":11665,"riction":11666,"ĠGh":11667,"ĠNS":11668,"Ġextraction":11669,"Next":11670,"Ġrevolutionary":11671,"Bel":11672,"RL":11673,"eous":11674,"Ġbin":11675,"hr":11676,"Ġbands":11677,"arma":11678,"Ġbelonging":11679,"fu":11680,"ĠSex":11681,"ewater":11682,"yt":11683,"Ġdirectory":11684,"ĠBelg":11685,"Ġshadow":11686,"Ġdreams":11687,"ĠMaking":11688,"Ġcostly":11689,"Ġrocket":11690,"ĠLt":11691,"aund":11692,"Ġafternoon":11693,"bin":11694,"lob":11695,"othy":11696,"Ġskilled":11697,"ĠBor":11698,"vasive":11699,"Ġcommands":11700,"roleum":11701,"Hz":11702,"opt":11703,"Ġepit":11704,"ĠCreative":11705,"ĠBuddhism":11706,"sl":11707,"ĠOpp":11708,"Ġdishes":11709,"Ġbiomass":11710,"ĠEssay":11711,"Ġarrested":11712,"bestos":11713,"Ġheadaches":11714,"Ġshipping":11715,"Ġpassive":11716,"Ġpaths":11717,"Ġchecked":11718,"gon":11719,"orse":11720,"Ġstuck":11721,"ĠMountains":11722,"Ġtransparent":11723,"Ġwra":11724,"Ġlith":11725,"ĠDepression":11726,"has":11727,"ĠMos":11728,"ĠMission":11729,"Ġabdominal":11730,"Ġ51":11731,"ĠADHD":11732,"Ġinterviews":11733,"ĠGrant":11734,"when":11735,"ĠFlu":11736,"Ġgrants":11737,"ĠEnter":11738,"Ġbeds":11739,"ĠCe":11740,"Ġmutation":11741,"ĠSa":11742,"ĠBan":11743,"ĠRub":11744,"Ġoxide":11745,"Ġcrowd":11746,"âĦ¢":11747,"Ġtraveled":11748,"Ġodd":11749,"Ġfarmer":11750,"Ġinitiated":11751,"shore":11752,"Ġstiff":11753,"ĠYellow":11754,"post":11755,"zant":11756,"ĠTen":11757,"Ġdecent":11758,"iplinary":11759,"oultry":11760,"Ġcrossing":11761,"laration":11762,"ĠKnowledge":11763,"Oct":11764,"ifferent":11765,"Ġpathogens":11766,"cm":11767,"iley":11768,"Ġresidence":11769,"Ġfeas":11770,"Ġdescriptions":11771,"py":11772,"ĠMental":11773,"ĠFA":11774,"Ġabroad":11775,"Ġchip":11776,"ĠSoft":11777,"Ġrecovered":11778,"Make":11779,"Ġbelt":11780,"ĠBapt":11781,"ĠFall":11782,"activity":11783,"Ġexpense":11784,"Ġcombust":11785,"Ġdefeated":11786,"Ġpollutants":11787,"po":11788,"held":11789,"ishers":11790,"Ġpatch":11791,"Ġindicator":11792,"Ġrecycled":11793,"Ġicon":11794,"Ġgaining":11795,"ĠCra":11796,"Ġgovernance":11797,"ĠAccount":11798,"Ġneighbors":11799,"ni":11800,"illy":11801,"Ġinflammatory":11802,"Ġreceptors":11803,"ĠCape":11804,"gebra":11805,"Ġpulled":11806,"ĠSM":11807,"Ġintu":11808,"attle":11809,"opter":11810,"Ġextends":11811,"ĠCaptain":11812,"Ob":11813,"osity":11814,"Ġpropos":11815,"Ġglobally":11816,"white":11817,"Ġcomparable":11818,"Ġyeast":11819,"ĠPrime":11820,"Ġcod":11821,"Ġgrey":11822,"Ġcolleges":11823,"Ġpalm":11824,"ĠVers":11825,"Ġpassengers":11826,"Ġattempting":11827,"will":11828,"Ġsket":11829,"ibration":11830,"Ġmeets":11831,"Ġwarmer":11832,"appropriate":11833,"Ġclusters":11834,"ĠAfghanistan":11835,"Ġdecomp":11836,"Ġ56":11837,"ĠMuh":11838,"ĠGreg":11839,"Ġresur":11840,"Ġprogrammes":11841,"ordan":11842,"Ġgrave":11843,"Ġmultipl":11844,"Ġsteep":11845,"Europe":11846,"Pat":11847,"Ġgland":11848,"Ġsmallest":11849,"ĠEnc":11850,"Ġ@":11851,"osaurs":11852,"ĠAges":11853,"ĠOm":11854,"Ġadul":11855,"ĠSearch":11856,"Ġzinc":11857,"Ġhosts":11858,"Ġatom":11859,"ĠâĢĿ":11860,"Ġensures":11861,"Ġdisposal":11862,"Ġfleet":11863,"Ġaids":11864,"onto":11865,"Ġtomb":11866,"ĠEdition":11867,"ĠArthur":11868,"Ġelectrom":11869,"Ġreligions":11870,"ĠPhilip":11871,"FL":11872,"ĠDom":11873,"Ġdisasters":11874,"ĠPhilippines":11875,"assment":11876,"lessly":11877,"educ":11878,"Ġdevastating":11879,"two":11880,"Ġsorts":11881,"rock":11882,"abetic":11883,"Ġobese":11884,"Ġexamining":11885,"ĠMiller":11886,"iotics":11887,"Ġignor":11888,"ĠRepresent":11889,"ĠPoll":11890,"Ġpossession":11891,"EST":11892,"osynt":11893,"Ġvolunteer":11894,"uz":11895,"Ġdispar":11896,"Ġmanufactured":11897,"gram":11898,"itored":11899,"Ġangles":11900,"Ġarchaeological":11901,"Ġ52":11902,"Those":11903,"egu":11904,"Ġshortly":11905,"Ġphysiological":11906,"ĠIndustrial":11907,"God":11908,"eld":11909,"ĠArist":11910,"Ġgastro":11911,"ĠLind":11912,"Ġpersonally":11913,"Orig":11914,"ĠRus":11915,"Ġfee":11916,"Ġsubstitute":11917,"Ġunnecessary":11918,"vo":11919,"abama":11920,"Ġric":11921,"ĠCarbon":11922,"Ġabsent":11923,"Ġverbal":11924,"ilty":11925,"Ġdocumentation":11926,"Ġnucleus":11927,"sor":11928,"2016":11929,"link":11930,"Ġautomatic":11931,"Ġovert":11932,"doi":11933,"Ġfraud":11934,"instein":11935,"ĠOpt":11936,"Ġ1982":11937,"risk":11938,"Ġfulfill":11939,"uming":11940,"Ġrou":11941,"Ġfollowers":11942,"ĠPrize":11943,"Ġtalked":11944,"inflammatory":11945,"ĠSens":11946,"Ġingredient":11947,"ographer":11948,"UD":11949,"ĠSite":11950,"Ġfootball":11951,"ĠArchives":11952,"Ġsau":11953,"Ġstack":11954,"ĠRand":11955,"Ġvoices":11956,"Ġmurd":11957,"Åį":11958,"Ġcoins":11959,"oen":11960,"ÙĴ":11961,"Ġmankind":11962,"Ġtremendous":11963,"warf":11964,"EX":11965,"Ġions":11966,"Ġsurvivors":11967,"Ġartic":11968,"Ġanniversary":11969,"Ġbottles":11970,"Ġpractitioners":11971,"ĠParents":11972,"Ġshopping":11973,"ĠCut":11974,"asting":11975,"Ġkin":11976,"olly":11977,"Ġimposed":11978,"Ġobsc":11979,"Ġguided":11980,"Ġdenied":11981,"Ġgifts":11982,"Ġvocal":11983,"Ġagenda":11984,"Ġgraphic":11985,"inced":11986,"ĠCham":11987,"Ġ53":11988,"Char":11989,"fat":11990,"erves":11991,"Ġcolours":11992,"ĠSpe":11993,"Ġpotatoes":11994,"Ġbreakfast":11995,"ĠFreedom":11996,"Ġbrick":11997,"Ġdigestion":11998,"amily":11999,"orious":12000,"otechnology":12001,"Ġquantitative":12002,"Ġcollaborative":12003,"embered":12004,"Ġconce":12005,"Ġ1975":12006,"Ġcarcin":12007,"ĠNort":12008,"iens":12009,"lastname":12010,"Copyright":12011,"600":12012,"ĠÏ":12013,"appy":12014,"Ġdiscusses":12015,"Ġcorporations":12016,"ĠPersian":12017,"Ġscheduled":12018,"giving":12019,"Ġ1969":12020,"Ġgalaxies":12021,"Ġconvention":12022,"Current":12023,"Av":12024,"ĠGrade":12025,"nut":12026,"sun":12027,"ĠPR":12028,"agine":12029,"Ġincidents":12030,"ĠKat":12031,"Ġ57":12032,"Ġuter":12033,"Ġangry":12034,"Ġsnake":12035,"TO":12036,"Ġentity":12037,"Ġmotivated":12038,"FS":12039,"âĢł":12040,"tein":12041,"Ġannounce":12042,"ĠPow":12043,"Ġhepat":12044,"Ġsore":12045,"Ġsearc":12046,"Ġspeaks":12047,"Ġcompact":12048,"Ġlig":12049,"Ġpersec":12050,"2001":12051,"Ġprolonged":12052,"cre":12053,"Ġregulated":12054,"Ġpracticed":12055,"ttes":12056,"ĠClark":12057,"Ġconsisted":12058,"Ġpolymer":12059,"Ġtelescope":12060,"Ġabd":12061,"Ġslide":12062,"Ġthrone":12063,"ĠDougl":12064,"imeter":12065,"Ġdeals":12066,"Ġblockchain":12067,"Ġinquiry":12068,"ĠCensus":12069,"ĠStone":12070,"ĠCommand":12071,"ĠCorporation":12072,"riends":12073,"iolet":12074,"Ġcampaigns":12075,"Ġsugars":12076,"Ġpharmac":12077,"Ġflies":12078,"Ġequity":12079,"rage":12080,"ĠArk":12081,"Ġspecialists":12082,"Ġendeav":12083,"Ġboats":12084,"dam":12085,"onduct":12086,"ĠLove":12087,"Ġbasics":12088,"Ġmicrobes":12089,"ugar":12090,"Ġrespective":12091,"Ġtunnel":12092,"ĠTeacher":12093,"mouth":12094,"Ġinduced":12095,"Ġastronaut":12096,"ĠArchitect":12097,"Ġantioxidants":12098,"rade":12099,"ailing":12100,"ESS":12101,"Ġhind":12102,"urred":12103,"ths":12104,"ĠDub":12105,"Ġmovies":12106,"ĠGenesis":12107,"2002":12108,"Ġempir":12109,"Ġprecipitation":12110,"acre":12111,"Ġadmit":12112,"Ġcheaper":12113,"History":12114,"ilib":12115,"Ġstatic":12116,"Ġmethodology":12117,"Ġfails":12118,"ĠKenya":12119,"Ġalleged":12120,"Ġpressures":12121,"ÑĤ":12122,"MD":12123,"essee":12124,"Ġbay":12125,"ogene":12126,"oub":12127,"ĠThursday":12128,"Ġsubstantially":12129,"ĠCreate":12130,"ĠOd":12131,"ĠContact":12132,"Ġacquisition":12133,"Ġnurses":12134,"ationally":12135,"ĠGer":12136,"Ġspell":12137,"rosion":12138,"Ġbelongs":12139,"Ġmeanings":12140,"otional":12141,"roach":12142,"ĠKong":12143,"ĠPeriod":12144,"Image":12145,"ĠTorah":12146,"Ġhistorically":12147,"Ġcoordin":12148,"Did":12149,"Ġmachinery":12150,"Ġefficacy":12151,"Ġunemployment":12152,"bone":12153,"ĠMaterials":12154,"Ġpromoted":12155,"Ġoperators":12156,"Mon":12157,"fol":12158,"jamin":12159,"ĠNich":12160,"Ġmenu":12161,"ĠTuesday":12162,"Ġterminal":12163,"Ġenterprise":12164,"Ġsurviving":12165,"Ġomega":12166,"test":12167,"ÑĢ":12168,"Ġcommander":12169,"ĠProtocol":12170,"etheless":12171,"Ġtitles":12172,"ĠHong":12173,"Ġpublicly":12174,"ĠMemorial":12175,"Ġthrown":12176,"okes":12177,"heres":12178,"Ġcombinations":12179,"Ġlunar":12180,"Ġheadache":12181,"ĠMonitor":12182,"Ġwetlands":12183,"ĠTy":12184,"angers":12185,"spe":12186,"Ġforty":12187,"ĠBru":12188,"Ġpurple":12189,"Ġcaffeine":12190,"ports":12191,"Ġmembership":12192,"Ġresponded":12193,"Ġheated":12194,"Ġpromised":12195,"ĠMarg":12196,"ORD":12197,"ĠCultural":12198,"Ġuncom":12199,"incial":12200,"ĠGolden":12201,"Second":12202,"Ġsecre":12203,"Ġseemingly":12204,"Ġradar":12205,"ropolitan":12206,"Ġmonitored":12207,"Ġbases":12208,"Ġneedle":12209,"ĠPolish":12210,"Ġpoisoning":12211,"Ġvolcanic":12212,"ĠEN":12213,"Ġinfl":12214,"Ġherbs":12215,"Ġstrengths":12216,"backs":12217,"Ùı":12218,"iser":12219,"Ġdign":12220,"Ġprofits":12221,"ĠNat":12222,"Ġrelates":12223,"Ġenters":12224,"Ġdeple":12225,"Ġautomated":12226,"June":12227,"ko":12228,"Ġindication":12229,"Ġbes":12230,"ĠHad":12231,"roups":12232,"ĠNewton":12233,"ĠZe":12234,"Ġren":12235,"Ġaccused":12236,"Ġinsulation":12237,"Ġmissed":12238,"rint":12239,"Ġimmense":12240,"Em":12241,"Ġintroducing":12242,"Ġconstraints":12243,"ĠChile":12244,"ĠVill":12245,"weet":12246,"Ġdrawings":12247,"ĠExecutive":12248,"venue":12249,"Ġkidneys":12250,"ĠDeclaration":12251,"Ġdirt":12252,"Ġbeef":12253,"igs":12254,"Ġ72":12255,"Ġprojected":12256,"Ġextending":12257,"Ġcurious":12258,"Ġcomprehension":12259,"Ġchamp":12260,"Ġoffspring":12261,"Ġentities":12262,"Ġservers":12263,"ulative":12264,"adian":12265,"ĠCommunication":12266,"var":12267,"Ġintact":12268,"Ġassignments":12269,"wall":12270,"opathy":12271,"Ġcontracts":12272,"CM":12273,"IO":12274,"Ġconvinced":12275,"arse":12276,"Ġly":12277,"Ġwast":12278,"Ġmenstru":12279,"Ġpushing":12280,"Ġarteries":12281,"Ġnorms":12282,"Thus":12283,"ĠConnecticut":12284,"Ġlawn":12285,"Ġheaded":12286,"Ġimagery":12287,"Ġvoters":12288,"ĠGro":12289,"ĠPH":12290,"ĠEs":12291,"plus":12292,"Ġneighbour":12293,"ĠHawaii":12294,"Ġdefining":12295,"ĠObserv":12296,"Ġartery":12297,"vity":12298,"Ġbeer":12299,"lict":12300,"away":12301,"Ġsymmet":12302,"ilton":12303,"ĠWrite":12304,"ĠUtah":12305,"Ġplaque":12306,"Disc":12307,"cr":12308,"five":12309,"olia":12310,"ĠBody":12311,"Ġlocate":12312,"Ġconsiderations":12313,"Ġprophe":12314,"heel":12315,"Ġdarkness":12316,"Ġbike":12317,"ĠGil":12318,"Ġaffil":12319,"Ġfootprint":12320,"Ġreads":12321,"ĠKentucky":12322,"Ġbom":12323,"Ġbars":12324,"Ġsocially":12325,"ERS":12326,"Ġanalyzing":12327,"angular":12328,"forward":12329,"ĠFranklin":12330,"ĠPMID":12331,"ĠBad":12332,"Ġfeat":12333,"Ġcannab":12334,"ĠDu":12335,"Ġbeta":12336,"ĠEvolution":12337,"klah":12338,"Ġevac":12339,"Ġbasin":12340,"ĠGreeks":12341,"Ġsacrific":12342,"Ġmim":12343,"Ġintens":12344,"ĠAlabama":12345,"Ġlandf":12346,"Ġtender":12347,"Ġconstitute":12348,"Ġhate":12349,"Ġedited":12350,"Ġaffirm":12351,"Pres":12352,"Ġfoundations":12353,"Ġsecular":12354,"Ġwinning":12355,"Ġplug":12356,"Ġtrains":12357,"Ġ54":12358,"ĠHealthy":12359,"Ġrailway":12360,"ollo":12361,"ĠPresent":12362,"ibli":12363,"Ġreliability":12364,"Ġconcentrate":12365,"coin":12366,"Supp":12367,"inence":12368,"Ġ1968":12369,"apore":12370,"Ġreplacing":12371,"bits":12372,"Ġdatas":12373,"Ġconstitu":12374,"ĠMarket":12375,"Dis":12376,"Ġdozen":12377,"Ġcommemor":12378,"Ġinterrupt":12379,"ĠArgent":12380,"Ġbuilds":12381,"Ġgeographical":12382,"ĠHunt":12383,"Ġdispute":12384,"ĠEffects":12385,"Ä«":12386,"itance":12387,"olis":12388,"Ġconsp":12389,"Ġcoin":12390,"Ġdistress":12391,"Ġclosest":12392,"ĠAffairs":12393,"ĠTax":12394,"ĠLG":12395,"ĠLic":12396,"Ġ1972":12397,"Ġstaying":12398,"ĠElectric":12399,"Ġgeometry":12400,"ĠNobel":12401,"Ġadvised":12402,"graduate":12403,"ĠSeries":12404,"ĠUC":12405,"Ġpurchasing":12406,"organisms":12407,"Ġrefriger":12408,"aughters":12409,"ĠPay":12410,"Ġcher":12411,"access":12412,"Ġexplos":12413,"Ġstructured":12414,"Ġworkshops":12415,"his":12416,"Î½":12417,"vance":12418,"Ġcastle":12419,"cat":12420,"ĠCass":12421,"Ġmagic":12422,"Dec":12423,"Ġblame":12424,"Ġmul":12425,"Ġ1973":12426,"Ġelevation":12427,"Ġink":12428,"ĠBot":12429,"Ġlean":12430,"ĠForeign":12431,"Ġcertificate":12432,"ĠRout":12433,"Ġtempt":12434,"asis":12435,"istence":12436,"Ġchim":12437,"Ġdrew":12438,"Ġsaturated":12439,"ĠPatients":12440,"English":12441,"Ġtech":12442,"Ġdemonstration":12443,"izational":12444,"Inter":12445,"system":12446,"ĠTeam":12447,"ĠMalays":12448,"Ġbutt":12449,"exts":12450,"Ġinadequate":12451,"Ġdual":12452,"Ġintervals":12453,"Ġparish":12454,"ĠProphet":12455,"Ġbrilliant":12456,"Ġsymbolic":12457,"Ġenvironmentally":12458,"Ġneurological":12459,"Ø±":12460,"Ġgang":12461,"ĠDat":12462,"Ġimbal":12463,"Ġintegrate":12464,"Ġchallenged":12465,"have":12466,"Ġque":12467,"Ġtwentieth":12468,"forming":12469,"ĠByzant":12470,"Ġassessing":12471,"Ġupdates":12472,"ouch":12473,"ĠRod":12474,"Ġdeclar":12475,"ĠWednesday":12476,"Ġimprison":12477,"Ġoperator":12478,"Ġcustoms":12479,"Ġfounding":12480,"ĠParticip":12481,"Ġcoding":12482,"Ġcarp":12483,"ĠTennessee":12484,"FT":12485,"Ġ1981":12486,"Ġvirtue":12487,"Ġveterin":12488,"ĠPolitical":12489,"orship":12490,"Ġcounts":12491,"Ġfluctu":12492,"Ġemergence":12493,"Ġpencil":12494,"Ġdisciplines":12495,"ĠIntelligence":12496,"grad":12497,"Ġbold":12498,"Ġpigs":12499,"Ġaccumulation":12500,"Ġundertaken":12501,"Ġaspir":12502,"Ġresilience":12503,"Ġyoga":12504,"ĠIndiana":12505,"Ġworried":12506,"Ġstatue":12507,"Ġfloating":12508,"arp":12509,"ighters":12510,"athic":12511,"Ġmargin":12512,"Up":12513,"ĠEval":12514,"ĠAlbert":12515,"Ġjurisdiction":12516,"Public":12517,"Ġmines":12518,"Ġdated":12519,"Ġlesser":12520,"Ġcombining":12521,"rasound":12522,"person":12523,"Ġraces":12524,"Ġactors":12525,"Ġcaution":12526,"ĠSaturn":12527,"ĠImperial":12528,"swer":12529,"induced":12530,"Ġenthusi":12531,"onge":12532,"Ġunhealthy":12533,"ĠLiterature":12534,"Fl":12535,"Ġcer":12536,"ĠCertain":12537,"ĠResource":12538,"ĠPlants":12539,"Ġ1976":12540,"Cent":12541,"Ñģ":12542,"othel":12543,"ĠGames":12544,"Ġregistration":12545,"Ġsphere":12546,"Ġvoluntary":12547,"Ġhighlighted":12548,"four":12549,"ĠDor":12550,"ĠFisher":12551,"Ġcorruption":12552,"Ġsoldier":12553,"Ġexplosion":12554,"lux":12555,"ĠSaturday":12556,"adic":12557,"ĠBesides":12558,"Ġcrossed":12559,"ĠLouisiana":12560,"klahoma":12561,"ĠGP":12562,"Ġprovinces":12563,"Ġlabeled":12564,"Ġthumb":12565,"Ġpeaceful":12566,"ĠAdvanced":12567,"forestation":12568,"urally":12569,"ĠHell":12570,"ĠArmen":12571,"ĠSelect":12572,"Ġ1978":12573,"ocaust":12574,"Ġbore":12575,"Ġpanic":12576,"Ġdatabases":12577,"Ġsegments":12578,"Ġdictionary":12579,"ĠTok":12580,"Ġgrat":12581,"ĠTrump":12582,"Ġfreshwater":12583,"ĠInitiative":12584,"ĠPas":12585,"keley":12586,"Ġtestim":12587,"ulses":12588,"uana":12589,"Ġmant":12590,"olutions":12591,"aments":12592,"ĠStaff":12593,"bled":12594,"Ġpix":12595,"Ġlacking":12596,"Ġextracted":12597,"Ġresident":12598,"Ġcalculation":12599,"Ġdependence":12600,"Ġlegislative":12601,"esy":12602,"Ġteachings":12603,"Ġsatisfaction":12604,"hot":12605,"ĠBird":12606,"ĠMarx":12607,"Ġfears":12608,"Ġeligible":12609,"March":12610,"ĠMagn":12611,"Ġcareers":12612,"Ġterrible":12613,"Ġcrash":12614,"ĠMaria":12615,"Ġproclaim":12616,"odynam":12617,"Ġslope":12618,"yers":12619,"Ġdisin":12620,"Ġraises":12621,"energy":12622,"igion":12623,"Ġimported":12624,"Ġvariability":12625,"Ġdecreasing":12626,"Ġsnakes":12627,"ĠCastle":12628,"amous":12629,"Ġcounting":12630,"Ġloads":12631,"kay":12632,"mill":12633,"tr":12634,"estinal":12635,"owed":12636,"Par":12637,"ĠKings":12638,"Ġcircuits":12639,"Ġrailroad":12640,"ĠTri":12641,"Ġrequests":12642,"ĠRequ":12643,"Ġtale":12644,"Ġbasket":12645,"ĠBasic":12646,"Science":12647,"ultural":12648,"Ġadvocates":12649,"ĠCru":12650,"ĠFem":12651,"Ġintermediate":12652,"Ġextinct":12653,"Ġtodd":12654,"Ġ1971":12655,"Ġcertified":12656,"Ġbicy":12657,"ĠBall":12658,"Ġplastics":12659,"Ġreleases":12660,"ĠRelations":12661,"Ġbreathe":12662,"Ġtriggers":12663,"Data":12664,"Mat":12665,"velation":12666,"Ġnumb":12667,"Ġchemotherapy":12668,"Ġcompete":12669,"Ġstimulation":12670,"Ġtear":12671,"eton":12672,"Ġtrips":12673,"ĠLawrence":12674,"Ġpriests":12675,"ĠTai":12676,"ĠEM":12677,"Ġremembered":12678,"Ġillustrations":12679,"LC":12680,"ĠMit":12681,"Ġweren":12682,"Ġ700":12683,"Ġpreference":12684,"eman":12685,"ĠMilitary":12686,"Ġpraise":12687,"ĠNig":12688,"cedented":12689,"Ġnoble":12690,"Ġdysfunction":12691,"agus":12692,"Ð½":12693,"Ġadmin":12694,"Ġcontroversy":12695,"Ġsuited":12696,"ĠVo":12697,"Ġecology":12698,"Ġtherapist":12699,"Ġmelan":12700,"engu":12701,"Ġconceptual":12702,"Ġpharmaceutical":12703,"names":12704,"Ġ130":12705,"ĠHal":12706,"Ġvotes":12707,"Ġsurely":12708,"Ġfart":12709,"Ġgel":12710,"Ġinformal":12711,"ĠCountry":12712,"Ġcruel":12713,"Ġwatershed":12714,"Ġscattered":12715,"uate":12716,"Ġpiano":12717,"ĠSustainable":12718,"Ġdece":12719,"Ġdeemed":12720,"Ġlateral":12721,"ĠHistoric":12722,"Ġchips":12723,"ĠAustria":12724,"fil":12725,"ĠIb":12726,"ĠMu":12727,"Ġsubur":12728,"Ġ66":12729,"Ġinvestigations":12730,"Ġpremature":12731,"Ġpronounced":12732,"Ġties":12733,"asted":12734,"Ġcontexts":12735,"Inf":12736,"Ġdepicted":12737,"Ġobstacles":12738,"ĠConfederate":12739,"ĠStanford":12740,"Sign":12741,"THE":12742,"Ġasset":12743,"uese":12744,"Ġloaded":12745,"Ġnavigation":12746,"ĠLie":12747,"Ġpracticing":12748,"letal":12749,"Ġeliminated":12750,"Ġshells":12751,"hend":12752,"Ġisot":12753,"Ġ1967":12754,"Ġgross":12755,"Ġmodest":12756,"Ġcompleting":12757,"Ġsword":12758,"ĠLady":12759,"Ġrelies":12760,"Mus":12761,"Ġtries":12762,"ĠCollection":12763,"plicit":12764,"Ġbats":12765,"iffs":12766,"Ġsensation":12767,"eur":12768,"vas":12769,"Ġpole":12770,"opor":12771,"Ġcompression":12772,"Ġmodules":12773,"Ġcreature":12774,"Ġbanking":12775,"Ġradioactive":12776,"Ġlesions":12777,"imity":12778,"ĠDur":12779,"Ġpromotion":12780,"Ġfunctionality":12781,"ĠSi":12782,"ulent":12783,"Ġoffset":12784,"Ġnegatively":12785,"Ġframes":12786,"Ġtackle":12787,"km":12788,"mus":12789,"oard":12790,"arb":12791,"ĠSel":12792,"Ġwhites":12793,"Ġlets":12794,"Ġediting":12795,"Black":12796,"Ġreceptor":12797,"ĠPalestine":12798,"isl":12799,"Ġglands":12800,"Ġspite":12801,"hematic":12802,"Ġdivisions":12803,"Ġfragments":12804,"immune":12805,"isa":12806,"Ġnausea":12807,"adays":12808,"Ġtraged":12809,"Ġcaring":12810,"cription":12811,"lades":12812,"Ġlighter":12813,"Ġknock":12814,"Early":12815,"alg":12816,"edge":12817,"empl":12818,"ĠFacts":12819,"ĠVeter":12820,"iencies":12821,"Ġobserving":12822,"Ġslower":12823,"()":12824,"mother":12825,"odge":12826,"Ġuncons":12827,"Ġrebell":12828,"heat":12829,"Ġcurrents":12830,"Di":12831,"ĠSO":12832,"ĠUpper":12833,"Ġ1974":12834,"Ġgeography":12835,"ĠOR":12836,"Ġmodify":12837,"ilibrium":12838,"Ġma":12839,"ĠRaj":12840,"Ġcontinually":12841,"Ġwounded":12842,"plane":12843,"resses":12844,"Ġinterval":12845,"Ġglory":12846,"Ġmosquito":12847,"ĠAqu":12848,"ĠSci":12849,"ĠShow":12850,"Ġconsultation":12851,"Ġactivists":12852,"Ġ1965":12853,"zens":12854,"itives":12855,"iciency":12856,"Ġwarrant":12857,"Ġoperates":12858,"Ġunclear":12859,"Ġimplant":12860,"ĠVisual":12861,"Among":12862,"Ġsor":12863,"Ġnotably":12864,"Ġjet":12865,"Ġworlds":12866,"Ġpointing":12867,"Ġadvocate":12868,"Ġexclusive":12869,"Ġlegitimate":12870,"matic":12871,"eded":12872,"ĠJoh":12873,"Ġjournals":12874,"enaissance":12875,"Feb":12876,"ĠUsually":12877,"Ġexplicitly":12878,"inus":12879,"omething":12880,"ĠBoy":12881,"Ġupset":12882,"Ġtransit":12883,"scill":12884,"Ġsimilarly":12885,"Ġaltogether":12886,"Ġfungi":12887,"Ġattending":12888,"ĠUSDA":12889,"Ġagreements":12890,"Ġdamages":12891,"ietal":12892,"annel":12893,"Ġcertification":12894,"ĠAuthority":12895,"Cor":12896,"dated":12897,"Ġnode":12898,"Ġexams":12899,"aza":12900,"Ġharmony":12901,"Ġdescendants":12902,"ĠIndependence":12903,"Ġdivor":12904,"Ġunpre":12905,"Ġwithdrawal":12906,"wind":12907,"Ġate":12908,"fficiency":12909,"Ġstayed":12910,"Ġinability":12911,"Ġpredictions":12912,"Work":12913,"Ġconsec":12914,"Ġ1918":12915,"wealth":12916,"Ġdesirable":12917,"Ġfirstname":12918,"monary":12919,"Ġcrystal":12920,"arency":12921,"itzerland":12922,"Ġinsufficient":12923,"Ġmarker":12924,"Ġbowl":12925,"Ġbitter":12926,"ĠCommer":12927,"Ġforgotten":12928,"urring":12929,"uma":12930,"Ġexplanations":12931,"orical":12932,"ĠBob":12933,"Ġreadings":12934,"BL":12935,"Ġneglect":12936,"Ġmelting":12937,"Ġbriefly":12938,"PM":12939,"Ġwells":12940,"mates":12941,"Ġscreens":12942,"Ġinputs":12943,"Sometimes":12944,"uly":12945,"Ġinterference":12946,"Ġcoating":12947,"Ġinterfere":12948,"Ġentertainment":12949,"Ġozone":12950,"alin":12951,"Ġretire":12952,"Ġshifts":12953,"Ġstir":12954,"version":12955,"tically":12956,"lementary":12957,"Ġstrikes":12958,"Ġdissolved":12959,"mind":12960,"Ġpoultry":12961,"Ġbinary":12962,"ĠMuhammad":12963,"Ġtrap":12964,"ierra":12965,"Ġimpacted":12966,"ĠOrd":12967,"Ġgasoline":12968,"Ġseparately":12969,"Ġartifacts":12970,"Ġbanned":12971,"bird":12972,"oz":12973,"Ġcups":12974,"Ġidentifies":12975,"Ġcyt":12976,"ĠVirt":12977,"third":12978,"ĠPublishing":12979,"Ġlandscapes":12980,"bound":12981,"Ġclosing":12982,"Ġquot":12983,"Ġfreed":12984,"GA":12985,"Tube":12986,"Ġpresenting":12987,"ĠIsraeli":12988,"Ġtoll":12989,"Ġolive":12990,"Ġsho":12991,"Ġbaseline":12992,"Ġ1944":12993,"Ġaltitude":12994,"Ùħ":12995,"ĠMaine":12996,"ĠRap":12997,"count":12998,"arity":12999,"atherine":13000,"Ġpermits":13001,"Ġcel":13002,"Ġillum":13003,"MM":13004,"Ġluck":13005,"ĠChen":13006,"ĠConserv":13007,"ĠTerrit":13008,"osures":13009,"ococc":13010,"Ġguilty":13011,"Ġantioxidant":13012,"asia":13013,"ĠRa":13014,"Ġindivid":13015,"Ġextensively":13016,"Ġcontra":13017,"Ġbip":13018,"Ġ1941":13019,"Know":13020,"ui":13021,"ĠBit":13022,"Ġfundament":13023,"overty":13024,"Ġmixing":13025,"Ġimpairment":13026,"Ġlux":13027,"Ġseats":13028,"Ġtruck":13029,"unciation":13030,"ĠMathematics":13031,"Ġhypertension":13032,"Her":13033,"Ġbon":13034,"Ġbillions":13035,"FC":13036,"Ġ110":13037,"Ġindo":13038,"Ġretained":13039,"Ġappreciation":13040,"arms":13041,"Ġlenses":13042,"Ġexert":13043,"ĠArchae":13044,"Ġrows":13045,"esteem":13046,"ĠSche":13047,"Ġbreakdown":13048,"Ġjudges":13049,"Ġsynthes":13050,"ĠTal":13051,"alling":13052,"Ġstrictly":13053,"Ġfungus":13054,"Ġbridges":13055,"Ġattribute":13056,"Ġlegally":13057,"Ġ1964":13058,"Ġreforms":13059,"Ġmitochond":13060,"itational":13061,"Ġlongest":13062,"Ġgraphics":13063,"pers":13064,"weed":13065,"ucks":13066,"Ġfees":13067,"PC":13068,"Ġconfined":13069,"zech":13070,"Ġpresidential":13071,"Ġgay":13072,"Ġmodes":13073,"Ġsimilarities":13074,"Ġwalked":13075,"Ġtitled":13076,"ben":13077,"ĠPict":13078,"oping":13079,"ĠVery":13080,"Ġsilicon":13081,"ĠBenjamin":13082,"Ġunprecedented":13083,"Des":13084,"olith":13085,"Ġwarfare":13086,"ĠSyndrome":13087,"Ġcomprised":13088,"Sur":13089,"Ġsomehow":13090,"Ġstandardized":13091,"inging":13092,"ounding":13093,"ĠNev":13094,"Ġtravels":13095,"Ġallev":13096,"OV":13097,"eu":13098,"ĠOklahoma":13099,"Ġcows":13100,"Ġalleg":13101,"Ġimpaired":13102,"Ġ58":13103,"ĠPast":13104,"Ġpatches":13105,"bes":13106,"Ġprobe":13107,"ĠPediatric":13108,"ĠGospel":13109,"ĠJordan":13110,"Which":13111,"erenn":13112,"Key":13113,"rained":13114,"ĠPa":13115,"Ġwheels":13116,"Ġscrew":13117,"Ġmyths":13118,"tics":13119,"Ġchat":13120,"ĠStock":13121,"Ġmillenn":13122,"ĠParkinson":13123,"Ġtribal":13124,"Ġintestinal":13125,"Ġworksheets":13126,"articles":13127,"Ġdesper":13128,"Ġcharging":13129,"Ġthreatening":13130,"Ġ1939":13131,"ĠDemocr":13132,"Food":13133,"Ġplacement":13134,"Ġrehabilitation":13135,"Green":13136,"ĠSingapore":13137,"ixed":13138,"regn":13139,"ĠÂ»":13140,"ĠBah":13141,"Ġinspire":13142,"Ġautumn":13143,"ĠHind":13144,"Several":13145,"Ġsystemic":13146,"ĠCollect":13147,"ĠAboriginal":13148,"Ġdestructive":13149,"ĠDepending":13150,"Ġsilent":13151,"ĠHTML":13152,"Ġintrig":13153,"Net":13154,"Ġcollaps":13155,"ipt":13156,"Ġrecru":13157,"Ġunderm":13158,"Ġfossils":13159,"Learning":13160,"Institutions":13161,"asa":13162,"ĠYouth":13163,"Sept":13164,"pin":13165,"Ġbapt":13166,"ĠGas":13167,"ĠDomin":13168,"Photo":13169,"Ġmast":13170,"ĠTele":13171,"Ġphotography":13172,"Ġevaluating":13173,"ĠWy":13174,"Ġchecks":13175,"Ġdelayed":13176,"ĠCopyright":13177,"threat":13178,"Ġfathers":13179,"ocytes":13180,"Ġmelt":13181,"Ġfits":13182,"ĠAra":13183,"Ġseas":13184,"Ġnegotiations":13185,"PE":13186,"ĠFat":13187,"Ġjoining":13188,"Ġsink":13189,"Ġtriggered":13190,"Ġgrocer":13191,"Ġaccommodate":13192,"ĠCredit":13193,"Ġnaval":13194,"Ġwhale":13195,"Ġbehave":13196,"ĠDeep":13197,"Ġfloods":13198,"ĠRadio":13199,"dem":13200,"ĠCook":13201,"ĠCert":13202,"Ġblocked":13203,"Ġattachment":13204,"Ġoct":13205,"ĠPra":13206,"esthet":13207,"Ġrefined":13208,"ĠImpact":13209,"Ġcin":13210,"ĠBroad":13211,"Ġdisse":13212,"ressions":13213,"ova":13214,"Ġvalued":13215,"process":13216,"Ġexploitation":13217,"ĠBeach":13218,"Ġasbestos":13219,"Ġreinforce":13220,"Ġachievements":13221,"Ġger":13222,"ĠSri":13223,"ĠPopulation":13224,"Ġdelight":13225,"Ġvic":13226,"Ġoutstanding":13227,"Ġtoxicity":13228,"Ġpreferences":13229,"ĠBrook":13230,"Vis":13231,"aline":13232,"ĠSwedish":13233,"Ġwires":13234,"Ġdump":13235,"ulous":13236,"ĠPil":13237,"ĠAlways":13238,"Ġlikes":13239,"ovenant":13240,"Ġinserted":13241,"ĠVenus":13242,"ioned":13243,"Ġabortion":13244,"Ġwastewater":13245,"ĠWinter":13246,"Ġdialect":13247,"Common":13248,"Ġappliances":13249,"path":13250,"Ġruler":13251,"Ġcavity":13252,"Ġhungry":13253,"Ġconform":13254,"Ġ1977":13255,"Ġwatched":13256,"Ġsubstrate":13257,"imination":13258,"ĠBBC":13259,"emat":13260,"Ġrevised":13261,"ĠRoss":13262,"Ġunconscious":13263,"Ġeconomically":13264,"Ġ||":13265,"Ġvoy":13266,"lude":13267,"Ġgrab":13268,"Ġunders":13269,"ĠTB":13270,"Ġ1948":13271,"ĠRegional":13272,"Ġcitizenship":13273,"building":13274,"Ġlining":13275,"ĠCab":13276,"Ġnewborn":13277,"Ġsurroundings":13278,"ĠPlanning":13279,"ĠToronto":13280,"oporosis":13281,"ĠLu":13282,"Ġrealm":13283,"Ġdedu":13284,"Ġspont":13285,"ĠSyn":13286,"ĠRenaissance":13287,"idth":13288,"ĠPersonal":13289,"Ġrating":13290,"uliar":13291,"ĠInnov":13292,"avy":13293,"Ġpositively":13294,"ĠSummer":13295,"aron":13296,"ĠOrthodox":13297,"proof":13298,"ĠSwitzerland":13299,"rish":13300,"ĠIowa":13301,"ĠDick":13302,"Ġperceive":13303,"âĢ¦.":13304,"ennis":13305,"Ġsequencing":13306,"Good":13307,"dec":13308,"Ġcous":13309,"intestinal":13310,"ĠMcG":13311,"Ġlact":13312,"ĠSD":13313,"ante":13314,"Ġstrip":13315,"Ġfool":13316,"Ġorth":13317,"Ġrival":13318,"unes":13319,"Ġtutorial":13320,"ĠPhilosophy":13321,"ĠGame":13322,"Ġmicrobi":13323,"fortable":13324,"pres":13325,"ĠPV":13326,"ĠBegin":13327,"uncture":13328,"ĠSA":13329,"Ġoccasions":13330,"hol":13331,"Ġcharts":13332,"ingham":13333,"Ġseaf":13334,"ership":13335,"ĠBox":13336,"Ġ1942":13337,"Ġcrafts":13338,"ector":13339,"marks":13340,"ĠNorway":13341,"Sym":13342,"storm":13343,"ethyl":13344,"Ġplanes":13345,"ĠAnton":13346,"Hel":13347,"Ġranks":13348,"ĠKy":13349,"Ġworkforce":13350,"erto":13351,"ĠWhit":13352,"anic":13353,"ĠWas":13354,"rubs":13355,"Ġevolve":13356,"arming":13357,"Ġnavigate":13358,"roximately":13359,"Ġincentives":13360,"ĠRain":13361,"amma":13362,"ometric":13363,"ĠSkills":13364,"ĠAgricultural":13365,"ĠTogether":13366,"redict":13367,"Ġsufficiently":13368,"group":13369,"Î¿":13370,"Ġwounds":13371,"ĠRac":13372,"Ġinfo":13373,"Add":13374,"Ġmacro":13375,"Following":13376,"ĠPerson":13377,"interest":13378,"cellular":13379,"Ġdisappeared":13380,"Ġscarce":13381,"VI":13382,"ania":13383,"Ġdwell":13384,"idel":13385,"iscal":13386,"ĠImage":13387,"Ġprosperity":13388,"ogical":13389,"ĠCro":13390,"fund":13391,"home":13392,"odia":13393,"aga":13394,"Ġexplores":13395,"venile":13396,"Ġuncomm":13397,"hal":13398,"second":13399,"TC":13400,"ods":13401,"Ġinvisible":13402,"Ġmonaster":13403,"Ġpacked":13404,"Ġpurely":13405,"rator":13406,"Ġenrich":13407,"iw":13408,"Ġunions":13409,"ĠAllen":13410,"Ġinspection":13411,"oscow":13412,"Ġacknowledged":13413,"Act":13414,"Ġactivated":13415,"ĠResults":13416,"Ġinclusive":13417,"Ġharvesting":13418,"Ġelectroly":13419,"ĠPit":13420,"bial":13421,"ĠTour":13422,"Ġ1914":13423,"Ġtranscript":13424,"Ġeliminating":13425,"ambo":13426,"estab":13427,"ellar":13428,"Ġ2030":13429,"Ġgenerates":13430,"Ġsafegu":13431,"Ġtransported":13432,"Ġparasites":13433,"Ġtemporal":13434,"Ġinfinite":13435,"prot":13436,"Ġdeployed":13437,"Ġeternal":13438,"ĠNut":13439,"ogenesis":13440,"ĠBanglades":13441,"ĠUniverse":13442,"Ġinval":13443,"Ġlasted":13444,"ĠMeanwhile":13445,"Ġsubjected":13446,"illes":13447,"Ġmobil":13448,"Ġstretching":13449,"vised":13450,"Ġmaternal":13451,"Ġquoted":13452,"ĠVideo":13453,"insic":13454,"Ġgenerator":13455,"Ben":13456,"Ġsake":13457,"fficking":13458,"Ġconception":13459,"Chapter":13460,"Ġcement":13461,"ĠProtestant":13462,"Down":13463,"Ġcram":13464,"Ġfired":13465,"ĠAstronom":13466,"ĠCM":13467,"ĠBishop":13468,"ĠHans":13469,"ryption":13470,"Ġburial":13471,"ĠViol":13472,"Ġwarned":13473,"Ġdiamond":13474,"Ġsanct":13475,"Ġoutlined":13476,"reach":13477,"Ġgently":13478,"ĠMun":13479,"ĠHun":13480,"ĠThings":13481,"Ġintestine":13482,"ĠRoc":13483,"Ġbrut":13484,"Ġpulse":13485,"ĠStrateg":13486,"April":13487,"lip":13488,"rea":13489,"ĠDak":13490,"pton":13491,"Ġformerly":13492,"Ġconsiders":13493,"Ġenerg":13494,"Ġtrapped":13495,"ĠAlf":13496,"Ġtraumatic":13497,"Ret":13498,"izoph":13499,"Ġpassages":13500,"Ġsecured":13501,"ĠAnaly":13502,"Ġbulbs":13503,"Unfortunately":13504,"imb":13505,"adi":13506,"ĠMIT":13507,"Ġjack":13508,"ijuana":13509,"Ġindividually":13510,"tech":13511,"Ġtourists":13512,"uru":13513,"ĠHart":13514,"ĠLoss":13515,"coma":13516,"Ġwool":13517,"ĠPRO":13518,"Start":13519,"ĠDenmark":13520,"ĠCuba":13521,"ĠPrimary":13522,"Ġalb":13523,"Ġcompiled":13524,"Ġconsolid":13525,"Ġbench":13526,"Ġrecognised":13527,"Ġgallons":13528,"SE":13529,"Sch":13530,"ĠAward":13531,"Ġkeyboard":13532,"ĠSimon":13533,"ĠCamb":13534,"ĠBud":13535,"ĠBuild":13536,"Ġweeds":13537,"ĠAlcohol":13538,"Ġretrie":13539,"ĠMagazine":13540,"Mr":13541,"tha":13542,"week":13543,"Ġveins":13544,"Ġplural":13545,"Ġfailing":13546,"BO":13547,"Ġriding":13548,"ĠYO":13549,"ĠSyd":13550,"ĠNapole":13551,"ĠAlliance":13552,"dy":13553,"ĠSoutheast":13554,"Ġpean":13555,"Ġ63":13556,"Ġsixth":13557,"Ġselecting":13558,"Ġcombustion":13559,"Ġoak":13560,"illery":13561,"ensing":13562,"Ġcoupled":13563,"Ġarrangements":13564,"Fe":13565,"ĠTitan":13566,"adows":13567,"Ġcritics":13568,"Ġpeas":13569,"ĠGPS":13570,"Ġmunicipal":13571,"auses":13572,"Ġstro":13573,"ĠEV":13574,"oglob":13575,"Ġ62":13576,"ĠAnti":13577,"Ġinevitable":13578,"Ġrip":13579,"Yet":13580,"dig":13581,"ĠGive":13582,"Ġsettlements":13583,"erk":13584,"uters":13585,"Ġprejud":13586,"Ġdraws":13587,"ceedings":13588,"Ġrolling":13589,"Ġcultivated":13590,"ĠPortuguese":13591,"wich":13592,"Ġautonomous":13593,"Ġcompeting":13594,"Ġinstructor":13595,"Ġlinguistic":13596,"site":13597,"Ġmaintains":13598,"Check":13599,"Ġhepatitis":13600,"Ġtet":13601,"ĠConn":13602,"Ġearthquakes":13603,"izophren":13604,"Ġqueen":13605,"ĠBiological":13606,"direct":13607,"sels":13608,"%),":13609,"stan":13610,"ĠKit":13611,"Ġcultivation":13612,"than":13613,"Ġathe":13614,"Ġphon":13615,"Ġmodifications":13616,"ĠColomb":13617,"Ġspirits":13618,"oriented":13619,"SM":13620,"Ġarsen":13621,"Ġdrying":13622,"stable":13623,"sets":13624,"ysics":13625,"Ġhoped":13626,"Ġinstructional":13627,"ĠOlympic":13628,"Af":13629,"irk":13630,"Ġsucc":13631,"ervice":13632,"DC":13633,"ĠVerm":13634,"ĠDiseases":13635,"ĠCapital":13636,"tw":13637,"driven":13638,"bot":13639,"Ġbiblical":13640,"ocate":13641,"rative":13642,"Ġ1963":13643,"itime":13644,"axis":13645,"Ġunsu":13646,"ĠVI":13647,"Ġabdomen":13648,"Ġ67":13649,"DT":13650,"Ġyog":13651,"Ġsmok":13652,"Ġcrystals":13653,"Point":13654,"Ġsends":13655,"Ġworms":13656,"Ġresolved":13657,"Ġactivation":13658,"ĠBerkeley":13659,"Ġtrillion":13660,"Ġprototype":13661,"ĠSound":13662,"Ġenroll":13663,"Ġhorizon":13664,"Ġmicroscope":13665,"ÙĪ":13666,"otle":13667,"ĠEaster":13668,"ĠMaybe":13669,"fram":13670,"irie":13671,"obacter":13672,"Ġliber":13673,"Ġsemic":13674,"Ġpour":13675,"Ġassass":13676,"Ġresting":13677,"rology":13678,"arbon":13679,"Ġstrings":13680,"Ġsurgeon":13681,"Ġcompromise":13682,"Ġcervical":13683,"jan":13684,"ĠCompar":13685,"igo":13686,"Ġrated":13687,"Ġclot":13688,"Ġinvestigating":13689,"Ġdemanding":13690,"Ġadjusted":13691,"Ġcritically":13692,"PT":13693,"ĠLakes":13694,"perature":13695,"ĠMechan":13696,"Ġtablets":13697,"Ġhub":13698,"amel":13699,"Ġlayout":13700,"ĠBabylon":13701,"Article":13702,"pack":13703,"ĠLuke":13704,"ĠPeru":13705,"ignt":13706,"ivic":13707,"Ġram":13708,"Ġintercon":13709,"Ġcentres":13710,"lighten":13711,"Ġastronomers":13712,"Ġmicrobial":13713,"Ġmetaphor":13714,"Red":13715,"ĠPrior":13716,"Ġregards":13717,"Ġtuber":13718,"rehend":13719,"Ġcock":13720,"Ġjun":13721,"Ġconditioning":13722,"Ġpeculiar":13723,"ragon":13724,"Ġhandful":13725,"Bet":13726,"tem":13727,"ĠStress":13728,"Ġsolved":13729,"Ġvulnerability":13730,"ĠNurs":13731,"Ġ59":13732,"Ġexamines":13733,"Ġproblematic":13734,"Ġutter":13735,"Ġmechanics":13736,"Ġrestaurants":13737,"Does":13738,"ĠSant":13739,"iasis":13740,"ĠAy":13741,"resistant":13742,"oths":13743,"ĠDisorder":13744,"imated":13745,"Ġtraces":13746,"Ġcarrier":13747,"ussian":13748,"Non":13749,"Ġcro":13750,"Ġhighway":13751,"Ġlanded":13752,"1016":13753,"ĠEat":13754,"ĠGenerally":13755,"hess":13756,"itar":13757,"Ġdesigner":13758,"Ġillustrates":13759,"Ġemphasize":13760,"ocene":13761,"Min":13762,"Ġfusion":13763,"ĠChemistry":13764,"pler":13765,"Ġdozens":13766,"nee":13767,"Ġmedian":13768,"Ġdrilling":13769,"Ġpassenger":13770,"Ġpressing":13771,"Ġproposals":13772,"Ġepisodes":13773,"Social":13774,"Ġdot":13775,"ĠCalc":13776,"1999":13777,"ĠHou":13778,"Ġthou":13779,"Ġrum":13780,"agu":13781,"ĠApollo":13782,"Ġmandatory":13783,"pose":13784,"pub":13785,"Ġdwarf":13786,"irs":13787,"Ġstopping":13788,"ĠMcK":13789,"ĠFrederick":13790,"Ġhasn":13791,"ĠKal":13792,"Ġdeny":13793,"pop":13794,"ĠDog":13795,"Ġrhet":13796,"ĠFollow":13797,"Ġprocessor":13798,"Ġsupportive":13799,"Ġconnects":13800,"Ġ1917":13801,"Ġscrap":13802,"Ġterrain":13803,"thy":13804,"Ġinterven":13805,"ĠSydney":13806,"Ġretention":13807,"Ġtranslate":13808,"writing":13809,"ĠBrig":13810,"Three":13811,"Ġdrum":13812,"Ġsuspended":13813,"Develop":13814,"Mc":13815,"pit":13816,"Ġbesides":13817,"ĠTu":13818,"otive":13819,"ĠFun":13820,"ikh":13821,"ĠCoal":13822,"Ġasteroid":13823,"ĠAdams":13824,"Ġposture":13825,"Ġdaughters":13826,"Ġshame":13827,"Class":13828,"Ġdownt":13829,"sim":13830,"ĠHolocaust":13831,"Ġoutbreaks":13832,"Human":13833,"Ġarom":13834,"comput":13835,"Ġrituals":13836,"Ġperipheral":13837,"fin":13838,"ĠForum":13839,"Ġpromises":13840,"cap":13841,"ĠLes":13842,"Ġcountless":13843,"Ġinnovations":13844,"ĠAnglo":13845,"ĠAccessed":13846,"Whether":13847,"Ġbod":13848,"Ġuntreated":13849,"Ġhomeless":13850,"source":13851,"ĠMRI":13852,"Ġdisabled":13853,"Ġcargo":13854,"Ġtears":13855,"ĠHope":13856,"Ġblade":13857,"ĠEuropeans":13858,"depth":13859,"Ġuncomfortable":13860,"lie":13861,"rones":13862,"retion":13863,"ĠLtd":13864,"Ġq":13865,"enc":13866,"Ġamph":13867,"cerpt":13868,"Ġportable":13869,"Ġpipeline":13870,"cha":13871,"Ġgrasp":13872,"Ġaccordingly":13873,"Ġdamp":13874,"ĠBlock":13875,"food":13876,"onut":13877,"ĠTool":13878,"ĠSC":13879,"AND":13880,"ĠTravel":13881,"Ġwitnessed":13882,"Ġincub":13883,"Ġuncommon":13884,"ĠFried":13885,"ĠHug":13886,"Ġretired":13887,"Ġ97":13888,"Ġparameter":13889,"orrh":13890,"ĠEinstein":13891,"hesia":13892,"ĠTech":13893,"Ġnetworking":13894,"Ġelectromagnetic":13895,"Ġformally":13896,"Ġsimulations":13897,"Ø§ÙĦ":13898,"Ġshooting":13899,"powered":13900,"Ġgardening":13901,"Ġcoordinate":13902,"LO":13903,"ðŁ":13904,"ĠCzech":13905,"ĠDate":13906,"ĠYouTube":13907,"Ġretreat":13908,"Ġglasses":13909,"ĠEthiopia":13910,"Ùĩ":13911,"ĠCON":13912,"Ġ1850":13913,"Ġgoddess":13914,"represent":13915,"Ġprohibited":13916,"Ġelaborate":13917,"reas":13918,"atern":13919,"Ġobtaining":13920,"ĠSmart":13921,"ĠArchived":13922,"Ġclimb":13923,"Ġobligations":13924,"Women":13925,"nest":13926,"itated":13927,"stock":13928,"Ġpublishing":13929,"Ġmomentum":13930,"ĠExtension":13931,"August":13932,"chi":13933,"imental":13934,"ulse":13935,"usually":13936,"Ġrecruit":13937,"PP":13938,"Ġdye":13939,"ĠCE":13940,"Ġwashed":13941,"Ġdescent":13942,"ulatory":13943,"Ġsignaling":13944,"imeters":13945,"Ġapproaching":13946,"eer":13947,"abase":13948,"usions":13949,"Ġmodification":13950,"Ġafterwards":13951,"Ġsits":13952,"Ġincons":13953,"Ġcarved":13954,"Ġlaying":13955,"Ġstrengthening":13956,"ĠBasin":13957,"Ġtomatoes":13958,"Ġdisagree":13959,"Out":13960,"Ġfailures":13961,"Ġspotted":13962,"Ġrecipe":13963,"ĠCurrently":13964,"Ġmysterious":13965,"Ġformats":13966,"ĠAlong":13967,"Ġurgent":13968,"Ġneighborhoods":13969,"arettes":13970,"Ġdisplace":13971,"gic":13972,"Ġcater":13973,"ancies":13974,"Ġelite":13975,"Ġdynasty":13976,"Ġodds":13977,"Time":13978,"ĠMoscow":13979,"Ġmonetary":13980,"anyon":13981,"Expl":13982,"Ġpyram":13983,"Ġmosquitoes":13984,"Ġdiesel":13985,"ede":13986,"emen":13987,"Ġquestionna":13988,"ĠHarry":13989,"uated":13990,"Ġsuppl":13991,"Ġstocks":13992,"Ġwilderness":13993,"Ġrequested":13994,"ĠMoore":13995,"Ġindoors":13996,"ativity":13997,"Ġsexually":13998,"Ġanxious":13999,"Ġstruggles":14000,"Ġcrystall":14001,"Ġfrost":14002,"Ġfolks":14003,"ophers":14004,"ignty":14005,"Life":14006,"Ġunited":14007,"Ġeverybody":14008,"Ġlitter":14009,"Ġmemorial":14010,"autions":14011,"control":14012,"Ġtomorrow":14013,"Ġcounterparts":14014,"urities":14015,"Ġasym":14016,"onder":14017,"Ġdisciples":14018,"Ġpublish":14019,"Ġbreeds":14020,"brates":14021,"Ġbirthday":14022,"atis":14023,"race":14024,"ĠBrad":14025,"Ġlimb":14026,"log":14027,"Ġtrunk":14028,"engine":14029,"ccessful":14030,"Ġsingular":14031,"Ġflux":14032,"Ġsilk":14033,"elta":14034,"Ġillustration":14035,"ĠBelow":14036,"Ġfeathers":14037,"walk":14038,"Ġrust":14039,"ĠLanc":14040,"Ġinfrared":14041,"Ġimmers":14042,"Ġapples":14043,"Ġsatisfied":14044,"Ġcounseling":14045,"Ġoun":14046,"leans":14047,"ĠSong":14048,"ĠAnth":14049,"Ġpresentations":14050,"ATE":14051,"Ġvariants":14052,"Ġreconstruct":14053,"Ġunwanted":14054,"))":14055,"Ġstrat":14056,"Ġdelicate":14057,"Ġau":14058,"ĠCust":14059,"Ġrash":14060,"ĠRE":14061,"ĠGi":14062,"ĠYe":14063,"Ġprimitive":14064,"Ġpneumonia":14065,"Ġpriorities":14066,"Ġpermanently":14067,"Ġaesthetic":14068,"Ġbeaches":14069,"Ġprelim":14070,"Ġambit":14071,"orescent":14072,
[...]
