{"<pad>": 0, "<s>": 1, "</s>": 2, "<unk>": 3, "!": 4, "\"": 5, "#": 6, "$": 7, "%": 8, "&": 9, "'": 10, "(": 11, ")": 12, "*": 13, "+": 14, ",": 15, "-": 16, ".": 17, "/": 18, "0": 19, "1": 20, "2": 21, "3": 22, "4": 23, "5": 24, "6": 25, "7": 26, "8": 27, "9": 28, ":": 29, ";": 30, "<": 31, "=": 32, ">": 33, "?": 34, "@": 35, "A": 36, "B": 37, "C": 38, "D": 39, "E": 40, "F": 41, "G": 42, "H": 43, "I": 44, "J": 45, "K": 46, "L": 47, "M": 48, "N": 49, "O": 50, "P": 51, "Q": 52, "R": 53, "S": 54, "T": 55, "U": 56, "V": 57, "W": 58, "X": 59, "Y": 60, "Z": 61, "[": 62, "\\": 63, "]": 64, "^": 65, "_": 66, "`": 67, "a": 68, "b": 69, "c": 70, "d": 71, "e": 72, "f": 73, "g": 74, "h": 75, "i": 76, "j": 77, "k": 78, "l": 79, "m": 80, "n": 81, "o": 82, "p": 83, "q": 84, "r": 85, "s": 86, "t": 87, "u": 88, "v": 89, "w": 90, "x": 91, "y": 92, "z": 93, "{": 94, "|": 95, "}": 96, "~": 97, "\u00a1": 98, "\u00a2": 99, "\u00a3": 100, "\u00a4": 101, "\u00a5": 102, "\u00a6": 103, "\u00a7": 104, "\u00a8": 105, "\u00a9": 106, "\u00aa": 107, "\u00ab": 108, "\u00ac": 109, "\u00ae": 110, "\u00af": 111, "\u00b0": 112, "\u00b1": 113, "\u00b2": 114, "\u00b3": 115, "\u00b4": 116, "\u00b5": 117, "\u00b6": 118, "\u00b7": 119, "\u00b8": 120, "\u00b9": 121, "\u00ba": 122, "\u00bb": 123, "\u00bc": 124, "\u00bd": 125, "\u00be": 126, "\u00bf": 127, "\u00c0": 128, "\u00c1": 129, "\u00c2": 130, "\u00c3": 131, "\u00c4": 132, "\u00c5": 133, "\u00c6": 134, "\u00c7": 135, "\u00c8": 136, "\u00c9": 137, "\u00ca": 138, "\u00cb": 139, "\u00cc": 140, "\u00cd": 141, "\u00ce": 142, "\u00cf": 143, "\u00d0": 144, "\u00d1": 145, "\u00d2": 146, "\u00d3": 147, "\u00d4": 148, "\u00d5": 149, "\u00d6": 150, "\u00d7": 151, "\u00d8": 152, "\u00d9": 153, "\u00da": 154, "\u00db": 155, "\u00dc": 156, "\u00dd": 157, "\u00de": 158, "\u00df": 159, "\u00e0": 160, "\u00e1": 161, "\u00e2": 162, "\u00e3": 163, "\u00e4": 164, "\u00e5": 165, "\u00e6": 166, "\u00e7": 167, "\u00e8": 168, "\u00e9": 169, "\u00ea": 170, "\u00eb": 171, "\u00ec": 172, "\u00ed": 173, "\u00ee": 174, "\u00ef": 175, "\u00f0": 176, "\u00f1": 177, "\u00f2": 178, "\u00f3": 179, "\u00f4": 180, "\u00f5": 181, "\u00f6": 182, "\u00f7": 183, "\u00f8": 184, "\u00f9": 185, "\u00fa": 186, "\u00fb": 187, "\u00fc": 188, "\u00fd": 189, "\u00fe": 190, "\u00ff": 191, "\u0100": 192, "\u0101": 193, "\u0102": 194, "\u0103": 195, "\u0104": 196, "\u0105": 197, "\u0106": 198, "\u0107": 199, "\u0108": 200, "\u0109": 201, "\u010a": 202, "\u010b": 203, "\u010c": 204, "\u010d": 205, "\u010e": 206, "\u010f": 207, "\u0110": 208, "\u0111": 209, "\u0112": 210, "\u0113": 211, "\u0114": 212, "\u0115": 213, "\u0116": 214, "\u0117": 215, "\u0118": 216, "\u0119": 217, "\u011a": 218, "\u011b": 219, "\u011c": 220, "\u011d": 221, "\u011e": 222, "\u011f": 223, "\u0120": 224, "\u0121": 225, "\u0122": 226, "\u0123": 227, "\u0124": 228, "\u0125": 229, "\u0126": 230, "\u0127": 231, "\u0128": 232, "\u0129": 233, "\u012a": 234, "\u012b": 235, "\u012c": 236, "\u012d": 237, "\u012e": 238, "\u012f": 239, "\u0130": 240, "\u0131": 241, "\u0132": 242, "\u0133": 243, "\u0134": 244, "\u0135": 245, "\u0136": 246, "\u0137": 247, "\u0138": 248, "\u0139": 249, "\u013a": 250, "\u013b": 251, "\u013c": 252, "\u013d": 253, "\u013e": 254, "\u013f": 255, "\u0140": 256, "\u0141": 257, "\u0142": 258, "\u0143": 259, "\u0120t": 260, "\u0120a": 261, "he": 262, "in": 263, "re": 264, "\u0120the": 265, "on": 266, "er": 267, "\u0120o": 268, "at": 269, "\u0120s": 270, "en": 271, "\u0120c": 272, "\u0120w": 273, "es": 274, "is": 275, "nd": 276, "it": 277, "or": 278, "\u0120p": 279, "al": 280, "\u0120b": 281, "ed": 282, "an": 283, "\u0120of": 284, "\u0120f": 285, "ing": 286, "\u0120in": 287, "ou": 288, "ar": 289, "\u0120m": 290, "\u0120and": 291, "\u0120to": 292, "ic": 293, "\u0120d": 294, "ion": 295, "le": 296, "ro": 297, "as": 298, "\u0120h": 299, "ent": 300, "\u0120th": 301, "ct": 302, "\u0120e": 303, "il": 304, "\u0120re": 305, "om": 306, "ve": 307, "\u0120l": 308, "st": 309, "\u0120n": 310, "ly": 311, "\u0120be": 312, "\u00e2\u0122": 313, "\u0120is": 314, "\u0120T": 315, "se": 316, "ol": 317, "\u0120g": 318, "ation": 319, "im": 320, "id": 321, "et": 322, "ut": 323, "ce": 324, "ot": 325, "ur": 326, "ch": 327, "ra": 328, "ow": 329, "\u0120A": 330, "\u0120for": 331, "ig": 332, "\u0120u": 333, "\u0120that": 334, "\u0120on": 335, "\u0120S": 336, "\u0120st": 337, "ver": 338, "\u0120y": 339, "\u0120C": 340, "\u0120I": 341, "ir": 342, "ul": 343, "ay": 344, "am": 345, "\u0120as": 346, "ith": 347, "el": 348, "ad": 349, "\u0120pro": 350, "her": 351, "\u0120are": 352, "\u0120con": 353, "\u0120an": 354, "\u0120with": 355, "if": 356, "\u0120you": 357, "\u0120wh": 358, "\u0120it": 359, "\u0120or": 360, "\u0120al": 361, "ter": 362, "od": 363, "\u0120M": 364, "\u0120The": 365, "\u0120(": 366, "ment": 367, "ge": 368, "\u0120P": 369, "th": 370, "\u01201": 371, "op": 372, "ate": 373, "ist": 374, "ers": 375, "\u0120de": 376, "ill": 377, "ies": 378, "\u0120he": 379, "ess": 380, "ab": 381, "\u0120B": 382, "\u0120ex": 383, "us": 384, "\u0120we": 385, "ore": 386, "ect": 387, "\u0120su": 388, "\u0120com": 389, "\u00e2\u0122\u013b": 390, "ity": 391, "est": 392, "ac": 393, "res": 394, "ive": 395, "\u0120ha": 396, "um": 397, "ld": 398, "\u0120H": 399, "rom": 400, "\u0120v": 401, "os": 402, "ke": 403, "\u0120by": 404, "em": 405, "ant": 406, "qu": 407, "iv": 408, "ain": 409, "\u0120W": 410, "nt": 411, "\u0120at": 412, "pp": 413, "igh": 414, "\u0120was": 415, "\u0120can": 416, "\u0120D": 417, "ud": 418, "\u0120from": 419, "\u0120ch": 420, "\u0120E": 421, "oc": 422, "and": 423, "\u0120r": 424, "\u0120R": 425, "ort": 426, "\u0120ne": 427, "\u0120F": 428, "\u0120se": 429, "ial": 430, "\u01202": 431, "ure": 432, "\u0120\u00e2\u0122": 433, "\u0120not": 434, "un": 435, "\u0120le": 436, "art": 437, "ical": 438, "\u0120G": 439, "\u0120N": 440, "\u0120have": 441, "ri": 442, "og": 443, "\u0120L": 444, "\u0120sh": 445, "\u0120en": 446, "\u0120sp": 447, "\u0120this": 448, "ight": 449, "\u0120ab": 450, "pt": 451, "rou": 452, "ich": 453, "\u0120wor": 454, "red": 455, "all": 456, "ther": 457, "00": 458, "ould": 459, "ions": 460, "gh": 461, "ost": 462, "The": 463, "ome": 464, "our": 465, "du": 466, "\u0120im": 467, "ated": 468, "\u0120us": 469, "ine": 470, "per": 471, "\u0120pl": 472, "out": 473, "ard": 474, "ag": 475, "\u0120their": 476, "ide": 477, "ell": 478, "act": 479, "ff": 480, "\u0120int": 481, "\u0120O": 482, "ans": 483, "pl": 484, "ast": 485, "ear": 486, "age": 487, "ak": 488, "ust": 489, "\u0120which": 490, "\u0120k": 491, "\u0120your": 492, "\u0120whe": 493, "\u0120they": 494, "ec": 495, "\u0120J": 496, "ous": 497, "iz": 498, "\u0120U": 499, "ood": 500, "\u0120all": 501, "\u0120ad": 502, "ib": 503, "\u0120will": 504, "ult": 505, "\u0120cont": 506, "\u0120In": 507, "\u0120inc": 508, "end": 509, "cc": 510, "ru": 511, "\u0120dis": 512, "\u0120more": 513, "\u00e2\u0122\u013f": 514, "ong": 515, "ap": 516, "\u0120comp": 517, "ip": 518, "\u0120res": 519, "ia": 520, "ew": 521, "vel": 522, "ations": 523, "\u0120has": 524, "ere": 525, "so": 526, "\u0120do": 527, "orm": 528, "ater": 529, "ary": 530, "\u0120Th": 531, "ild": 532, "ence": 533, "are": 534, "able": 535, "\u0120other": 536, "\u0120man": 537, "ual": 538, "\u0120cl": 539, "ks": 540, "\u0120but": 541, "\u0120were": 542, "ry": 543, "ind": 544, "\u0120te": 545, "ents": 546, "\u0120per": 547, "\u0120\u00e2\u0122\u013e": 548, "ep": 549, "\u0120me": 550, "\u0120one": 551, "ach": 552, "\u0120imp": 553, "\u0120also": 554, "ance": 555, "'s": 556, "reat": 557, "ose": 558, "ign": 559, "ake": 560, "ass": 561, "ress": 562, "ase": 563, "au": 564, "\u0120so": 565, "av": 566, "\u012019": 567, "ction": 568, "\u0120j": 569, "ition": 570, "\u0120out": 571, "ice": 572, "\u0120app": 573, "\u0120un": 574, "one": 575, "very": 576, "ime": 577, "\u0120ar": 578, "ber": 579, "\u0120part": 580, "\u0120about": 581, "\u0120stud": 582, "ace": 583, "\u0120ev": 584, "ord": 585, "ory": 586, "ens": 587, "ok": 588, "\u0120who": 589, "\u0120St": 590, "ish": 591, "ount": 592, "ack": 593, "ame": 594, "ire": 595, "\u0120pe": 596, ").": 597, "\u0120inf": 598, "\u0120his": 599, "\u0120sy": 600, "\u0120them": 601, "ue": 602, "\u0120comm": 603, "ub": 604, "ors": 605, "ite": 606, "\u0120sc": 607, "ces": 608, "ang": 609, "ike": 610, "\u0120K": 611, "ree": 612, "now": 613, "ound": 614, "olog": 615, "low": 616, "\u0120bec": 617, "\u0120up": 618, "\u0120It": 619, "\u0120pre": 620, "\u0120\"": 621, "\u0120than": 622, "\u0120may": 623, "ie": 624, "ric": 625, "\u0120qu": 626, "ile": 627, "iff": 628, "\u0120some": 629, "ople": 630, "\u0120Ch": 631, "ays": 632, "\u0120year": 633, "\u0120rec": 634, "ian": 635, "\u0120there": 636, "ail": 637, "ates": 638, "\u0120when": 639, "\u0120been": 640, "nder": 641, "ings": 642, "ough": 643, "\u0120its": 644, "mer": 645, "\u0120go": 646, "\u0120into": 647, "\u0120ag": 648, "ren": 649, "\u0120time": 650, "\u0120tra": 651, "ph": 652, "te": 653, "vers": 654, "\u0120work": 655, "\u0120This": 656, "\u0120these": 657, "rit": 658, "ons": 659, "erv": 660, "\u0120over": 661, "\u012020": 662, "\u0120people": 663, "\u0120diff": 664, "rough": 665, "ally": 666, "\u0120how": 667, "\u0120V": 668, "lud": 669, "ause": 670, "\u0120cons": 671, "\u0120use": 672, "\u0120ro": 673, "ond": 674, "tern": 675, "\u0120our": 676, "\u0120tr": 677, "\u0120ra": 678, "ms": 679, "ll": 680, "ove": 681, "\u0120had": 682, "\u0120col": 683, "ific": 684, "\u0120act": 685, "\u01203": 686, "\u0120bet": 687, "we": 688, "\u0120most": 689, "int": 690, "\u0120know": 691, "\u0120under": 692, "\u0120like": 693, "ities": 694, "ys": 695, "lic": 696, "irst": 697, "ments": 698, "alth": 699, "lect": 700, "ject": 701, "\u0120sa": 702, "\u0120des": 703, "ning": 704, "\u0120would": 705, "\u0120bl": 706, "ious": 707, "ook": 708, "les": 709, "\u0120acc": 710, "row": 711, "\u0120Y": 712, "velop": 713, "stem": 714, "\u0120tw": 715, "\u0120need": 716, "\u0120such": 717, "\u0120new": 718, "\u0120rel": 719, "ffect": 720, "\u0120if": 721, "\u0120rep": 722, "\u0120child": 723, "\u0120any": 724, "ient": 725, "\u0120gen": 726, "ational": 727, "\u0120includ": 728, "ob": 729, "\u0120hel": 730, "cess": 731, "ative": 732, "\u0120what": 733, "ple": 734, "ular": 735, "hed": 736, "yp": 737, "\u0120help": 738, "\u0120used": 739, "ced": 740, "\u0120only": 741, "ool": 742, "ating": 743, "\u0120ph": 744, "\u0120pr": 745, "\u0120produ": 746, "\u0120no": 747, "\u0120prov": 748, "\u0120ind": 749, "ov": 750, "\u0120many": 751, "\u0120am": 752, "\u0120develop": 753, "),": 754, "\u0120through": 755, "\u0120off": 756, "\u0120first": 757, "\u0120spec": 758, "\u0120Un": 759, "\u0120fe": 760, "fter": 761, "oss": 762, "ics": 763, "round": 764, "ark": 765, "\u0120reg": 766, "ise": 767, "ath": 768, "uc": 769, "\u0120po": 770, "\u0120di": 771, "\u0120ac": 772, "eth": 773, "\u0120exp": 774, "hen": 775, "\u0120em": 776, "rib": 777, "ful": 778, "erm": 779, "uring": 780, "\u0120two": 781, "ts": 782, "\u0120system": 783, "oth": 784, "ink": 785, "\u0120differe": 786, "iss": 787, "ne": 788, "old": 789, "\u0120ob": 790, "ility": 791, "\u0120ass": 792, "als": 793, "ible": 794, "\u0120dec": 795, "rop": 796, "\u0120att": 797, "ased": 798, "\u0120add": 799, "ten": 800, "\u0120sur": 801, "\u0120\u00e2\u0122\u0135": 802, "ange": 803, "ife": 804, "\u0120-": 805, "\u0120should": 806, "\u0120He": 807, "ert": 808, "ures": 809, "ower": 810, "fore": 811, "aw": 812, "In": 813, "arch": 814, "ble": 815, "\u0120well": 816, "ram": 817, "\u0120fl": 818, "\u0120water": 819, "ween": 820, "ng": 821, "ract": 822, "\u0120supp": 823, "\u0120rem": 824, "\u0120years": 825, "\u0120inv": 826, "\u0120sub": 827, "\u0120201": 828, "own": 829, "sel": 830, "\u0120co": 831, "ade": 832, "gan": 833, "ied": 834, "\u0120200": 835, "\u0120sm": 836, "\u0120between": 837, "ution": 838, "\u0120health": 839, "hes": 840, "\u01204": 841, "\u0120could": 842, "\u0120high": 843, "its": 844, "\u0120pres": 845, "cy": 846, "\u0120where": 847, "ever": 848, "ick": 849, "\u0120trans": 850, "ily": 851, "\u0120make": 852, "uch": 853, "wn": 854, "xt": 855, "\u0120get": 856, "\u01205": 857, "chool": 858, "ants": 859, "chn": 860, "ology": 861, "ss": 862, "\u0120bu": 863, "\u0120pers": 864, "form": 865, "\u0120import": 866, "\u0120her": 867, "ience": 868, "\u0120rese": 869, "ural": 870, "ident": 871, "\u0120inter": 872, "\u0120ear": 873, "ited": 874, "ting": 875, "\u0120form": 876, "meric": 877, "\u0120mod": 878, "\u0120inst": 879, "\u0120pol": 880, "\u0120disc": 881, "\u0120num": 882, "iet": 883, "land": 884, "\u0120exam": 885, "ines": 886, "ins": 887, "ont": 888, "\u0120found": 889, "\u0120lear": 890, "ict": 891, "ef": 892, "\u0120different": 893, "\u0120because": 894, "ists": 895, "gy": 896, "hat": 897, "ually": 898, "\u0120after": 899, "\u0120sim": 900, "\u0120then": 901, "\u0120lar": 902, "ness": 903, "ata": 904, "\u0120car": 905, "\u0120exper": 906, "\u0120long": 907, "\u0120even": 908, "\u0120effect": 909, "\u0120world": 910, "\u0120very": 911, "\u0120just": 912, "ft": 913, "\u0120med": 914, "\u0120hum": 915, "\u0120cent": 916, "\u0120way": 917, "cept": 918, "\u0120inform": 919, "\u0120incre": 920, "urn": 921, "ature": 922, "\u0120det": 923, "oy": 924, "ism": 925, "\u0120typ": 926, "other": 927, "\u0120ed": 928, "get": 929, "aking": 930, "\u0120see": 931, "\u012018": 932, "\u0120count": 933, "\u0120resp": 934, "ically": 935, "\u0120Americ": 936, "ivers": 937, "\u0120ref": 938, "ives": 939, "vent": 940, "\u0120ke": 941, "\u0120those": 942, "ollow": 943, "\u0120sign": 944, "\u0120gener": 945, "\u0120var": 946, "iew": 947, "\u0120prog": 948, "cer": 949, "\u0120children": 950, "\u0120every": 951, "\u0120pat": 952, "\u0120ext": 953, "\u0120call": 954, "\u0120pub": 955, "\u0120said": 956, "\u0120process": 957, "omm": 958, "\u0120result": 959, "\u0120being": 960, "arm": 961, "ck": 962, "\u0120each": 963, "led": 964, "\u0120fact": 965, "ds": 966, "ps": 967, "\u0120soc": 968, "ues": 969, "\u0120loc": 970, "ases": 971, "\u0120sec": 972, ".\u00e2\u0122\u013f": 973, "iron": 974, "\u0120partic": 975, "tle": 976, "\u0120ca": 977, "\u0120techn": 978, "\u0120set": 979, "\u0120gra": 980, "ruct": 981, "ody": 982, "ork": 983, "\u0120important": 984, "\u0120life": 985, "Th": 986, "ages": 987, "\u0120requ": 988, "\u0120dist": 989, "\u0120Al": 990, "\u0120my": 991, "\u0120much": 992, "\u0120We": 993, "\u0120commun": 994, "\u0120she": 995, "\u0120cre": 996, "..": 997, "\u0120fam": 998, "\u0120mon": 999, "vern": 1000, "\u0120Pro": 1001, "ather": 1002, "\u0120dep": 1003, "\u0120art": 1004, "\u0120students": 1005, "\u0120def": 1006, "\u0120information": 1007, "cent": 1008, "ved": 1009, "\u0120follow": 1010, "\u0120ent": 1011, "\u0120food": 1012, "ized": 1013, "imes": 1014, "\u0120during": 1015, "\u0120own": 1016, "ward": 1017, "\u0120read": 1018, "\u0120right": 1019, "\u0120They": 1020, "ices": 1021, "\u0120level": 1022, "\u0120As": 1023, "\u0120same": 1024, "\u0120made": 1025, "\u0120lead": 1026, "gg": 1027, "\u0120sk": 1028, "\u0120does": 1029, "\u0120Re": 1030, "ection": 1031, "\u0120aut": 1032, "any": 1033, "\u0120study": 1034, "ize": 1035, "hip": 1036, "\u0120person": 1037, "\u0120find": 1038, "\u0120proble": 1039, "\u0120grow": 1040, "the": 1041, "\u0120cur": 1042, "io": 1043, "\u01206": 1044, "\u0120av": 1045, "\u0120If": 1046, "\u0120data": 1047, "\u0120school": 1048, "\u0120min": 1049, "\u0120back": 1050, "\u0120end": 1051, "\u0120good": 1052, "ted": 1053, "\u0120str": 1054, "\u0120che": 1055, "\u0120ins": 1056, "\u0120both": 1057, "ale": 1058, "\u0120An": 1059, "und": 1060, "\u0120For": 1061, "onom": 1062, "viron": 1063, "\u0120pop": 1064, "\u0120using": 1065, "\u0120grou": 1066, "\u0120before": 1067, "omen": 1068, "\u0120comple": 1069, "ality": 1070, "\u0120show": 1071, "\u0120small": 1072, "\u0120expl": 1073, "\u0120hist": 1074, "stand": 1075, "\u0120gl": 1076, "\u0120Ar": 1077, "ially": 1078, "\u0120cor": 1079, ".,": 1080, "ivid": 1081, "read": 1082, "ars": 1083, "\u0120test": 1084, "\u0120again": 1085, "ty": 1086, "19": 1087, "\u0120treat": 1088, "ince": 1089, "\u0120often": 1090, "\u0120main": 1091, "\u0120prot": 1092, "iel": 1093, "inal": 1094, "ined": 1095, "\u0120How": 1096, "ock": 1097, "\u0120bo": 1098, "rol": 1099, "ergy": 1100, "nce": 1101, "\u0120less": 1102, "20": 1103, "\u0120sol": 1104, "der": 1105, "\u0120br": 1106, "\u0120poss": 1107, "\u0120while": 1108, "\u0120val": 1109, "imate": 1110, "ute": 1111, "ix": 1112, "000": 1113, "\u0120day": 1114, "||": 1115, "ished": 1116, "ex": 1117, "\u0120take": 1118, "\u0120dise": 1119, "\u0120state": 1120, "\u0120lit": 1121, "akes": 1122, "\u0120cell": 1123, "\u0120now": 1124, "\u0120Sp": 1125, "\u0120him": 1126, "ax": 1127, "\u0120Ind": 1128, "\u0120New": 1129, "ien": 1130, "\u0120occ": 1131, "\u0120number": 1132, "oh": 1133, "\u0120mem": 1134, "\u0120human": 1135, "\u0120ris": 1136, "vironment": 1137, "ral": 1138, "\u0120serv": 1139, "irect": 1140, "\u0120power": 1141, "ulation": 1142, "\u0120ec": 1143, "ier": 1144, "\u0120vis": 1145, "ides": 1146, "\u0120body": 1147, "\u0120organ": 1148, "\u0120research": 1149, "dition": 1150, "iqu": 1151, "\u0120fun": 1152, "ury": 1153, "\u0120activ": 1154, "\u0120design": 1155, "\u0120char": 1156, "iety": 1157, "up": 1158, "iversity": 1159, "air": 1160, "ered": 1161, "iving": 1162, "\u012010": 1163, "\u0120Sc": 1164, "\u0120around": 1165, "\u0120bel": 1166, "\u0120must": 1167, "\u0120hand": 1168, "\u0120three": 1169, "\u0120class": 1170, "\u0120down": 1171, "ah": 1172, "\u0120support": 1173, "ves": 1174, "\u0120redu": 1175, "uss": 1176, "\u0120look": 1177, "ters": 1178, "\u0120conf": 1179, "\u0120common": 1180, "ven": 1181, "hers": 1182, "ger": 1183, "\u0120start": 1184, "\u0120est": 1185, "ave": 1186, "day": 1187, "\u0120point": 1188, "ital": 1189, "\u0120cle": 1190, "\u0120great": 1191, "ium": 1192, "\u0120govern": 1193, "rent": 1194, "\u0120elect": 1195, "\u0120plan": 1196, "\u0120did": 1197, "ouse": 1198, "This": 1199, "ains": 1200, "aj": 1201, "\u0120ser": 1202, "\u01207": 1203, "ving": 1204, "\u00e2\u0122\u0136": 1205, "\u0120But": 1206, "\u0120large": 1207, "self": 1208, "\u0120land": 1209, "\u0120example": 1210, "ross": 1211, "acter": 1212, "rain": 1213, "gen": 1214, "cl": 1215, "\u0120contin": 1216, "ron": 1217, "\u0120care": 1218, "\u0120report": 1219, "\u01208": 1220, "\u0120allow": 1221, "\u0120You": 1222, "ee": 1223, "\u0120including": 1224, "\u0120op": 1225, "itions": 1226, "com": 1227, ",\u00e2\u0122\u013f": 1228, "\u0120though": 1229, "\u0120const": 1230, "ional": 1231, "ull": 1232, "ared": 1233, "orn": 1234, "\u0120cour": 1235, "\u0120understand": 1236, "\u0120There": 1237, "eg": 1238, "way": 1239, "ash": 1240, "anc": 1241, "\u0120met": 1242, "\u0120build": 1243, "\u0120educ": 1244, "\u0120equ": 1245, "\u0120som": 1246, "\u0120ret": 1247, "\u0120called": 1248, "\u0120writ": 1249, "\u0120adv": 1250, "\u0120pract": 1251, "\u0120dr": 1252, "ner": 1253, "iven": 1254, "\u0120beh": 1255, "\u0120still": 1256, "outh": 1257, "aterial": 1258, "\u0120And": 1259, "els": 1260, "\u0120known": 1261, "ividual": 1262, "\u0120public": 1263, "\u0120quest": 1264, "iver": 1265, "\u0120think": 1266, "\u0120eas": 1267, "reen": 1268, "\u0120ide": 1269, "erest": 1270, "\u0120gu": 1271, "ired": 1272, "inc": 1273, "\u0120place": 1274, "\u0120\u00e2\u0122\u013a": 1275, "ids": 1276, "\u0120few": 1277, "osed": 1278, "10": 1279, "oci": 1280, "\u0120appro": 1281, "\u00e2\u0122\u013e": 1282, ".\"": 1283, "iod": 1284, "oms": 1285, "ential": 1286, "ider": 1287, "\u0120mat": 1288, "ected": 1289, "\u0120Is": 1290, "\u0120might": 1291, "ination": 1292, "ries": 1293, "de": 1294, "ources": 1295, "\u0120energy": 1296, "ization": 1297, "itive": 1298, "\u01209": 1299, "\u00e2\u0122\u0135": 1300, "\u0120present": 1301, "\u0120environment": 1302, "\u0120Wh": 1303, "\u0120stand": 1304, "ration": 1305, "\u0120chang": 1306, "\u0120These": 1307, "\u0120want": 1308, "bers": 1309, "ense": 1310, "oun": 1311, "ets": 1312, "\u0120dem": 1313, "lish": 1314, "ank": 1315, "\u0120caus": 1316, "ior": 1317, "ethod": 1318, "raph": 1319, "eng": 1320, "ason": 1321, "\u0120without": 1322, "\u0120product": 1323, "\u0120within": 1324, "\u0120tem": 1325, "\u0120individual": 1326, "\u0120play": 1327, "\u0120change": 1328, "\u0120pur": 1329, "me": 1330, "\u0120iss": 1331, "ived": 1332, "ording": 1333, "ertain": 1334, "\u0120development": 1335, "tt": 1336, "ption": 1337, "\u0120phys": 1338, "ffic": 1339, "\u0120Eng": 1340, "\u0120don": 1341, "\u0120199": 1342, "\u0120sym": 1343, "\u0120learn": 1344, "\u0120University": 1345, "\u0120imm": 1346, "angu": 1347, "\u0120material": 1348, "\u0120ident": 1349, "arent": 1350, "esp": 1351, "\u0120project": 1352, "eral": 1353, "\u0120women": 1354, "line": 1355, "\u0120impro": 1356, "alk": 1357, "\u0120direct": 1358, "\u0120De": 1359, "ians": 1360, "\u0120disease": 1361, "\u0120ben": 1362, "less": 1363, "\u0120cap": 1364, "\u0120sit": 1365, "man": 1366, "\u0120light": 1367, "\u0120American": 1368, "\u0120&": 1369, "\u0120pot": 1370, "\u0120air": 1371, "\u0120prof": 1372, "\u0120pass": 1373, "\u0120another": 1374, "\u0120area": 1375, "\u0120pos": 1376, "\u0120ve": 1377, "orth": 1378, "\u0120bre": 1379, "agn": 1380, "illion": 1381, "\u0120law": 1382, "ability": 1383, "\u0120mus": 1384, "\u0120Con": 1385, "\u0120sl": 1386, "sc": 1387, "\u0120home": 1388, "\u0120social": 1389, "iness": 1390, "ological": 1391, "\u0120belie": 1392, "ental": 1393, "\u0120include": 1394, "\u0120interest": 1395, "ton": 1396, "\u0120eng": 1397, "\u0120best": 1398, "pr": 1399, "ified": 1400, "\u0120meas": 1401, "\u0120bas": 1402, "ajor": 1403, "bs": 1404, "\u0120pain": 1405, "\u0120desc": 1406, "rodu": 1407, "ats": 1408, "\u0120cult": 1409, "\u0120blood": 1410, "ield": 1411, "\u0120control": 1412, "erc": 1413, "ug": 1414, "It": 1415, "ify": 1416, "\u0120risk": 1417, "\u0120ant": 1418, "atic": 1419, "ained": 1420, "atural": 1421, "'t": 1422, "\u0120rest": 1423, "ering": 1424, "ently": 1425, "ccess": 1426, "\u0120et": 1427, "\u0120become": 1428, "\u0120mark": 1429, "\u0120method": 1430, "\u0120opp": 1431, "\u0120anim": 1432, "\u0120anal": 1433, "az": 1434, "ways": 1435, "\u0120old": 1436, "\u0120sever": 1437, "\u0120program": 1438, "\u0120here": 1439, "\u0120Ad": 1440, "\u0120low": 1441, "\u0120better": 1442, "\u0120mil": 1443, "\u0120Ph": 1444, "\u0120government": 1445, "ision": 1446, "\u0120par": 1447, "ik": 1448, "\u0120move": 1449, "gin": 1450, "hor": 1451, "ource": 1452, "\u0120However": 1453, "\u0120early": 1454, "to": 1455, "\u0120proper": 1456, "lished": 1457, "rist": 1458, "\u0120against": 1459, "str": 1460, "\u0120leg": 1461, "\u0120war": 1462, "ining": 1463, "\u0120econom": 1464, "ills": 1465, "here": 1466, "ern": 1467, "arc": 1468, "\u0120ele": 1469, "\u0120keep": 1470, "\u0120Sh": 1471, "\u0120too": 1472, "rap": 1473, "\u0120order": 1474, "eed": 1475, "\u0120real": 1476, "\u0120provide": 1477, "\u0120fore": 1478, "\u0120second": 1479, "ead": 1480, "\u0120family": 1481, "\u0120last": 1482, "icle": 1483, "ware": 1484, "ission": 1485, "ories": 1486, "\u0120means": 1487, "\u0120cause": 1488, "\u0120avail": 1489, "\u0120tre": 1490, "\u0120group": 1491, "\u0120oper": 1492, "\u0120history": 1493, "ention": 1494, "\u0120ter": 1495, "ards": 1496, "\u0120particular": 1497, "\u0120possible": 1498, "\u0120occur": 1499, "\u0120major": 1500, "use": 1501, "ients": 1502, "amp": 1503, "\u0120dev": 1504, "\u0120unt": 1505, "\u0120Res": 1506, "\u0120current": 1507, "\u0120perform": 1508, "\u0120top": 1509, "\u0120When": 1510, "ples": 1511, "lu": 1512, "\u0120United": 1513, "\u0120several": 1514, "\u0120say": 1515, "\u0120fin": 1516, "\u0120Cl": 1517, "\u0120species": 1518, "\u0120learning": 1519, "view": 1520, "\u0120indu": 1521, "ised": 1522, "\u0120addition": 1523, "\u0120invol": 1524, "\u0120period": 1525, "\u0120\u00e2\u0122\u0136": 1526, "pect": 1527, "\u0120Ex": 1528, "\u0120saf": 1529, "ote": 1530, "ograph": 1531, "\u0120able": 1532, "oid": 1533, "\u0120mean": 1534, "irc": 1535, "\u0120near": 1536, "\u0120orig": 1537, "par": 1538, "\u0120percent": 1539, "\u0120langu": 1540, "\u0120benef": 1541, "\u0120Col": 1542, "\u0120men": 1543, "\u0120hig": 1544, "idence": 1545, "\u012015": 1546, "\u0120cal": 1547, "ogn": 1548, "\u0120open": 1549, "ina": 1550, "\u0120mar": 1551, "\u0120things": 1552, "\u0120el": 1553, "\u0120happ": 1554, "ret": 1555, "\u0120Pl": 1556, "\u0120prom": 1557, "\u0120cr": 1558, "\u0120since": 1559, "\u0120lim": 1560, "\u0120feel": 1561, "\u0120non": 1562, "\u0120[": 1563, "\u0120affect": 1564, "\u0120Can": 1565, "What": 1566, "\u0120bus": 1567, "\u0120others": 1568, "\u0120God": 1569, "\u0120areas": 1570, "ane": 1571, "though": 1572, "\u0120scient": 1573, "br": 1574, "\u0120signific": 1575, "\u0120To": 1576, "ator": 1577, "\u0120among": 1578, "\u0120cost": 1579, "\u0120treatment": 1580, "\u0120fre": 1581, "\u0120Z": 1582, "sy": 1583, "\u0120plant": 1584, "ilar": 1585, "urop": 1586, "\u0120based": 1587, "port": 1588, "\u0120available": 1589, "ww": 1590, "ended": 1591, "\u0120following": 1592, "\u0120.": 1593, "\u0120Se": 1594, "ames": 1595, "\u0120times": 1596, "ole": 1597, "\u0120name": 1598, "ends": 1599, "\u0120fac": 1600, "\u0120says": 1601, "osp": 1602, "\u0120head": 1603, "\u0120Comm": 1604, "\u0120country": 1605, "of": 1606, "\u0120States": 1607, "ots": 1608, "\u0120Q": 1609, "\u0120four": 1610, "\u0120certain": 1611, "ably": 1612, "ling": 1613, "\u0120access": 1614, "omp": 1615, "\u0120prevent": 1616, ",\"": 1617, "\u0120At": 1618, "ocus": 1619, "\u0120free": 1620, "\u0120case": 1621, "\u0120run": 1622, "elf": 1623, "cing": 1624, "\u0120come": 1625, "\u0120object": 1626, "urther": 1627, "\u0120wee": 1628, "\u0120cond": 1629, "\u0120lo": 1630, "\u0120age": 1631, "ances": 1632, "\u0120view": 1633, "\u0120gr": 1634, "\u0120post": 1635, "une": 1636, "\u0120del": 1637, "\u0120conn": 1638, "ided": 1639, "\u0120struct": 1640, "ox": 1641, "\u0120problem": 1642, "\u012017": 1643, "be": 1644, "\u0120list": 1645, "ploy": 1646, "\u0120bi": 1647, "\u0120type": 1648, "\u0120cells": 1649, "ression": 1650, "\u0120creat": 1651, "\u0120local": 1652, "We": 1653, "\u0120lab": 1654, "\u0120natural": 1655, "\u0120month": 1656, "hy": 1657, "\u0120rece": 1658, "ope": 1659, "\u0120put": 1660, "\u0120intern": 1661, "\u0120little": 1662, "\u0120success": 1663, "resent": 1664, "\u0120press": 1665, "stit": 1666, "\u0120bro": 1667, "ones": 1668, "\u0120problems": 1669, "urope": 1670, "oint": 1671, "\u0120En": 1672, "\u0120bir": 1673, "\u0120vol": 1674, "\u0120Cent": 1675, "\u0120hard": 1676, "\u0120young": 1677, "\u0120levels": 1678, "ething": 1679, "aper": 1680, "icult": 1681, "olution": 1682, "\u0120associ": 1683, "ggest": 1684, "If": 1685, "\u0120until": 1686, "\u0120amount": 1687, "\u0120far": 1688, "\u0120Te": 1689, "\u0120flow": 1690, "\u0120let": 1691, "\u0120making": 1692, "ledge": 1693, "\u012012": 1694, "work": 1695, "\u0120later": 1696, "\u0120book": 1697, "\u0120Christ": 1698, "por": 1699, "\u0120National": 1700, "ately": 1701, "hem": 1702, "not": 1703, "\u0120impact": 1704, "__": 1705, "ither": 1706, "\u0120ess": 1707, "\u0120given": 1708, "\u0120mult": 1709, "ortun": 1710, "\u0120turn": 1711, "ged": 1712, "oks": 1713, "\u0120seem": 1714, "\u0120significant": 1715, "\u0120cho": 1716, "uture": 1717, "\u0120heart": 1718, "over": 1719, "ication": 1720, "\u0120short": 1721, "\u0120suggest": 1722, "\u0120determ": 1723, "\u0120focus": 1724, "atory": 1725, "\u0120behav": 1726, "\u0120sw": 1727, "12": 1728, "\u0120comput": 1729, "\u0120Be": 1730, "ured": 1731, "\u0120Af": 1732, "\u0120due": 1733, "18": 1734, "\u0120Or": 1735, "aken": 1736, "cle": 1737, "aps": 1738, "\u0120Europe": 1739, "\u0120function": 1740, "\u0120along": 1741, "\u0120vir": 1742, "\u0120something": 1743, "agement": 1744, "icro": 1745, "\u0120circ": 1746, "\u0120days": 1747, "\u0120polit": 1748, "\u0120course": 1749, "\u0120education": 1750, "\u0120invest": 1751, "\u0120rad": 1752, "\u0120likely": 1753, "\u0120Fr": 1754, "\u0120always": 1755, "\u0120comb": 1756, "orld": 1757, "face": 1758, "ried": 1759, "\u0120fil": 1760, "\u0120teac": 1761, "vious": 1762, "\u0120systems": 1763, "\u0120On": 1764, "\u0120All": 1765, "\u0120consider": 1766, "\u0120hy": 1767, "\u0120appear": 1768, "\u0120sing": 1769, "\u0120What": 1770, "\u0120community": 1771, "\u0120dra": 1772, "\u0120usually": 1773, "ending": 1774, "\u0120increase": 1775, "\u0120clear": 1776, "\u01200": 1777, "\u0120past": 1778, "\u0120technology": 1779, "\u0120words": 1780, "isc": 1781, "ecially": 1782, "ours": 1783, "\u0120US": 1784, "\u0120language": 1785, "\u0120$": 1786, "\u0120obs": 1787, "\u0120give": 1788, "\u0120brain": 1789, "\u0120create": 1790, "\u0120results": 1791, "As": 1792, "ring": 1793, "aster": 1794, "\u0120parent": 1795, "\u0120specific": 1796, "\u0120space": 1797, "\u0120today": 1798, "\u0120consum": 1799, "\u0120rele": 1800, "\u0120death": 1801, "ohn": 1802, "ape": 1803, "\u0120difficult": 1804, "\u012016": 1805, "\u0120enc": 1806, "\u0120experience": 1807, "\u0120cancer": 1808, "There": 1809, "\u0120describ": 1810, "etic": 1811, "\u0120author": 1812, "\u0120population": 1813, "\u0120century": 1814, "\u0120line": 1815, "asing": 1816, "ned": 1817, "\u0120similar": 1818, "\u0120Med": 1819, "\u0120needs": 1820, "min": 1821, "app": 1822, "\u0120exist": 1823, "\u0120above": 1824, "\u0120million": 1825, "\u0120why": 1826, "\u0120ey": 1827, "ember": 1828, "ively": 1829, "af": 1830, "\u0120discuss": 1831, "idd": 1832, "\u0120So": 1833, "\u0120character": 1834, "obal": 1835, "especially": 1836, "\u0120record": 1837, "\u0120temper": 1838, "ators": 1839, "\u0120conditions": 1840, "11": 1841, "\u0120next": 1842, "\u0120special": 1843, "ptoms": 1844, "aining": 1845, "ribut": 1846, "How": 1847, "\u0120ill": 1848, "50": 1849, "ored": 1850, "ruction": 1851, "\u0120begin": 1852, "\u0120mov": 1853, "\u0120future": 1854, "\u0120applic": 1855, "mit": 1856, "\u0120necess": 1857, "most": 1858, "\u0120various": 1859, "\u0120gre": 1860, "\u0120'": 1861, "iation": 1862, "\u0120ask": 1863, "\u0120changes": 1864, "\u0120Ear": 1865, "ler": 1866, "\u0120side": 1867, "ique": 1868, "\u0120least": 1869, "\u0120prop": 1870, "\u0120er": 1871, "\u0120however": 1872, "St": 1873, "\u0120Bl": 1874, "rug": 1875, "\u0120higher": 1876, "\u0120toget": 1877, "\u0120together": 1878, "atch": 1879, "ilities": 1880, "\u0120across": 1881, "\u0120Brit": 1882, "ray": 1883, "\u0120never": 1884, "\u0120dam": 1885, "\u0120estab": 1886, "\u0120respons": 1887, "oney": 1888, "\u0120profess": 1889, "\u0120crit": 1890, "\u0120try": 1891, "selves": 1892, "\u0120strong": 1893, "aves": 1894, "ateg": 1895, "\u0120kind": 1896, "by": 1897, "\u0120require": 1898, "sp": 1899, "\u0120left": 1900, "\u0120countries": 1901, "ym": 1902, "omes": 1903, "ode": 1904, "\u0120works": 1905, "\u0120tool": 1906, "\u0120mot": 1907, "orts": 1908, "\u0120complete": 1909, "oman": 1910, "\u0120away": 1911, "ison": 1912, "\u0120Afric": 1913, "\u0120improve": 1914, "\u0120enough": 1915, "\u0120business": 1916, "\u0120ways": 1917, "\u0120working": 1918, "\u0120especially": 1919, "thing": 1920, "\u0120tru": 1921, "\u0120researc": 1922, "oot": 1923, "for": 1924, "\u0120chem": 1925, "\u0120key": 1926, "ilt": 1927, "nal": 1928, "\u0120term": 1929, "\u0120colle": 1930, "ysis": 1931, "\u0120plants": 1932, "aces": 1933, "\u0120effects": 1934, "\u0120having": 1935, "\u0120general": 1936, "alf": 1937, "sw": 1938, "ument": 1939, "aching": 1940, "aring": 1941, "lement": 1942, "NA": 1943, "acy": 1944, "duct": 1945, "\u0120team": 1946, "\u0120cy": 1947, "\u0120subject": 1948, "aim": 1949, "\u0120War": 1950, "\u0120full": 1951, "\u0120knowledge": 1952, "\u0120prim": 1953, "let": 1954, "\u0120patients": 1955, "\u0120sens": 1956, "\u0120types": 1957, "ales": 1958, "amm": 1959, "\u0120net": 1960, "iting": 1961, "\u0120house": 1962, "\u0120studies": 1963, "\u0120step": 1964, "\u0120Germ": 1965, "\u0120cases": 1966, "ires": 1967, "\u0120represent": 1968, "ges": 1969, "ae": 1970, "acc": 1971, "\u0120going": 1972, "hing": 1973, "ipp": 1974, "istic": 1975, "\u0120norm": 1976, "\u0120became": 1977, "\u0120relations": 1978, "\u0120account": 1979, "\u0120whether": 1980, "ued": 1981, "\u0120reason": 1982, "\u0120198": 1983, "ising": 1984, "\u0120makes": 1985, "\u0120z": 1986, "\u0120mind": 1987, "side": 1988, "\u0120influ": 1989, "\u0120physical": 1990, "\u0120John": 1991, "itor": 1992, "\u0120concer": 1993, "\u0120Some": 1994, "chie": 1995, "\u0120lower": 1996, "An": 1997, "\u0120protect": 1998, "ency": 1999, "apt": 2000, "ann": 2001, "\u0120symptoms": 2002, "\u0120ground": 2003, "\u0120World": 2004, "ley": 2005, "ott": 2006, "ification": 2007, "For": 2008, "\u0120further": 2009, "\u0120role": 2010, "\u0120question": 2011, "ready": 2012, "\u0120self": 2013, "\u0120opt": 2014, "\u0120city": 2015, "\u0120polic": 2016, "\u0120big": 2017, "//": 2018, "...": 2019, "\u0120particip": 2020, "aut": 2021, "\u0120English": 2022, "\u0120fund": 2023, "\u0120Gen": 2024, "erence": 2025, "ery": 2026, "\u0120sure": 2027, "edi": 2028, "\u0120science": 2029, "\u0120sum": 2030, "\u0120nut": 2031, "\u0120chall": 2032, "30": 2033, "ream": 2034, "\u0120One": 2035, "ables": 2036, "lo": 2037, "urch": 2038, "ung": 2039, "\u0120With": 2040, "iol": 2041, "ird": 2042, "\u0120text": 2043, "\u0120Le": 2044, "\u0120Go": 2045, "atures": 2046, "\u0120activities": 2047, "\u0120stat": 2048, "\u0120dig": 2049, "unt": 2050, "\u0120indic": 2051, "\u0120groups": 2052, "200": 2053, "\u0120eff": 2054, "\u0120production": 2055, "\u0120story": 2056, "\u012030": 2057, "\u0120pred": 2058, "ibility": 2059, "15": 2060, "\u0120toward": 2061, "\u0120ens": 2062, "\u0120live": 2063, "augh": 2064, "\u0120value": 2065, "ites": 2066, "\u0120seen": 2067, "ules": 2068, "\u0120activity": 2069, "\u0120range": 2070, "bon": 2071, "\u0120products": 2072, "rel": 2073, "\u0120loss": 2074, "\u0120resources": 2075, "etimes": 2076, "mber": 2077, "://": 2078, "\u0120close": 2079, "\u0120That": 2080, "\u0120Intern": 2081, "\u0120below": 2082, "\u0120lot": 2083, "\u0120already": 2084, "\u0120word": 2085, "verage": 2086, "\u0120wr": 2087, "uation": 2088, "\u0120done": 2089, "\u0120growth": 2090, "sych": 2091, "\u0120rather": 2092, "\u0120really": 2093, "\u0120model": 2094, "\u0120Car": 2095, "\u0120potential": 2096, "\u0120prob": 2097, "\u0120employ": 2098, "\u0120site": 2099, "\u0120quality": 2100, "oura": 2101, "16": 2102, "esc": 2103, "\u0120developed": 2104, "\u0120offic": 2105, "\u0120either": 2106, "osis": 2107, "\u012014": 2108, "\u0120recogn": 2109, "\u0120wind": 2110, "ands": 2111, "\u0120neg": 2112, "\u0120article": 2113, "overed": 2114, "\u0120Mar": 2115, "\u0120Health": 2116, "\u0120tradition": 2117, "\u0120single": 2118, "fact": 2119, "rams": 2120, "\u0120deg": 2121, "\u0120mass": 2122, "iple": 2123, "urity": 2124, "\u0120phot": 2125, "\u0120Am": 2126, "\u0120building": 2127, "put": 2128, "\u0120event": 2129, "\u0120ur": 2130, "When": 2131, "\u0120achie": 2132, "\u0120collect": 2133, "\u0120oil": 2134, "\u0120fall": 2135, "\u0120flu": 2136, "\u0120field": 2137, "\u0120once": 2138, "\u0120bat": 2139, "\u0120evidence": 2140, "\u0120skills": 2141, "\u0120source": 2142, "\u0120paper": 2143, "\u0120according": 2144, "\u0120init": 2145, "iam": 2146, "idered": 2147, "\u0120issues": 2148, "\u0120She": 2149, "\u0120reduce": 2150, "ival": 2151, "ER": 2152, "\u0120indust": 2153, "earch": 2154, "\u0120abs": 2155, "\u0120whole": 2156, "\u0120Ge": 2157, "\u0120Dr": 2158, "\u0120frequ": 2159, "\u0120Cal": 2160, "\u0120questions": 2161, "\u0120Im": 2162, "\u0120national": 2163, "val": 2164, "\u0120Tr": 2165, "\u0120meet": 2166, "17": 2167, "\u0120five": 2168, "\u0120Sy": 2169, "\u0120surface": 2170, "\u0120fr": 2171, "\u0120climate": 2172, "\u0120taken": 2173, "\u0120rate": 2174, "\u0120concept": 2175, "\u0120members": 2176, "\u0120drug": 2177, "\u0120medical": 2178, "ublic": 2179, "\u0120sun": 2180, "ivil": 2181, "\u0120North": 2182, "\u0120upon": 2183, "amin": 2184, "\u0120nature": 2185, "\u0120cut": 2186, "\u0120address": 2187, "rect": 2188, "\u0120relig": 2189, "\u0120By": 2190, "\u0120white": 2191, "rict": 2192, "\u0120sent": 2193, "eter": 2194, "13": 2195, "plic": 2196, "\u0120ann": 2197, "fficient": 2198, "ule": 2199, "\u0120Ab": 2200, "\u0120red": 2201, "\u0120dom": 2202, "\u0120detail": 2203, "\u0120created": 2204, "\u0120observ": 2205, "\u0120wide": 2206, "\u0120researchers": 2207, "\u0120return": 2208, "\u0120fri": 2209, "ights": 2210, "\u0120considered": 2211, "\u0120living": 2212, "ask": 2213, "\u0120recomm": 2214, "leep": 2215, "\u0120America": 2216, "\u0120South": 2217, "\u0120tot": 2218, "\u0120came": 2219, "\u0120dest": 2220, "\u0120soil": 2221, "\u0120introdu": 2222, "ips": 2223, "\u0120themselves": 2224, "ety": 2225, "14": 2226, "ibr": 2227, "\u0120Ass": 2228, "\u0120cannot": 2229, "\u0120fail": 2230, "\u0120Pr": 2231, "\u0120doct": 2232, "fer": 2233, "\u0120size": 2234, "reme": 2235, "\u0120hold": 2236, "\u0120Stud": 2237, "roll": 2238, "\u0120associated": 2239, "\u0120stress": 2240, "\u0120tell": 2241, "\u0120animals": 2242, "\u0120ver": 2243, "\u0120prote": 2244, "\u00e2\u0122\u00a6": 2245, "ivity": 2246, "illed": 2247, "\u0120sound": 2248, "\u0120thought": 2249, "\u0120political": 2250, "\u0120simple": 2251, "\u0120increased": 2252, "\u0120May": 2253, "like": 2254, "\u0120actually": 2255, "\u0120pressure": 2256, "\u0120practice": 2257, "eb": 2258, "\u0120student": 2259, "sh": 2260, "utions": 2261, "\u0120pay": 2262, "\u0120market": 2263, "\u0120understanding": 2264, "\u0120opportun": 2265, "oon": 2266, "org": 2267, "sequ": 2268, "\u0120week": 2269, "\u0120adult": 2270, "\u0120histor": 2271, "\u0120lay": 2272, "\u0120related": 2273, "\u0120rights": 2274, "enn": 2275, "\u0120required": 2276, "\u0120complex": 2277, "\u0120micro": 2278, "\u0120ability": 2279, "ournal": 2280, "oph": 2281, "epend": 2282, "\u0120famil": 2283, "iding": 2284, "reg": 2285, "\u0120needed": 2286, "\u0120states": 2287, "aced": 2288, "\u0120skin": 2289, "\u0120effective": 2290, "\u0120Rep": 2291, "\u0120fat": 2292, "\u0120arg": 2293, "yn": 2294, "\u0120Earth": 2295, "\u0120Man": 2296, "\u0120global": 2297, "\u0120Aust": 2298, "\u0120itself": 2299, "\u0120quick": 2300, "\u0120entire": 2301, "\u0120materials": 2302, "pro": 2303, "\u0120Soc": 2304, "\u0120197": 2305, "\u0120published": 2306, "\u0120relationship": 2307, "\u0120mor": 2308, "ober": 2309, "\u0120condition": 2310, "Ch": 2311, "\u0120idea": 2312, "\u012013": 2313, "ging": 2314, "\u0120diet": 2315, "\u0120sal": 2316, "\u0120spe": 2317, "\u0120almost": 2318, "\u0120doc": 2319, "itud": 2320, "\u0120comes": 2321, "\u0120engine": 2322, "\u0120provides": 2323, "\u0120maint": 2324, ".)": 2325, "aging": 2326, "\u0120healthy": 2327, "ening": 2328, "\u0120purp": 2329, "olic": 2330, "aged": 2331, "ai": 2332, "ulations": 2333, "\u0120York": 2334, "erve": 2335, "\u0120Act": 2336, "artment": 2337, "\u0120experien": 2338, "\u0120economic": 2339, "hib": 2340, "ened": 2341, "go": 2342, "ma": 2343, "\u0120fish": 2344, "\u0120port": 2345, "ump": 2346, "\u0120parts": 2347, "\u0120modern": 2348, "\u0120=": 2349, "To": 2350, "\u0120black": 2351, "ney": 2352, "SA": 2353, "\u0120management": 2354, "\u0120answ": 2355, "\u0120money": 2356, "\u0120vers": 2357, "\u0120exerc": 2358, "\u0120avoid": 2359, "\u0120factors": 2360, "\u0120assess": 2361, "eds": 2362, "Al": 2363, "acks": 2364, "ush": 2365, "chan": 2366, "\u0120half": 2367, "\u0120parents": 2368, "\u0120htt": 2369, "\u0120Dep": 2370, "itary": 2371, "\u0120took": 2372, "\u0120|": 2373, "lying": 2374, "yl": 2375, "oses": 2376, "ises": 2377, "\u0120weight": 2378, "uel": 2379, "\u0120necessary": 2380, "vere": 2381, "ores": 2382, "ences": 2383, "\u0120suff": 2384, "\u0120path": 2385, "ply": 2386, "\u0120gas": 2387, "\u0120link": 2388, "\u0120react": 2389, "gest": 2390, "\u0120arch": 2391, "\u0120dog": 2392, "rad": 2393, "):": 2394, "\u0120services": 2395, "utes": 2396, "\u0120approach": 2397, "\u0120began": 2398, "\u0120bar": 2399, "apan": 2400, "rown": 2401, "\u0120produce": 2402, "\u0120pattern": 2403, "\u0120cop": 2404, "\u0120Gu": 2405, "bo": 2406, "\u0120priv": 2407, "\u0120X": 2408, "You": 2409, "\u0120cat": 2410, "\u0120months": 2411, "\u0120Hist": 2412, "\u0120super": 2413, "\u0120measure": 2414, "urs": 2415, "\u0120green": 2416, "Wh": 2417, "irm": 2418, "\u0120arr": 2419, "\u0120claim": 2420, "\u0120His": 2421, "ensive": 2422, "based": 2423, "ume": 2424, "\u0120soft": 2425, "\u0120coll": 2426, "\u0120ever": 2427, "gar": 2428, "cient": 2429, "\u0120yet": 2430, "\u0120State": 2431, "\u0120analysis": 2432, "ese": 2433, "oll": 2434, "\u0120job": 2435, "\u0120computer": 2436, "\u0120conduct": 2437, "\u0120therap": 2438, "\u0120Jew": 2439, "nces": 2440, "\u0120region": 2441, "izing": 2442, "\u0120Ne": 2443, "\u0120tar": 2444, "\u0120stop": 2445, "\u0120sense": 2446, "\u0120100": 2447, "\u0120chemical": 2448, "iction": 2449, "\u0120hours": 2450, "\u0120throughout": 2451, "\u0120action": 2452, "abit": 2453, "\u0120Cont": 2454, "hold": 2455, "\u0120emer": 2456, "onse": 2457, "\u0120Comp": 2458, "\u0120princ": 2459, "\u0120popular": 2460, "\u0120increasing": 2461, "\u0120color": 2462, "\u0120regard": 2463, "\u0120calc": 2464, "\u0120Co": 2465, "inter": 2466, "\u0120Em": 2467, "iddle": 2468, "\u0120separ": 2469, "my": 2470, "\u0120liter": 2471, "\u0120reading": 2472, "\u0120taking": 2473, "\u0120ge": 2474, "\u0120Do": 2475, "\u0120repl": 2476, "\u012050": 2477, "ections": 2478, "\u0120196": 2479, "usion": 2480, "\u0120British": 2481, "empt": 2482, "--": 2483, "\u0120Canad": 2484, "abor": 2485, "\u0120farm": 2486, "\u0120medic": 2487, "ches": 2488, "ccording": 2489, "\u0120personal": 2490, "uck": 2491, "\u0120fire": 2492, "\u0120feed": 2493, "\u0120ut": 2494, "ze": 2495, "\u0120talk": 2496, "pid": 2497, "erous": 2498, "\u0120online": 2499, "\u0120individuals": 2500, "\u0120behavior": 2501, "\u0120content": 2502, "\u0120sam": 2503, "ript": 2504, "\".": 2505, "\u0120previous": 2506, "\u0120recent": 2507, "het": 2508, "icles": 2509, "\u0120bur": 2510, "estern": 2511, "\u0120shows": 2512, "\u0120After": 2513, "\u0120longer": 2514, "igure": 2515, "\u0120built": 2516, "asc": 2517, "\u0120sex": 2518, "\u0120six": 2519, "\u0120interact": 2520, "\u0120writing": 2521, "\u0120clean": 2522, "ows": 2523, "\u0120training": 2524, "\u0120structure": 2525, "\u0120total": 2526, "emic": 2527, "\u0120environmental": 2528, "\u0120position": 2529, "\u0120industry": 2530, "ederal": 2531, "\u0120society": 2532, "ES": 2533, "yle": 2534, "\u0120matter": 2535, "anced": 2536, "\u0120terms": 2537, "\u0120company": 2538, "\u0120thing": 2539, "\u0120conc": 2540, "astic": 2541, "\u0120provided": 2542, "\u0120service": 2543, "\u0120disord": 2544, "wh": 2545, "\u0120meaning": 2546, "\u0120check": 2547, "\u0120heav": 2548, "itation": 2549, "minist": 2550, "\u0120la": 2551, "\u0120heat": 2552, "lor": 2553, "\u0120surv": 2554, "\u0120Japan": 2555, "\u0120schools": 2556, "lands": 2557, "\u0120inj": 2558, "\u0120contact": 2559, "\u0120bring": 2560, "\u0120caused": 2561, "\u0120etc": 2562, "fully": 2563, "\u012025": 2564, "\u0120sleep": 2565, "\u0120experim": 2566, "ster": 2567, "\u0120break": 2568, "\u0120temperature": 2569, "\u0120Pe": 2570, "\u0120travel": 2571, "\u0120While": 2572, "\u0120true": 2573, "\u00c3\u00a9": 2574, "abet": 2575, "\u0120lives": 2576, "ropri": 2577, "\u0120contain": 2578, "aff": 2579, "\u0120School": 2580, "ricult": 2581, "\u0120sat": 2582, "\u0120easy": 2583, "\u0120music": 2584, "reng": 2585, "\u0120benefits": 2586, "\u0120vide": 2587, "rought": 2588, "\u0120ce": 2589, "\u0120causes": 2590, "ns": 2591, "\u0120methods": 2592, "\u0120designed": 2593, "aily": 2594, "\u0120diagn": 2595, "\u0120viol": 2596, "\u0120shown": 2597, "lt": 2598, "\u0120Research": 2599, "ronic": 2600, "mb": 2601, "istance": 2602, "\u0120includes": 2603, "\u0120fru": 2604, "inary": 2605, "\u0120accept": 2606, "son": 2607, "\u0120II": 2608, "atives": 2609, "\u0120mach": 2610, "vey": 2611, "\u0120variety": 2612, "ID": 2613, "\u0120Instit": 2614, "hood": 2615, "\u0120No": 2616, "\u0120earth": 2617, "\u0120rev": 2618, "\u0120safe": 2619, "ister": 2620, "mon": 2621, "\u0120prec": 2622, "aries": 2623, "ene": 2624, "\u0120\u00c2": 2625, "AT": 2626, "\u0120believe": 2627, "\u0120regular": 2628, "imately": 2629, "ners": 2630, "istics": 2631, "\u0120programs": 2632, "light": 2633, "ched": 2634, "\u012011": 2635, "\u0120fem": 2636, "\u0120positive": 2637, "arr": 2638, "\u0120love": 2639, "\u0120target": 2640, "\u0120average": 2641, "\u0120simply": 2642, "\u0120lif": 2643, "\u0120bacter": 2644, "\u0120sometimes": 2645, "\u0120spread": 2646, "aving": 2647, "\u0120relative": 2648, "rior": 2649, "\u0120issue": 2650, "\u0120vari": 2651, "amed": 2652, "\u0120eat": 2653, "\u0120led": 2654, "\u0120greater": 2655, "lex": 2656, "\u0120Su": 2657, "AR": 2658, "\u0120threat": 2659, "dom": 2660, "rast": 2661, "ufact": 2662, "duc": 2663, "\u0120poll": 2664, "\u0120carbon": 2665, "\u0120subst": 2666, "\u0120mechan": 2667, "\u0120page": 2668, "\u0120standard": 2669, "\u0120origin": 2670, "osition": 2671, "ades": 2672, "\u0120uses": 2673, "\u0120ste": 2674, "\u0120slow": 2675, "\u0120culture": 2676, "\u0120wild": 2677, "40": 2678, "\u0120movement": 2679, "\u0120original": 2680, "new": 2681, "aling": 2682, "\u0120King": 2683, "\u0120events": 2684, "\u0120reported": 2685, "\u0120deep": 2686, "\u0120respect": 2687, "rench": 2688, "\u0120scientists": 2689, "\u0120helps": 2690, "\u0120doing": 2691, "\u0120sources": 2692, "\u0120exc": 2693, "\u0120response": 2694, "know": 2695, "ucle": 2696, "\u0120face": 2697, "cil": 2698, "ulate": 2699, "ban": 2700, "ervation": 2701, "\u0120written": 2702, "\u0120foods": 2703, "\u0120involved": 2704, "\u0120demon": 2705, "\u0120identify": 2706, "uge": 2707, "\u0120encoura": 2708, "arily": 2709, "But": 2710, "\u0120ple": 2711, "ender": 2712, "aches": 2713, "verse": 2714, "rand": 2715, "\u0120pict": 2716, "eration": 2717, "ief": 2718, "umb": 2719, "\u0120forms": 2720, "oles": 2721, "ength": 2722, "\u0120Par": 2723, "\u0120normal": 2724, "\u0120media": 2725, "\u0120compan": 2726, "rim": 2727, "\u0120damage": 2728, "\u0120Sec": 2729, "\u0120refer": 2730, "\u0120share": 2731, "\u0120compet": 2732, "\u0120lack": 2733, "\u0120emb": 2734, "\u0120particularly": 2735, "oor": 2736, "\u0120Pres": 2737, "\u0120streng": 2738, "\u0120camp": 2739, "elling": 2740, "\u0120psych": 2741, "\u0120implement": 2742, "ctions": 2743, "\u0120basic": 2744, "\u0120outside": 2745, "\u0120remov": 2746, "\u0120developing": 2747, "\u0120image": 2748, "\u0120poor": 2749, "\u0120integ": 2750, "\u0120Austral": 2751, "\u0120attention": 2752, "\u0120force": 2753, "\u0120review": 2754, "ops": 2755, "\u0120Science": 2756, "ials": 2757, "\u0120serious": 2758, "\u0120bal": 2759, "lies": 2760, "22": 2761, "\u0120sust": 2762, "\u0120Per": 2763, "\u0120animal": 2764, "\u0120ensure": 2765, "\u0120attempt": 2766, "ached": 2767, "\u0120compon": 2768, "IN": 2769, "\u0120Min": 2770, "idge": 2771, "\u0120India": 2772, "\u0120late": 2773, "bor": 2774, "isions": 2775, "\u0120--": 2776, "\u0120squ": 2777, "\u0120ideas": 2778, "\u0120forest": 2779, "\u0120generally": 2780, "\u0120coun": 2781, "\u0120produced": 2782, "\u0120wood": 2783, "\u0120log": 2784, "\u0120Ed": 2785, "ming": 2786, "\u0120harm": 2787, "\u0120essential": 2788, "\u0120visit": 2789, "\u0120teachers": 2790, "\u0120extreme": 2791, "\u0120growing": 2792, "\u0120Will": 2793, "rated": 2794, "\u0120webs": 2795, "room": 2796, "\u0120electric": 2797, "\u0120feet": 2798, "ulated": 2799, "\u0120aff": 2800, "\u0120emot": 2801, "\u0120cust": 2802, "\u0120aware": 2803, "\u0120consist": 2804, "osure": 2805, "\u0120deb": 2806, "\u0120ox": 2807, "\u0120China": 2808, "\u0120correct": 2809, "\u0120series": 2810, "\u0120tax": 2811, "\u0120continue": 2812, "\u0120challeng": 2813, "\u0120ap": 2814, "\u0120numbers": 2815, "\u0120displ": 2816, "\u0120/": 2817, "\u0120Me": 2818, "\u0120lat": 2819, "issions": 2820, "\u0120mess": 2821, "\u0120safety": 2822, "\u0120attack": 2823, "osing": 2824, "\u0120network": 2825, "\u0120virus": 2826, "\u0120probably": 2827, "set": 2828, "\u0120App": 2829, "uth": 2830, "\u0120ago": 2831, "25": 2832, "ecause": 2833, "ana": 2834, "\u0120Count": 2835, "irit": 2836, "\u0120hyd": 2837, "ribution": 2838, "\u0120draw": 2839, "imum": 2840, "\u0120patient": 2841, "hel": 2842, "\u0120takes": 2843, "\u0120veget": 2844, "\u0120international": 2845, "\u0120manufact": 2846, "ius": 2847, "ino": 2848, "\u0120someone": 2849, "\u0120night": 2850, "\u0120Many": 2851, "\u0120cross": 2852, "raft": 2853, "\u0120sou": 2854, "\u0120select": 2855, "\u0120sea": 2856, "\u0120included": 2857, "\u0120getting": 2858, "\u0120mother": 2859, "\u0120doesn": 2860, "\u0120Qu": 2861, "\u0120defin": 2862, "\u0120kids": 2863, "ems": 2864, "\u0120Center": 2865, "\u0120commit": 2866, "\u0120express": 2867, "\u0120ir": 2868, "oly": 2869, "\u0120dou": 2870, "vention": 2871, "erg": 2872, "ON": 2873, "fect": 2874, "\u0120Jan": 2875, "\u0120vacc": 2876, "\u0120therefore": 2877, "ads": 2878, "\u0120cit": 2879, "\u0120Int": 2880, "cies": 2881, "\u0120concent": 2882, "\u0120prep": 2883, "inks": 2884, "\u0120speed": 2885, "\u0120independ": 2886, "ground": 2887, "\u0120magn": 2888, "\u0120easily": 2889, "where": 2890, "uary": 2891, "On": 2892, "ension": 2893, "\u0120quite": 2894, "\u0120colon": 2895, "anks": 2896, "\u0120looking": 2897, "ror": 2898, "\u0120thus": 2899, "\u0120tiss": 2900, "haps": 2901, "ties": 2902, "IS": 2903, "\u0120daily": 2904, "\u0120financ": 2905, "yr": 2906, "ington": 2907, "\u0120cover": 2908, "\u0120fa": 2909, "rew": 2910, "\u0120policy": 2911, "ext": 2912, "\u0120Aug": 2913, "\u0120Bo": 2914, "cell": 2915, "\u0120Pre": 2916, "\u0120wall": 2917, "\u0120print": 2918, "\u0120allows": 2919, "ha": 2920, "\u0120difference": 2921, "ying": 2922, "\u0120instead": 2923, "erson": 2924, "overy": 2925, "\u0120appropri": 2926, "\u0120performance": 2927, "ls": 2928, "\u0120investig": 2929, "asons": 2930, "ography": 2931, "\u0120determine": 2932, "\u0120estim": 2933, "\u0120More": 2934, "\u0120communities": 2935, "www": 2936, "\u012024": 2937, "\u0120eth": 2938, "\u0120Educ": 2939, "abetes": 2940, "\u0120tools": 2941, "\u0120traditional": 2942, "iforn": 2943, "\u0120dang": 2944, "\u0120ful": 2945, "\u0120theory": 2946, "\u0120added": 2947, "\u0120primary": 2948, "\u0120books": 2949, "\u0120thous": 2950, "\u0120town": 2951, "\u0120eval": 2952, "\u0120Cons": 2953, "\u0120points": 2954, "OR": 2955, "\u0120Ju": 2956, "\u0120i": 2957, "\u0120tur": 2958, "\u0120tree": 2959, "\u0120started": 2960, "na": 2961, "\u0120instit": 2962, "\u0120bab": 2963, "\u0120held": 2964, "olec": 2965, "\u0120reflect": 2966, "\u0120div": 2967, "\u0120leaders": 2968, "\u0120mental": 2969, "useum": 2970, "\u0120Ag": 2971, "\u0120established": 2972, "\u0120larger": 2973, "rie": 2974, "iot": 2975, "\u0120Your": 2976, "\u0120warm": 2977, "\u0120compared": 2978, "itude": 2979, "\u012040": 2980, "oes": 2981, "\u0120inside": 2982, "\u0120Part": 2983, "ceed": 2984, "\u0120vit": 2985, "\u0120unique": 2986, "rate": 2987, "\u0120Ac": 2988, "\u0120humans": 2989, "\u0120third": 2990, "ancy": 2991, "\u0120civil": 2992, "\u0120fav": 2993, "\u0120altern": 2994, "\u0120quickly": 2995, "\u0120nation": 2996, "\u0120progress": 2997, "\u0120multiple": 2998, "\u0120achieve": 2999, "\u0120scientific": 3000, "\u0120military": 3001, "\u0120diseases": 3002, "\u0120immedi": 3003, "\u0120sold": 3004, "\u0120unc": 3005, "\u0120directly": 3006, "ifornia": 3007, "\u0120Institute": 3008, "\u0120capt": 3009, "\u0120reve": 3010, "\u0120proced": 3011, "\u0120speak": 3012, "\u0120bit": 3013, "\u0120Most": 3014, "\u0120protein": 3015, "undred": 3016, "\u0120offer": 3017, "\u0120French": 3018, "\u0120solar": 3019, "\u0120host": 3020, "\u0120El": 3021, "\u0120European": 3022, "\u0120front": 3023, "\u0120demonstr": 3024, "lied": 3025, "\u0120decre": 3026, "\u0120trees": 3027, "rs": 3028, "\u0120sil": 3029, "\u0120families": 3030, "\u0120highly": 3031, "\u0120Gl": 3032, "\u0120security": 3033, "\u0120foot": 3034, "\u0120eye": 3035, "ellow": 3036, "\u0120Jes": 3037, "\u0120companies": 3038, "\u0120tend": 3039, "ounds": 3040, "iency": 3041, "\u0120birth": 3042, "orks": 3043, "\u0120Indian": 3044, "\u0120behind": 3045, "\u0120went": 3046, "\u0120Com": 3047, "\u0120additional": 3048, "uman": 3049, "\u0120document": 3050, "\u0120194": 3051, "\u0120answer": 3052, "ille": 3053, "\u0120drink": 3054, "AN": 3055, "elt": 3056, "\u0120although": 3057, "\u0120Department": 3058, "\u0120seems": 3059, "ift": 3060, "\u0120severe": 3061, "\u0120aud": 3062, "\u0120aspect": 3063, "\u0120rout": 3064, "iques": 3065, "\u0120negative": 3066, "joy": 3067, "\u0120http": 3068, "\u0120exercise": 3069, "\u0120active": 3070, "pe": 3071, "\u0120extra": 3072, "term": 3073, "\u0120tri": 3074, "\u0120dry": 3075, "\u0120walk": 3076, "\u0120Art": 3077, "\u0120fram": 3078, "\u0120German": 3079, "\u01202010": 3080, "\u0120useful": 3081, "One": 3082, "\u0120har": 3083, "thern": 3084, "\u0120soon": 3085, "pril": 3086, "hern": 3087, "\u0120Russ": 3088, "\u0120beginning": 3089, "\u01202012": 3090, "uries": 3091, "cean": 3092, "\u0120acid": 3093, "\u0120transport": 3094, "\u0120infection": 3095, "23": 3096, "ilos": 3097, "yond": 3098, "\u0120video": 3099, "\u0120section": 3100, "den": 3101, "iers": 3102, "\u0120prior": 3103, "\u0120labor": 3104, "\u0120gard": 3105, "mar": 3106, "\u0120California": 3107, "21": 3108, "\u0120bad": 3109, "\u0120hor": 3110, "rogen": 3111, "\u0120critical": 3112, "\u0120central": 3113, "nov": 3114, "\u0120teaching": 3115, "\u0120doctor": 3116, "iter": 3117, "\u0120West": 3118, "\u0120shall": 3119, "\u0120towards": 3120, "formation": 3121, "gency": 3122, "\u0120Gree": 3123, "omet": 3124, "\u0120Child": 3125, "isms": 3126, "olar": 3127, "\u0120habit": 3128, "\u0120broad": 3129, "vant": 3130, "rig": 3131, "\u0120analy": 3132, "\u0120card": 3133, "\u0120supply": 3134, "\u0120leading": 3135, "rition": 3136, "\u00e2\u0122\u00a2": 3137, "\u0120limited": 3138, "\u0120Other": 3139, "\u0120clin": 3140, "ologies": 3141, "\u0120CO": 3142, "\u0120obt": 3143, "\u0120purpose": 3144, "\u0120March": 3145, "\u0120minutes": 3146, "____": 3147, "\u0120Not": 3148, "\u0120stay": 3149, "\u0120expect": 3150, "He": 3151, "\u0120sus": 3152, "\u0120elements": 3153, "\u0120Char": 3154, "\u0120Of": 3155, "\u0120Rec": 3156, "\u0120situation": 3157, "\u0120Har": 3158, "So": 3159, "\u0120whose": 3160, "\u0120Sm": 3161, "ils": 3162, "\u0120interp": 3163, "oming": 3164, "\u0120stra": 3165, "\u0120ancient": 3166, "iber": 3167, "lier": 3168, "\u0120base": 3169, "\u0120contains": 3170, "\u0120features": 3171, "\u0120aim": 3172, "\u0120accur": 3173, "lation": 3174, "\u0120History": 3175, "IC": 3176, "\u0120,": 3177, "\u0120lost": 3178, "\u0120mom": 3179, "\u0120Us": 3180, "\u0120International": 3181, "\u0120Although": 3182, "oring": 3183, "\u0120Oct": 3184, "\u0120mount": 3185, "\u0120contribut": 3186, "aly": 3187, "\u0120hot": 3188, "orthern": 3189, "ran": 3190, "\u0120June": 3191, "\u0120African": 3192, "\u0120software": 3193, "\u0120decl": 3194, "\u0120search": 3195, "\u0120north": 3196, "coh": 3197, "\u0120protection": 3198, "\u0120Her": 3199, "\u0120Africa": 3200, "\u0120brought": 3201, "\u0120else": 3202, "rote": 3203, "\u0120block": 3204, "\u0120thinking": 3205, "lection": 3206, "\u0120exact": 3207, "fort": 3208, "\u0120hundred": 3209, "\u0120described": 3210, "\u0120images": 3211, "\u0120ones": 3212, "\u0120stri": 3213, "\u0120fight": 3214, "\u0120values": 3215, "\u0120nucle": 3216, "\u0120hands": 3217, "\u0120fast": 3218, "\u0120strateg": 3219, "\u0120custom": 3220, "\u0120cred": 3221, "\u0120Mus": 3222, "wise": 3223, "come": 3224, "sect": 3225, "\u0120got": 3226, "\u01202011": 3227, "\u0120quant": 3228, "\u0120dark": 3229, "bit": 3230, "\u0120game": 3231, "\u0120application": 3232, "\u0120Christian": 3233, "istry": 3234, "\u0120influence": 3235, "\u0120jo": 3236, "\u0120sustain": 3237, "And": 3238, "\u0120decision": 3239, "hest": 3240, "\u0120news": 3241, "inct": 3242, "\u0120goal": 3243, "\u0120administ": 3244, "\u0120enjoy": 3245, "\u0120jud": 3246, "\u0120requires": 3247, "\u0120August": 3248, "\u00e2\u0122\u013f.": 3249, "itch": 3250, "\u0120length": 3251, "\u0120ord": 3252, "cks": 3253, "\u0120Mon": 3254, "mission": 3255, "used": 3256, "\u0120write": 3257, "\u0120pack": 3258, "inese": 3259, "\u0120ang": 3260, "\u0120Sch": 3261, "\u0120received": 3262, "\u0120adop": 3263, "\u0120largest": 3264, "uk": 3265, "\u0120adults": 3266, "rag": 3267, "equ": 3268, "\u0120mill": 3269, "\u0120laws": 3270, "hens": 3271, "\u0120except": 3272, "\u0120Reg": 3273, "cial": 3274, "\u0120Dav": 3275, "pper": 3276, "\u0120waste": 3277, "\u0120carry": 3278, "\u0120Sept": 3279, "imin": 3280, "\u0120wa": 3281, "\u0120agricult": 3282, "\u0120financial": 3283, "see": 3284, "\u0120disp": 3285, "\u0120located": 3286, "\u0120Here": 3287, "\u0120Ant": 3288, "\u0120capac": 3289, "\u0120capital": 3290, "bol": 3291, "\u0120private": 3292, "\u0120Bar": 3293, "\u0120costs": 3294, "ields": 3295, "\u0120ep": 3296, "con": 3297, "ription": 3298, "\u0120becomes": 3299, "att": 3300, "izations": 3301, "\u0120Cor": 3302, "\u0120nearly": 3303, "\u0120leaves": 3304, "imal": 3305, "\u0120projects": 3306, "\u0120demand": 3307, "\u0120season": 3308, "arian": 3309, "iles": 3310, "\u0120lines": 3311, "gn": 3312, "\u0120sn": 3313, "ibrary": 3314, "\u0120egg": 3315, "\u0120rates": 3316, "eal": 3317, "\u0120importance": 3318, "\u0120agree": 3319, "\u0120Tra": 3320, "AS": 3321, "\u0120Tw": 3322, "IV": 3323, "med": 3324, "\u0120reach": 3325, "\u0120First": 3326, "\u0120beaut": 3327, "\u0120south": 3328, "\u0120veh": 3329, "\u0120religious": 3330, "\u0120tests": 3331, "rael": 3332, "itis": 3333, "\u0120rare": 3334, "\u0120typically": 3335, "vest": 3336, "\u0120website": 3337, "\u0120Ke": 3338, "\u0120devices": 3339, "\u0120weeks": 3340, "\u0120River": 3341, "\u0120places": 3342, "\u0120Americans": 3343, "estic": 3344, "\u0120mention": 3345, "lim": 3346, "\u0120Jesus": 3347, "\u0120fit": 3348, "\u0120establish": 3349, "\u0120remains": 3350, "\u0120told": 3351, "\u0120appropriate": 3352, "\u0120workers": 3353, "\u012021": 3354, "\u0120born": 3355, "ipment": 3356, "\u0120bacteria": 3357, "At": 3358, "odies": 3359, "60": 3360, "\u0120techniques": 3361, "uro": 3362, "\u0120Wash": 3363, "\u0120processes": 3364, "\u0120solution": 3365, "\u0120friends": 3366, "\u0120sites": 3367, "\u0120father": 3368, "\u0120memory": 3369, "\u0120ult": 3370, "\u0120stru": 3371, "\u0120sugar": 3372, "\u0120efforts": 3373, "atur": 3374, "\u0120surround": 3375, "80": 3376, "\u0120x": 3377, "199": 3378, "\u0120cool": 3379, "\u0120saw": 3380, "ype": 3381, "idents": 3382, "\u0120Mc": 3383, "\u0120July": 3384, "\u0120remain": 3385, "\u0120rapid": 3386, "\u0120Press": 3387, "\u0120Serv": 3388, "\u0120teacher": 3389, "'re": 3390, "\u0120deal": 3391, "\u0120Sw": 3392, "\u0120Canada": 3393, "\u0120table": 3394, "\u0120basis": 3395, "\u0120April": 3396, "entially": 3397, "\u0120himself": 3398, "\u0120communication": 3399, "iece": 3400, "\u0120miles": 3401, "aid": 3402, "iar": 3403, "itect": 3404, "PA": 3405, "\u0120eating": 3406, "life": 3407, "oke": 3408, "uments": 3409, "\u0120gives": 3410, "\u0120center": 3411, "cles": 3412, "\u0120From": 3413, "\u01202009": 3414, "oud": 3415, "\u0120respond": 3416, "cohol": 3417, "\u0120Prog": 3418, "uous": 3419, "alled": 3420, "\u0120citiz": 3421, "\u0120England": 3422, "EN": 3423, "\u0120property": 3424, "\u0120adj": 3425, "\u0120died": 3426, "\u0120creating": 3427, "aul": 3428, "year": 3429, "izes": 3430, "\u0120My": 3431, "\u0120dead": 3432, "back": 3433, "\u0120applications": 3434, "24": 3435, "\u0120Associ": 3436, "\u0120testing": 3437, "resh": 3438, "\u0120everything": 3439, "\u0120anything": 3440, "\u0120adapt": 3441, "\u0120vict": 3442, "ogen": 3443, "\u0120crop": 3444, "\u0120coast": 3445, "\u0120fuel": 3446, "\u0120Day": 3447, "\u0120pan": 3448, "\u0120imag": 3449, "\u0120nothing": 3450, "\u0120eyes": 3451, "\u0120hope": 3452, "\u0120mix": 3453, "\u0120Govern": 3454, "\u0120sequ": 3455, "\u0120digital": 3456, "\u0120advant": 3457, "\u0120therapy": 3458, "ipl": 3459, "ED": 3460, "\u0120Cong": 3461, "\u0120practices": 3462, "These": 3463, "cember": 3464, "\u0120cultural": 3465, "ira": 3466, "\u0120command": 3467, "king": 3468, "aught": 3469, "\u0120molec": 3470, "\u0120construction": 3471, "\u0120summer": 3472, "\u0120responsible": 3473, "\u0120hous": 3474, "sec": 3475, "\u0120followed": 3476, "\u0120Park": 3477, "\u0120autom": 3478, "\u0120screen": 3479, "ondon": 3480, "\u0120cou": 3481, "\u0120der": 3482, "\u0120cele": 3483, "\u0120monitor": 3484, "\u0120room": 3485, "\u0120Chinese": 3486, "ama": 3487, "\u0120depend": 3488, "\u0120Education": 3489, "\u0120City": 3490, "\u0120device": 3491, "\u0120benefit": 3492, "\u0120code": 3493, "\u0120spirit": 3494, "\u0120asked": 3495, "\u0120federal": 3496, "water": 3497, "\u0120beyond": 3498, "\u0120President": 3499, "\u0120conflic": 3500, "ham": 3501, "\u0120son": 3502, "\u0120reasons": 3503, "\u0120objects": 3504, "\u0120forces": 3505, "\u0120William": 3506, "\u0120recently": 3507, "\u0120Ec": 3508, "\u0120web": 3509, "IT": 3510, "\u0120bott": 3511, "\u0120cam": 3512, "\u0120stage": 3513, "ford": 3514, "\u0120consequ": 3515, "\u0120diabetes": 3516, "\u0120choose": 3517, "\u0120final": 3518, "mosp": 3519, "\u0120anti": 3520, "ovember": 3521, "unch": 3522, "\u0120behavi": 3523, "head": 3524, "\u0120ice": 3525, "\u01202013": 3526, "\u0120gradu": 3527, "ico": 3528, "\u0120pen": 3529, "illing": 3530, "\u0120woman": 3531, "ocol": 3532, "\u0120tit": 3533, "\u0120Israel": 3534, "\u0120trade": 3535, "\u01202008": 3536, ");": 3537, "\u0120Church": 3538, "\u0120connect": 3539, "iples": 3540, "\u0120expected": 3541, "ding": 3542, "\u0120rain": 3543, "\u0120date": 3544, "\u0120breat": 3545, "\u0120middle": 3546, "\u0120instru": 3547, "\u0120constit": 3548, "\u0120opportunity": 3549, "\u0120older": 3550, "\u0120controll": 3551, "\u0120examples": 3552, "\u0120legal": 3553, "ought": 3554, "apter": 3555, "\u0120January": 3556, "\u0120receive": 3557, "ribute": 3558, "\u0120affected": 3559, "\u0120teeth": 3560, "strial": 3561, "\u0120communic": 3562, "\u0120Washington": 3563, "men": 3564, "lam": 3565, "\u0120scale": 3566, "\u0120insp": 3567, "Ex": 3568, "\u0120smaller": 3569, "\u0120Techn": 3570, "\u0120cra": 3571, "\u0120fear": 3572, "\u0120Great": 3573, "omb": 3574, "\u0120Inc": 3575, "\u0120Lear": 3576, "With": 3577, "ellig": 3578, "\u0120hyp": 3579, "\u0120Ret": 3580, "\u0120king": 3581, "By": 3582, "\u0120sett": 3583, "itable": 3584, "\u0120ten": 3585, "\u0120providing": 3586, "\u0120currently": 3587, "enge": 3588, "\u0120equipment": 3589, "\u0120cold": 3590, "\u0120shape": 3591, "\u0120file": 3592, "iable": 3593, "\u0120rules": 3594, "\u0120yourself": 3595, "\u0120und": 3596, "ula": 3597, "\u0120:": 3598, "\u0120standards": 3599, "\u0120Even": 3600, "\u0120exposure": 3601, "\u0120bul": 3602, "\u0120everyone": 3603, "ony": 3604, "\u0120organization": 3605, "\u0120professional": 3606, "\u0120cru": 3607, "ev": 3608, "\u0120user": 3609, "time": 3610, "\u0120visual": 3611, "\u0120County": 3612, "ests": 3613, "\u0120Roman": 3614, "\u0120completely": 3615, "\u0120alone": 3616, "\u0120mid": 3617, "\u0120differences": 3618, "tery": 3619, "\u0120effort": 3620, "book": 3621, "\u0120Feb": 3622, "\u0120recommend": 3623, "edia": 3624, "lin": 3625, "airs": 3626, "\u0120Journal": 3627, "\u0120occurs": 3628, "\u0120interesting": 3629, "\u0120location": 3630, "\u0120Bi": 3631, "\u0120goes": 3632, "\u0120planet": 3633, "\u0120church": 3634, "anish": 3635, "\u0120wrote": 3636, "\u0120via": 3637, "\u0120September": 3638, "While": 3639, "\u0120users": 3640, "\u0120System": 3641, "\u0120birds": 3642, "\u0120According": 3643, "\u0120destro": 3644, "\u0120trying": 3645, "\u0120won": 3646, "\u0120models": 3647, "\u0120Our": 3648, "\u0120approx": 3649, "\u0120economy": 3650, "bur": 3651, "rees": 3652, "\u0120successful": 3653, "ocr": 3654, "\u0120poly": 3655, "vert": 3656, "\u0120pet": 3657, "\u0120purch": 3658, "\u0120Develop": 3659, "\u0120named": 3660, "ocks": 3661, "\u0120beg": 3662, "\u0120measures": 3663, "lamm": 3664, "\u012023": 3665, "\u0120rob": 3666, "\u0120collection": 3667, "hemat": 3668, "uff": 3669, "\u0120rock": 3670, "\u0120Red": 3671, "\u0120Dis": 3672, "\u0120constant": 3673, "oe": 3674, "\u0120hon": 3675, "\u0120degree": 3676, "\u0120Coun": 3677, "\u0120Trans": 3678, "\u0120earlier": 3679, "\u0120leave": 3680, "load": 3681, "ica": 3682, "\u0120October": 3683, "AC": 3684, "udd": 3685, "\u0120genetic": 3686, "\u0120Law": 3687, "\u0120winter": 3688, "\u0120drugs": 3689, "\u0120steps": 3690, "\u0120weather": 3691, "\u0120Then": 3692, "\u0120former": 3693, "\u0120East": 3694, "\u0120strength": 3695, "ingu": 3696, "\u0120continued": 3697, "\u0120categ": 3698, "\u0120High": 3699, "\u0120commonly": 3700, "\u0120overall": 3701, "\u0120allowed": 3702, "\u0120maintain": 3703, "\u0120isn": 3704, "\u0120San": 3705, "\u0120member": 3706, "off": 3707, "\u0120Br": 3708, "can": 3709, "ros": 3710, "\u0120billion": 3711, "oday": 3712, "\u0120reduced": 3713, "\u0120neigh": 3714, "edom": 3715, "\u0120gir": 3716, "mitted": 3717, "\u0120fruit": 3718, "\u0120rise": 3719, "\u0120Sim": 3720, "\u0120193": 3721, "\u0120ast": 3722, "\u0120DNA": 3723, "wide": 3724, "\u0120electr": 3725, "\u0120swe": 3726, "ensity": 3727, "irection": 3728, "\u0120occup": 3729, "\u0120applied": 3730, "\u012060": 3731, "ibly": 3732, "\u0120placed": 3733, "\u0120Commun": 3734, "\u0120Mex": 3735, "\u0120pregn": 3736, "\u0120Pol": 3737, "\u0120Cour": 3738, "\u0120Vir": 3739, "\u0120commerc": 3740, "\u0120December": 3741, "\u0120max": 3742, "\u0120powerful": 3743, "\u0120perfect": 3744, "rec": 3745, "\u0120discovered": 3746, "\u0120Val": 3747, "\u0120eight": 3748, "26": 3749, "\u0120enh": 3750, "\u0120wond": 3751, "ios": 3752, "\u0120London": 3753, "\u0120formed": 3754, "\u0120road": 3755, "\u0120identified": 3756, "\u0120predict": 3757, "su": 3758, "\u01202007": 3759, "aters": 3760, "aur": 3761, "\u0120enter": 3762, "ospital": 3763, "\u0120sch": 3764, "gypt": 3765, "\u0120teach": 3766, "more": 3767, "\u0120showed": 3768, "27": 3769, "\u0120historical": 3770, "\u0120display": 3771, "\u0120coming": 3772, "\u0120court": 3773, "\u0120miss": 3774, "ste": 3775, "\u0120Black": 3776, "\u0120vill": 3777, "\u0120IS": 3778, "emy": 3779, "\u0120rich": 3780, "\u0120gave": 3781, "\u0120tox": 3782, "\u0120rule": 3783, "\u0120context": 3784, "\u0120Sur": 3785, "\u0120Read": 3786, "\u0120mob": 3787, "\u0120majority": 3788, "\u0120195": 3789, "Some": 3790, "aint": 3791, "\u0120status": 3792, "bl": 3793, "\u0120tissue": 3794, "\u0120mis": 3795, "enty": 3796, "\u0120exec": 3797, "\u0120pow": 3798, "rick": 3799, "\u0120acqu": 3800, "\u0120note": 3801, "ruary": 3802, "alt": 3803, "\u0120track": 3804, "\u0120philos": 3805, "\u0120virt": 3806, "\u0120den": 3807, "\u0120perhaps": 3808, "\u0120presence": 3809, "\u0120actions": 3810, "\u0120November": 3811, "\u0120During": 3812, "reet": 3813, "eech": 3814, "\u0120Inst": 3815, "\u0120situ": 3816, "cious": 3817, "\u0120guid": 3818, "iate": 3819, "\u0120patterns": 3820, "\u0120version": 3821, "known": 3822, "\u0120ball": 3823, "\u0120Arch": 3824, "\u0120gold": 3825, "ara": 3826, "ords": 3827, "\u0120cook": 3828, "\u0120joint": 3829, "\u0120didn": 3830, "bre": 3831, "encies": 3832, "\u0120mouth": 3833, "\u0120Because": 3834, "\u0120atmosp": 3835, "iful": 3836, "\u0120nutri": 3837, "osy": 3838, "\u0120Water": 3839, "rab": 3840, "\u0120fair": 3841, "29": 3842, "que": 3843, "aled": 3844, "\u0120machine": 3845, "\u0120fully": 3846, "\u0120limit": 3847, "AL": 3848, "\u0120moment": 3849, "related": 3850, "oration": 3851, "\u0120Mod": 3852, "\u0120increases": 3853, "\u0120Also": 3854, "\u0120signs": 3855, "\u0120remember": 3856, "\u0120mut": 3857, "\u0120choice": 3858, "\u0120compar": 3859, "\u0120assign": 3860, "orge": 3861, "Pro": 3862, "\u0120peace": 3863, "craft": 3864, "\u0120immune": 3865, "\u0120Now": 3866, "\u0120tele": 3867, "\u0120cry": 3868, "\u0120Jewish": 3869, "\u0120assist": 3870, "\u0120illust": 3871, "\u0120House": 3872, "\u0120changed": 3873, "\u0120asse": 3874, "\u0120properties": 3875, "\u0120moving": 3876, "\u0120Since": 3877, "\u0120tou": 3878, "\u0120relatively": 3879, "odes": 3880, "\u0120belief": 3881, "\u0120illness": 3882, "\u0120sect": 3883, "\u0120Society": 3884, "\u0120acad": 3885, "\u0120appears": 3886, "\u0120cities": 3887, "co": 3888, "\u0120element": 3889, "70": 3890, "\u0120female": 3891, "ament": 3892, "\u0120symbol": 3893, "28": 3894, "\u0120emp": 3895, "\u0120efficient": 3896, "\u0120General": 3897, "\u0120anx": 3898, "\u0120alcohol": 3899, "\u0120capacity": 3900, "gery": 3901, "inated": 3902, "\u0120piece": 3903, "\u0120bra": 3904, "\u0120Pat": 3905, "\u0120vo": 3906, "\u0120stories": 3907, "\u0120worked": 3908, "\u0120unit": 3909, "rief": 3910, "\u0120mig": 3911, "oted": 3912, "\u0120rat": 3913, "iences": 3914, "phas": 3915, "\u0120Ro": 3916, "\u0120emissions": 3917, "resp": 3918, "\u0120construct": 3919, "\u0120names": 3920, "\u0120Prot": 3921, "aste": 3922, "\u0120worth": 3923, "\u0120Just": 3924, "\u0120educational": 3925, "house": 3926, "\u0120strugg": 3927, "\",": 3928, "\u0120baby": 3929, "ees": 3930, "\u0120existing": 3931, "\u0120functions": 3932, "\u0120giving": 3933, "abilities": 3934, "\u0120incor": 3935, "\u0120running": 3936, "\u0120Are": 3937, "\u0120factor": 3938, "\u0120forward": 3939, "EC": 3940, "ternal": 3941, "\u0120evolution": 3942, "II": 3943, "force": 3944, "\u0120architect": 3945, "aign": 3946, "\u0120Egypt": 3947, "\u0120stim": 3948, "\u0120distance": 3949, "\u0120mission": 3950, "rupt": 3951, "\u0120dat": 3952, "\u0120star": 3953, "\u0120fresh": 3954, "\u0120Australia": 3955, "\u0120river": 3956, "\u0120offers": 3957, "\u0120People": 3958, "\u0120evalu": 3959, "amb": 3960, "\u0120muscle": 3961, "\u0120task": 3962, "\u0120direction": 3963, "\u0120convers": 3964, "\u0120native": 3965, "pective": 3966, "\u0120Conf": 3967, "\u0120staff": 3968, "\u0120ing": 3969, "\u0120transfer": 3970, "\u0120insect": 3971, "\u0120equal": 3972, "\u0120repe": 3973, "\u0120opportunities": 3974, "\u0120thousands": 3975, "\u0120Use": 3976, "\u0120assum": 3977, "\u0120technologies": 3978, "icip": 3979, "Ad": 3980, "atin": 3981, "\u0120surpr": 3982, "\u00e2\u0122\u013f,": 3983, "iring": 3984, "\u0120regions": 3985, "\u0120antib": 3986, "iny": 3987, "\u0120challenges": 3988, "\u0120Fin": 3989, "\u0120milk": 3990, "asion": 3991, "\u0120expand": 3992, "\u0120Germany": 3993, "\u0120wrong": 3994, "\u0120Prof": 3995, "\u0120balance": 3996, "\u0120believed": 3997, "\u0120absor": 3998, "ession": 3999, "\u0120watch": 4000, "\u0120components": 4001, "rehens": 4002, "\u0120detect": 4003, "\u0120picture": 4004, "Un": 4005, "\u0120Phil": 4006, "\u0120effic": 4007, "yd": 4008, "orage": 4009, "\u012028": 4010, "All": 4011, "\u012026": 4012, "\u0120bound": 4013, "\u0120Council": 4014, "omas": 4015, "\u0120findings": 4016, "ygen": 4017, "\u0120hair": 4018, "\u00e0\u00a4": 4019, "\u0120foreign": 4020, "\u0120friend": 4021, "\u0120Association": 4022, "\u0120huge": 4023, "\u0120consumption": 4024, "\u01202000": 4025, "\u0120innov": 4026, "ero": 4027, "\u0120explain": 4028, "\u0120planning": 4029, "\u0120instance": 4030, "\u0120citizens": 4031, "ogle": 4032, "\u0120weak": 4033, "\u0120reports": 4034, "\u0120plastic": 4035, "\u0120details": 4036, "\u0120box": 4037, "uls": 4038, "\u0120defined": 4039, "part": 4040, "\u0120office": 4041, "\u0120Ang": 4042, "ifically": 4043, "\u0120glass": 4044, "\u0120attract": 4045, "\u0120famous": 4046, "\u0120survey": 4047, "\u0120guide": 4048, "\u0120classroom": 4049, "\u0120Environment": 4050, "iant": 4051, "\u0120style": 4052, "\u0120price": 4053, "ST": 4054, "\u0120chance": 4055, "\u0120Congress": 4056, "DA": 4057, "rieved": 4058, "\u0120NA": 4059, "\u0120Each": 4060, "bed": 4061, "\u0120Fl": 4062, "\u0120exhib": 4063, "\u0120+": 4064, "\u0120observed": 4065, "\u0120Their": 4066, "\u0120contract": 4067, "hors": 4068, "era": 4069, "\u0120vision": 4070, "\u0120options": 4071, "\u0120garden": 4072, "\u0120Thus": 4073, "\u012022": 4074, "\u0120suggests": 4075, "\u0120goals": 4076, "oma": 4077, "\u0120figure": 4078, "\u0120instruct": 4079, "\u0120passed": 4080, "\u0120eventually": 4081, "ographic": 4082, "\u0120qual": 4083, "\u01202006": 4084, "\u0120Pal": 4085, "\u0120phen": 4086, "\u0120experiences": 4087, "\u0120disorder": 4088, "\u0120pp": 4089, "\u0120treated": 4090, "uild": 4091, "\u0120breast": 4092, "Be": 4093, "\u0120Internet": 4094, "\u01202015": 4095, "\u0120Medic": 4096, "\u0120strategies": 4097, "\u0120fert": 4098, "\u0120learned": 4099, "\u0120Green": 4100, "\u0120France": 4101, "ald": 4102, "\u0120map": 4103, "lege": 4104, "\u0120resistance": 4105, "\u0120seven": 4106, "\u0120immediately": 4107, "\u012027": 4108, "iance": 4109, "\u0120feature": 4110, "eding": 4111, "\u0120Union": 4112, "\u0120separate": 4113, "\u0120significantly": 4114, "RE": 4115, "che": 4116, "\u0120carried": 4117, "\u0120Western": 4118, "\u0120apply": 4119, "\u0120February": 4120, "pped": 4121, "\u0120blue": 4122, "\u0120collabor": 4123, "After": 4124, "nes": 4125, "\u0120commercial": 4126, "\u0120board": 4127, "iment": 4128, "\u0120sac": 4129, "\u0120structures": 4130, "igen": 4131, "\u0120celebr": 4132, "\u0120extremely": 4133, "\u0120excess": 4134, "tee": 4135, "\u0120iron": 4136, "\u0120gain": 4137, "cont": 4138, "\u0120fix": 4139, "eces": 4140, "\u0120util": 4141, "rome": 4142, "\u0120mal": 4143, "\u0120liqu": 4144, "\u0120Tur": 4145, "\u0120UN": 4146, "\u0120Japanese": 4147, "\u0120divid": 4148, "\u0120happen": 4149, "\u0120decades": 4150, "\u0120Program": 4151, "\u0120spect": 4152, "char": 4153, "\u0120male": 4154, "\u0120presented": 4155, "\u0120bank": 4156, "\u0120plans": 4157, "\u0120topic": 4158, "HE": 4159, "ris": 4160, "Is": 4161, "\u0120truth": 4162, "\u0120organizations": 4163, "\u0120highest": 4164, "\u0120pick": 4165, "wards": 4166, "\u0120bone": 4167, "ching": 4168, "ky": 4169, "\u0120income": 4170, "Ar": 4171, "\u0120destroy": 4172, "uit": 4173, "\u0120UK": 4174, "ken": 4175, "\u0120favor": 4176, "\u0120explore": 4177, "\u0120Inter": 4178, "\u0120clinical": 4179, "ophy": 4180, "\u0120becoming": 4181, "uses": 4182, "\u0120See": 4183, "\u0120requirements": 4184, "\u0120hom": 4185, "\u0120stream": 4186, "\u0120approximately": 4187, "\u0120save": 4188, "\u0120spring": 4189, "\u0120easier": 4190, "\u0120challenge": 4191, "\u0120gene": 4192, "They": 4193, "care": 4194, "\u0120journal": 4195, "\u0120distribution": 4196, "\u0120Cur": 4197, "ulum": 4198, "cast": 4199, "\u0120sexual": 4200, "\u0120generation": 4201, "\u0120rot": 4202, "\u0120mo": 4203, "\u0120Public": 4204, "\u0120\u00e2": 4205, "\u0120Che": 4206, "\u0120heavy": 4207, "enth": 4208, "\u0120actual": 4209, "\u0120moved": 4210, "isation": 4211, "\u0120Human": 4212, "\u0120reality": 4213, "\u0120depression": 4214, "\u0120Lord": 4215, "\u0120dyn": 4216, "\u0120bodies": 4217, "ube": 4218, "\u0120David": 4219, "\u0120household": 4220, "\u0120decisions": 4221, "\u0120items": 4222, "\u0120Don": 4223, "iated": 4224, "unction": 4225, "ares": 4226, "\u0120Mat": 4227, "\u0120urban": 4228, "\u0120faith": 4229, "\u0120slight": 4230, "\u0120nutrition": 4231, "plications": 4232, "asks": 4233, "\u0120conducted": 4234, "\u0120participants": 4235, "\u0120disorders": 4236, "zz": 4237, "\u0120populations": 4238, "\u0120alternative": 4239, "change": 4240, "\u0120vary": 4241, "\u0120introduced": 4242, "met": 4243, "do": 4244, "\u0120cand": 4245, "\u0120Bra": 4246, "\u0120reference": 4247, "\u0120legis": 4248, "\u0120electricity": 4249, "\u0120Mary": 4250, "\u0120Vol": 4251, "\u0120frequently": 4252, "\u0120emphas": 4253, "\u0120contrast": 4254, "\u0120Mich": 4255, "ulf": 4256, "90": 4257, "\u0120mer": 4258, "\u0120James": 4259, "\u0120estimated": 4260, "\u0120serve": 4261, "ologist": 4262, "35": 4263, "\u0120aspects": 4264, "\u0120Des": 4265, "\u01202005": 4266, "\u0120Spec": 4267, "antic": 4268, "\u0120connected": 4269, "\u0120metal": 4270, "\u0120industrial": 4271, "\u0120Greek": 4272, "\u0120ves": 4273, "\u0120partners": 4274, "\u0120performed": 4275, "ped": 4276, "\u0120ign": 4277, "\u0120setting": 4278, "\u0120widely": 4279, "\u0120Aut": 4280, "\u0120transl": 4281, "\u0120novel": 4282, "\u0120homes": 4283, "\u0120release": 4284, "bal": 4285, "ructure": 4286, "\u0120Rev": 4287, "\u0120resource": 4288, "\u0120fig": 4289, "\u0120Children": 4290, "order": 4291, "\u0120Let": 4292, "\u0120agg": 4293, "\u0120bed": 4294, "Ph": 4295, "\u0120games": 4296, "\u0120kid": 4297, "\u0120discussion": 4298, "\u0120esc": 4299, "\u0120speech": 4300, "\u0120chronic": 4301, "\u0120notes": 4302, "erate": 4303, "\u0120remove": 4304, "\u01202016": 4305, "rest": 4306, "\u0120compl": 4307, "\u0120clearly": 4308, "\u0120violence": 4309, "\u0120film": 4310, "\u0120opin": 4311, "\u01202014": 4312, "\u0120cycle": 4313, "\u0120combination": 4314, "\u0120records": 4315, "\u0120Over": 4316, "\u0120released": 4317, "clus": 4318, "\u0120Mor": 4319, "apers": 4320, "\u0120nuclear": 4321, "\u0120recommended": 4322, "porary": 4323, "\u0120letter": 4324, "\u0120causing": 4325, "\u0120mag": 4326, "ii": 4327, "\u0120experiment": 4328, "\u0120starting": 4329, "\u0120medicine": 4330, "\u0120assessment": 4331, "ida": 4332, "\u0120party": 4333, "\u0120desp": 4334, "\u012080": 4335, "\u0120College": 4336, "ilit": 4337, "\u0120intellig": 4338, "\u0120oxygen": 4339, "edic": 4340, "\u0120Web": 4341, "ias": 4342, "\u0120store": 4343, "key": 4344, "\u0120Museum": 4345, "roph": 4346, "tered": 4347, "\u0120policies": 4348, "\u0120Dec": 4349, "\u0120Plan": 4350, "ognitive": 4351, "\u0120thr": 4352, "imens": 4353, "\u0120Development": 4354, "\u0120turned": 4355, "\u0120lived": 4356, "\u0120expression": 4357, "\u0120doub": 4358, "\u0120isol": 4359, "\u0120numerous": 4360, "roup": 4361, "\u0120president": 4362, "\u0120grass": 4363, "\u0120independent": 4364, "\u0120Social": 4365, "\u0120appe": 4366, "erved": 4367, "\u0120hear": 4368, "\u0120Found": 4369, "\u0120ocean": 4370, "\u0120fields": 4371, "\u0120Net": 4372, "\u0120killed": 4373, "raw": 4374, "\u0120technique": 4375, "hetic": 4376, "\u0120load": 4377, "\u0120Rel": 4378, "OS": 4379, "\u0120divers": 4380, "\u0120drive": 4381, "\u0120operations": 4382, "\u0120creation": 4383, "\u0120gets": 4384, "\u0120changing": 4385, "\u0120anyone": 4386, "ously": 4387, "\u0120flood": 4388, "ager": 4389, "\u0120covered": 4390, "ET": 4391, "\u0120univers": 4392, "\u0120vitamin": 4393, "olved": 4394, "AM": 4395, "\u0120trust": 4396, "\u0120resulting": 4397, "ij": 4398, "ocal": 4399, "erences": 4400, "\u0120minor": 4401, "\u0120genes": 4402, "othes": 4403, "\u0120Food": 4404, "\u0120temperatures": 4405, "\u0120Retrieved": 4406, "\u0120buy": 4407, "\u0120win": 4408, "\u0120organic": 4409, "Sh": 4410, "\u0120ready": 4411, "\u0120internal": 4412, "\u0120god": 4413, "\u0120buildings": 4414, "icial": 4415, "\u0120Republic": 4416, "atically": 4417, "elines": 4418, "\u0120battle": 4419, "\u0120bottom": 4420, "\u0120wanted": 4421, "\u0120literature": 4422, "\u0120storage": 4423, "otes": 4424, "\u0120tour": 4425, "\u0120characteristics": 4426, "tical": 4427, "\u0120Av": 4428, "\u0120Court": 4429, "\u0120radio": 4430, "ressive": 4431, "urance": 4432, "\u0120shap": 4433, "raction": 4434, "iders": 4435, "\u0120freedom": 4436, "\u0120risks": 4437, "ault": 4438, "\u0120pi": 4439, "\u0120190": 4440, "\u0120connection": 4441, "EM": 4442, "works": 4443, "\u0120prefer": 4444, "\u00c2\u00b0": 4445, "\u0120Cath": 4446, "ologists": 4447, "\u0120sample": 4448, "\u0120exactly": 4449, "\u0120campaign": 4450, "anging": 4451, "\u0120conv": 4452, "\u0120nor": 4453, "\u0120root": 4454, "\u0120graph": 4455, "\u0120noted": 4456, "45": 4457, "\u0120initial": 4458, "rant": 4459, "\u0120meeting": 4460, "\u0120dogs": 4461, "\u0120anxiety": 4462, "\u0120distinct": 4463, "\u0120referred": 4464, "\u0120trib": 4465, "\u0120Government": 4466, "\u0120prepar": 4467, "\u0120George": 4468, "\u0120reducing": 4469, "onic": 4470, "amental": 4471, "\u0120tim": 4472, "lick": 4473, "\u0120trig": 4474, "\u0120principles": 4475, "\u0120output": 4476, "essor": 4477, "\u0120vessel": 4478, "\u0120authors": 4479, "\u0120Under": 4480, "\u0120confirm": 4481, "\u0120conflict": 4482, "\u0120encourage": 4483, "\u0120email": 4484, "\u0120sem": 4485, "\u0120drop": 4486, "\u0120involves": 4487, "\u0120message": 4488, "\u0120feeling": 4489, "\u0120Spanish": 4490, "\u0120#": 4491, "onds": 4492, "iveness": 4493, "\u0120failure": 4494, "\u0120Paul": 4495, "\u0120circum": 4496, "ception": 4497, "\u0120layer": 4498, "\u0120whom": 4499, "\u0120mathemat": 4500, "\u0120burn": 4501, "\u0120beautiful": 4502, "\u0120solutions": 4503, "\u0120tum": 4504, "\u0120dangerous": 4505, "\u0120sand": 4506, "\u0120relationships": 4507, "\u0120happens": 4508, "\u0120race": 4509, "\u0120annual": 4510, "\u012029": 4511, "\u0120upper": 4512, "\u0120alg": 4513, "\u0120degrees": 4514, "mark": 4515, "\u0120dri": 4516, "\u0120rul": 4517, "\u0120Ob": 4518, "\u0120Project": 4519, "lease": 4520, "According": 4521, "\u0120mentioned": 4522, "atform": 4523, "\u0120removed": 4524, "stitution": 4525, "cers": 4526, "\u0120arm": 4527, "ishing": 4528, "PS": 4529, "\u0120religion": 4530, "\u0120Therefore": 4531, "osystem": 4532, "ulating": 4533, "\u0120finding": 4534, "\u0120conservation": 4535, "\u0120injury": 4536, "\u0120mostly": 4537, "riage": 4538, "\u0120describe": 4539, "\u0120volunt": 4540, "\u0120helped": 4541, "\u0120interpret": 4542, "\u0120territ": 4543, "Here": 4544, "\u0120determined": 4545, "However": 4546, "orial": 4547, "\u0120counter": 4548, "33": 4549, "olid": 4550, "\u0120surgery": 4551, "with": 4552, "\u0120trou": 4553, "\u0120tooth": 4554, "\u0120island": 4555, "\u0120reprodu": 4556, "\u0120Air": 4557, "\u0120upd": 4558, "\u0120dram": 4559, "\u0120replace": 4560, "\u0120please": 4561, "\u0120gender": 4562, "\u0120unf": 4563, "\u0120Island": 4564, "\u0120Dem": 4565, "\u0120fine": 4566, "ortunately": 4567, "\u0120ship": 4568, "\u0120background": 4569, "\u0120thick": 4570, "\u0120previously": 4571, "\u0120option": 4572, "\u0120Organ": 4573, "\u0120sav": 4574, "\u0120Once": 4575, "riculum": 4576, "och": 4577, "\u0120Test": 4578, "\u0120vul": 4579, "\u0120college": 4580, "\u0120properly": 4581, "\u0120physic": 4582, "\u0120scen": 4583, "\u0120Off": 4584, "bi": 4585, "\u0120core": 4586, "\u0120excell": 4587, "\u0120186": 4588, "ressed": 4589, "\u0120synt": 4590, "\u0120inflamm": 4591, "\u0120regarding": 4592, "\u0120promote": 4593, "\u0120grant": 4594, "ria": 4595, "\u0120heard": 4596, "\u0120mist": 4597, "\u0120trend": 4598, "oting": 4599, "\u0120eggs": 4600, "\u0120elimin": 4601, "uing": 4602, "\u0120classes": 4603, "\u0120units": 4604, "rog": 4605, "\u0120advantage": 4606, "\u0120leads": 4607, "\u01202017": 4608, "\u0120served": 4609, "\u0120belong": 4610, "rows": 4611, "\u0120horm": 4612, "uration": 4613, "\u0120advanced": 4614, "\u0120involve": 4615, "\u0120meat": 4616, "\u0120adjust": 4617, "\u0120experienced": 4618, "\u0120infections": 4619, "\u0120statement": 4620, "\u0120Work": 4621, "\u0120comprehens": 4622, "ta": 4623, "Con": 4624, "ago": 4625, "\u0120volume": 4626, "\u0120seeds": 4627, "\u0120Sam": 4628, "ategy": 4629, "ieties": 4630, "\u0120Why": 4631, "rum": 4632, "\u0120articles": 4633, "\u0120Fore": 4634, "\u0120interested": 4635, "\u0120credit": 4636, "\u0120cast": 4637, "\u0120incorpor": 4638, "\u0120victim": 4639, "\u0120Sun": 4640, "\u0120spot": 4641, "oyal": 4642, "78": 4643, "\u0120pric": 4644, "ux": 4645, "\u0120spent": 4646, "\u0120click": 4647, "\u0120northern": 4648, "\u0120reaction": 4649, "mal": 4650, "\u0120processing": 4651, "\u0120linked": 4652, "\u0120round": 4653, "\u0120exposed": 4654, "\u0120inh": 4655, "\u0120strategy": 4656, "\u0120solid": 4657, "\u0120manufacture": 4658, "\u0120youth": 4659, "\u0120die": 4660, "\u0120decided": 4661, "ributed": 4662, "\u0120Mars": 4663, "\u0120reb": 4664, "\u0120academic": 4665, "New": 4666, "\u0120experts": 4667, "rates": 4668, "ping": 4669, "\u0120relevant": 4670, "\u0120landsc": 4671, "\u0120Mount": 4672, "\u0120transform": 4673, "\u0120Its": 4674, "\u0120Jews": 4675, "leg": 4676, "\u0120depending": 4677, "\u0120Inf": 4678, "Many": 4679, "\u0120Tex": 4680, "\u0120seed": 4681, "\u0120radiation": 4682, "ndrome": 4683, "ander": 4684, "\u0120Mark": 4685, "\u0120install": 4686, "\u0120concerns": 4687, "umn": 4688, "\u0120amounts": 4689, "\u0120kept": 4690, "\u0120sort": 4691, "\u0120obvious": 4692, "rep": 4693, "\u0120input": 4694, "Sp": 4695, "\u0120comfort": 4696, "\u0120Rober": 4697, "\u0120pages": 4698, "\u0120profession": 4699, "\u0120west": 4700, "itz": 4701, "\u0120meant": 4702, "\u01202004": 4703, "\u012070": 4704, "\u0120hour": 4705, "\u0120operation": 4706, "vision": 4707, "road": 4708, "\u0120pal": 4709, "\u0120pollution": 4710, "\u0120pip": 4711, "\u0120saying": 4712, "\u0120jour": 4713, "\u0120song": 4714, "\u0120lung": 4715, "\u0120southern": 4716, "rans": 4717, "uted": 4718, "nic": 4719, "\u0120Mexico": 4720, "\u0120Gra": 4721, "inate": 4722, "\u0120prepared": 4723, "\u012090": 4724, "place": 4725, "mat": 4726, "\u0120Asia": 4727, "\u0120mel": 4728, "\u0120Mal": 4729, "75": 4730, "\u0120helping": 4731, "\u0120square": 4732, "wood": 4733, "36": 4734, "CC": 4735, "\u0120procedure": 4736, "za": 4737, "\u0120signal": 4738, "ya": 4739, "\u0120invent": 4740, "\u0120Islam": 4741, "\u0120Bel": 4742, "\u0120effectively": 4743, "That": 4744, "\u0120cere": 4745, "\u0120diss": 4746, "Res": 4747, "rete": 4748, "\u0120wealth": 4749, "\u0120pret": 4750, "\u0120impl": 4751, "eline": 4752, "ifying": 4753, "\u0120...": 4754, "\u0120emotional": 4755, "\u0120concepts": 4756, "tes": 4757, "iverse": 4758, "\u0120manage": 4759, "\u0120discover": 4760, "\u0120Students": 4761, "\u0120atmosphere": 4762, "Why": 4763, "\u0120motor": 4764, "\u0120vegetables": 4765, "\u0120expert": 4766, "\u0120charge": 4767, "\u0120Hen": 4768, "\u0120Di": 4769, "\u0120concern": 4770, "board": 4771, "\u0120Phys": 4772, "\u0120fol": 4773, "urt": 4774, "aughter": 4775, "\u0120sustainable": 4776, "\u0120farmers": 4777, "\u0120pieces": 4778, "\u0120awareness": 4779, "\u0120Sub": 4780, "\u0120clos": 4781, "\u0120frequency": 4782, "berg": 4783, "\u0120proposed": 4784, "\u0120HIV": 4785, "well": 4786, "\u0120ST": 4787, "which": 4788, "\u0120official": 4789, "\u0120conclud": 4790, "\u0120La": 4791, "\u0120manner": 4792, "\u0120seek": 4793, "\u0120White": 4794, "\u0120lic": 4795, "\u0120phase": 4796, "standing": 4797, "ded": 4798, "\u0120hearing": 4799, "ags": 4800, "\u0120institutions": 4801, "\u0120looks": 4802, "\u0120engineering": 4803, "Im": 4804, "\u0120essay": 4805, "Our": 4806, "\u0120owners": 4807, "\u0120kill": 4808, "\u0120improved": 4809, "\u0120Rich": 4810, "\u0120Budd": 4811, "Now": 4812, "ek": 4813, "\u01202003": 4814, "acing": 4815, "\u0120completed": 4816, "\u0120Acad": 4817, "\u0120consult": 4818, "\u0120reached": 4819, "\u0120aid": 4820, "\u0120station": 4821, "\u0120influen": 4822, "\u0120Sen": 4823, "\u0120datab": 4824, "akers": 4825, "\u0120defic": 4826, "\u0120finally": 4827, "\u0120math": 4828, "oking": 4829, "vis": 4830, "Although": 4831, "\u0120recorded": 4832, "ams": 4833, "\u0120continues": 4834, "isher": 4835, "iling": 4836, "\u0120lesson": 4837, "\u0120\u00e2\u0122\u00a6": 4838, "\u0120sufficient": 4839, "\u0120mainly": 4840, "\u0120supported": 4841, "\u0120notice": 4842, "RO": 4843, "\u0120secret": 4844, "astern": 4845, "\u0120Service": 4846, "\u0120lib": 4847, "\u0120Kore": 4848, "\u0120Old": 4849, "\u0120phenomen": 4850, "ormal": 4851, "\u0120definition": 4852, "\u0120vaccine": 4853, "ball": 4854, "\u0120languages": 4855, "zing": 4856, "\u0120east": 4857, "\u0120presc": 4858, "\u0120allowing": 4859, "38": 4860, "\u0120corresp": 4861, "\u0120forced": 4862, "\u0120wet": 4863, "\u0120chemicals": 4864, "\u0120practical": 4865, "lig": 4866, "\u0120yellow": 4867, "\u0120Jer": 4868, "\u0120Je": 4869, "kin": 4870, "\u0120drinking": 4871, "\u0120grade": 4872, "\u0120coal": 4873, "onomic": 4874, "\u0120pun": 4875, "roke": 4876, "\u0120wonder": 4877, "\u0120platform": 4878, "\u0120brother": 4879, "Cl": 4880, "\u0120waters": 4881, "\u0120formation": 4882, "\u0120begins": 4883, "\u0120purposes": 4884, "\u0120diagnosis": 4885, "\u0120motiv": 4886, "\u0120Ev": 4887, "\u0120appoint": 4888, "comes": 4889, "\u0120ban": 4890, "\u0120conver": 4891, "\u0120storm": 4892, "\u00c4\u0123": 4893, "uable": 4894, "CO": 4895, "rence": 4896, "\u0120Civil": 4897, "\u0120intended": 4898, "itors": 4899, "\u0120authority": 4900, "\u0120Rem": 4901, "\u0120Port": 4902, "\u0120Met": 4903, "\u0120Arab": 4904, "\u0120taught": 4905, "acific": 4906, "\u0120vulner": 4907, "\u0120toxic": 4908, "\u0120Mr": 4909, "\u0120identity": 4910, "AD": 4911, "rapy": 4912, "\u0120hop": 4913, "ears": 4914, "\u0120bud": 4915, "ado": 4916, "\u0120centuries": 4917, "nam": 4918, "\u0120Virgin": 4919, "rations": 4920, "\u0120electrical": 4921, "\u0120Every": 4922, "\u0120Thomas": 4923, "\u0120comment": 4924, "\u0120efficiency": 4925, "\u0120settle": 4926, "\u0120hit": 4927, "\u0120Hel": 4928, "\u0120morning": 4929, "\u0120contribute": 4930, "\u0120Bay": 4931, "\u0120Miss": 4932, "\u0120park": 4933, "\u0120situations": 4934, "\u0120foss": 4935, "From": 4936, "atric": 4937, "ishes": 4938, "\u0120fort": 4939, "\u0120Mac": 4940, "\u0120remained": 4941, "'ll": 4942, "\u0120Mart": 4943, "\u0120renew": 4944, "ounced": 4945, "\u0120susp": 4946, "arrow": 4947, "aturally": 4948, "\u0120blog": 4949, "100": 4950, "verty": 4951, "\u0120offered": 4952, "eters": 4953, "\u0120samples": 4954, "\u0120links": 4955, "\u0120liquid": 4956, "\u0120combined": 4957, "oxide": 4958, "\u0120Britain": 4959, "\u0120NASA": 4960, "alle": 4961, "\u0120poverty": 4962, "AP": 4963, "\u0120lov": 4964, "\u0120master": 4965, "\u0120reduction": 4966, "\u0120jobs": 4967, "aker": 4968, "ework": 4969, "\u0120voice": 4970, "\u0120Central": 4971, "\u0120indicate": 4972, "clusion": 4973, "otic": 4974, "osite": 4975, "\u0120facts": 4976, "\u0120Lou": 4977, "\u0120primarily": 4978, "\u0120doll": 4979, "\u0120muscles": 4980, "\u0120shared": 4981, "yright": 4982, "\u0120nav": 4983, "\u0120dro": 4984, "\u0120girls": 4985, "\u0120straight": 4986, "\u0120kinds": 4987, "\u0120professor": 4988, "\u0120consequences": 4989, "\u0120focused": 4990, "\u0120Life": 4991, "ossible": 4992, "\u0120motion": 4993, "ample": 4994, "\u0120Ir": 4995, "ht": 4996, "34": 4997, "\u0120AD": 4998, "\u0120raised": 4999, "gra": 5000, "\u012035": 5001, "\u0120ideal": 5002, "rich": 5003, "\u0120height": 5004, "\u0120technical": 5005, "oper": 5006, "tion": 5007, "\u0120grand": 5008, "\u0120Franc": 5009, "anch": 5010, "ixt": 5011, "\u0120initi": 5012, "des": 5013, "espite": 5014, "\u0120perman": 5015, "\u0120Medicine": 5016, "\u0120flex": 5017, "\u0120brief": 5018, "\u0120extent": 5019, "Most": 5020, "Ab": 5021, "\u0120coord": 5022, "\u0120certainly": 5023, "\u0120Medical": 5024, "\u0120dynam": 5025, "\u0120collected": 5026, "\u0120Ber": 5027, "\u0120treatments": 5028, "\u0120Bas": 5029, "\u0120career": 5030, "\u0120neut": 5031, "\u0120tasks": 5032, "\u0120Energy": 5033, "\u0120Texas": 5034, "\u0120Space": 5035, "\u0120ecosystem": 5036, "rian": 5037, "\u0120existence": 5038, "\u0120hospital": 5039, "\u0120nerv": 5040, "\u0120nutrients": 5041, "\u0120largely": 5042, "\u0120specifically": 5043, "istan": 5044, "\u0120Direct": 5045, "Americ": 5046, "\u0120wife": 5047, "ses": 5048, "osen": 5049, "\u0120thoughts": 5050, "\u0120perspective": 5051, "\u0120Muslim": 5052, "rier": 5053, "\u0120mort": 5054, "\u0120playing": 5055, "\u0120felt": 5056, "\u0120operating": 5057, "\u0120subjects": 5058, "99": 5059, "\u0120kn": 5060, "\u0120Atl": 5061, "\u0120Fre": 5062, "oo": 5063, "acters": 5064, "\u0120cert": 5065, "going": 5066, "west": 5067, "\u0120spend": 5068, "\u0120Ser": 5069, "\u0120fib": 5070, "\u0120Class": 5071, "\u0120letters": 5072, "\u0120army": 5073, "\u0120otherwise": 5074, "\u0120nit": 5075, "\u0120police": 5076, "zy": 5077, "\u0120bill": 5078, "\u0120showing": 5079, "\u0120fif": 5080, "gl": 5081, "\u0120persons": 5082, "\u0120excellent": 5083, "col": 5084, "\u0120ther": 5085, "\u0120Sal": 5086, "\u0120Ben": 5087, "\u0120bird": 5088, "\u0120Cle": 5089, "\u0120occurred": 5090, "'ve": 5091, "\u0120cris": 5092, "\u0120resist": 5093, "\u01202001": 5094, "EL": 5095, "\u0120fluid": 5096, "ague": 5097, "Pl": 5098, "\u0120pul": 5099, "\u0120trial": 5100, "ache": 5101, "field": 5102, "\u0120\u00c3": 5103, "\u0120advance": 5104, "what": 5105, "US": 5106, "\u0120News": 5107, "\u0120Que": 5108, "\u0120tro": 5109, "\u0120shar": 5110, "\u0120vast": 5111, "that": 5112, "\u0120leader": 5113, "\u0120bright": 5114, "\u0120responsibility": 5115, "\u0120affects": 5116, "ael": 5117, "olute": 5118, "iced": 5119, "\u0120syn": 5120, "\u0120instrument": 5121, "\u0120particles": 5122, "\u0120train": 5123, "No": 5124, "unk": 5125, "ras": 5126, "\u0120flowers": 5127, "\u0120vital": 5128, "rolog": 5129, "\u0120faster": 5130, "rastructure": 5131, "\u0120nations": 5132, "\u0120biological": 5133, "OT": 5134, "\u0120despite": 5135, "\u0120Mass": 5136, "\u0120proteins": 5137, "\u0120impacts": 5138, "ey": 5139, "\u0120stem": 5140, "\u0120Commission": 5141, "band": 5142, "\u0120quar": 5143, "anges": 5144, "\u0120metab": 5145, "\u0120explains": 5146, "\u01201990": 5147, "\u0120Further": 5148, "ari": 5149, "\u0120abuse": 5150, "\u0120Technology": 5151, "\u0120Latin": 5152, "la": 5153, "\u0120agricultural": 5154, "\u0120cognitive": 5155, "\u0120detailed": 5156, "\u0120onto": 5157, "\u0120liver": 5158, "\u0120keeping": 5159, "\u0120salt": 5160, "othing": 5161, "\u0120send": 5162, "?\u00e2\u0122\u013f": 5163, "\u0120Dise": 5164, "\u0120digest": 5165, "\u0120surrounding": 5166, "\u0120oral": 5167, "\u0120vehicle": 5168, "\u0120sector": 5169, "\u0120Cam": 5170, "\u0120Bible": 5171, "\u0120revolution": 5172, "\u0120immig": 5173, "\u0120pray": 5174, "\u0120snow": 5175, "\u0120diam": 5176, "\u0120pros": 5177, ".;": 5178, "\u0120sounds": 5179, "\u0120played": 5180, "ipped": 5181, "\u0120clim": 5182, "ails": 5183, "\u0120familiar": 5184, "\u0120Wind": 5185, "\u0120returned": 5186, "\u0120Second": 5187, "\u0120Dist": 5188, "\u0120refers": 5189, "inger": 5190, "\u0120Rights": 5191, "\u0120emergency": 5192, "\u0120double": 5193, "\u0120maximum": 5194, "RI": 5195, "\u0120Army": 5196, "\u0120increasingly": 5197, "\u0120Hol": 5198, "\u0120stone": 5199, "olars": 5200, "\u0120recy": 5201, "\u0120aren": 5202, "\u0120measured": 5203, "oughly": 5204, "\u0120crops": 5205, "48": 5206, "\u0120suggested": 5207, "\u0120stars": 5208, "osa": 5209, "nel": 5210, "].": 5211, "\u0120looked": 5212, "cript": 5213, "\u0120wel": 5214, "\u0120helpful": 5215, "\u0120governments": 5216, "\u0120roll": 5217, "\u0120typical": 5218, "point": 5219, "\u0120apparent": 5220, "\u0120mere": 5221, "inent": 5222, "\u0120explan": 5223, "inf": 5224, "\u0120interests": 5225, "\u0120advice": 5226, "\u0120sche": 5227, "stood": 5228, "enses": 5229, "ometimes": 5230, "\u0120moist": 5231, "\u0120hyper": 5232, "\u0120Bur": 5233, "\u0120chief": 5234, "ancing": 5235, "umin": 5236, "\u0120Learning": 5237, "\u0120external": 5238, "\u0120domestic": 5239, "omy": 5240, "\u0120attacks": 5241, "\u0120Def": 5242, "\u0120thin": 5243, "\u0120fundamental": 5244, "ulin": 5245, "\u0120component": 5246, "stronom": 5247, "name": 5248, "utive": 5249, "\u0120periods": 5250, "\u0120lik": 5251, "lar": 5252, "\u0120divided": 5253, "\u0120Treat": 5254, "\u0120happened": 5255, "\u0120follows": 5256, "\u0120rail": 5257, "\u00c3\u00a1": 5258, "\u0120Catholic": 5259, "\u0120characters": 5260, "\u0120flat": 5261, "\u0120slightly": 5262, "\u0120BC": 5263, "pen": 5264, "\u0120firm": 5265, "\u01202002": 5266, "hips": 5267, "\u0120studied": 5268, "\u0120Book": 5269, "\u0120topics": 5270, "\u0120controlled": 5271, "\u0120Lake": 5272, "\u0120Both": 5273, "\u0120instruction": 5274, "39": 5275, "\u0120Two": 5276, "\u0120greatest": 5277, "\u0120fruits": 5278, "\u0120protected": 5279, "\u0120monitoring": 5280, "itness": 5281, "\u0120recognized": 5282, "\u0120hundreds": 5283, "\u0120bow": 5284, "resents": 5285, "down": 5286, "\u0120containing": 5287, "\u0120lose": 5288, "\u0120spiritual": 5289, "itage": 5290, "van": 5291, "\u0120sen": 5292, "\u0120Stand": 5293, "\u0120consists": 5294, "racy": 5295, "\u0120floor": 5296, "\u0120rural": 5297, "\u0120valid": 5298, "mp": 5299, "\u0120Sou": 5300, "right": 5301, "\u0120Women": 5302, "\u0120https": 5303, "\u0120portion": 5304, "ingly": 5305, "\u0120potentially": 5306, "\u0120phone": 5307, "\u0120explained": 5308, "\u0120Today": 5309, "\u0120elev": 5310, "eria": 5311, "\u0120Information": 5312, "\u0120goods": 5313, "\u0120Flor": 5314, "asure": 5315, "\u0120Russian": 5316, "\u0120knew": 5317, "gal": 5318, "ensus": 5319, "omin": 5320, "\u0120neighbor": 5321, "win": 5322, "\u00c3\u0143": 5323, "igenous": 5324, "iest": 5325, "\u0120Pacific": 5326, "\u0120curriculum": 5327, "\u0120files": 5328, "oral": 5329, "atever": 5330, "\u0120facilities": 5331, "\u0120officials": 5332, "\u0120accurate": 5333, "inding": 5334, "\u0120ju": 5335, "celer": 5336, "\u0120proport": 5337, "ificial": 5338, "\u0120interview": 5339, "\u0120tested": 5340, "\u0120paint": 5341, "\u0120Mil": 5342, "\u0120claims": 5343, "\u0120Foundation": 5344, "\u0120habitat": 5345, "\u0120spl": 5346, "\u0120Using": 5347, "\u0120conscious": 5348, "\u0120immun": 5349, "\u0120Data": 5350, "\u0120harvest": 5351, "\u0120walls": 5352, "\u0120depends": 5353, "state": 5354, "\u0120kil": 5355, "\u01202018": 5356, "BC": 5357, "\u0120crucial": 5358, "\u0120chann": 5359, "\u0120rapidly": 5360, "\u0120vent": 5361, "\u0120procedures": 5362, "\u0120approaches": 5363, "iled": 5364, "\u0120continuous": 5365, "37": 5366, "\u0120substant": 5367, "\u0120concentration": 5368, "\u0120depth": 5369, "\u0120satis": 5370, "cest": 5371, "uke": 5372, "\u0120subsequ": 5373, "oviet": 5374, "\u0120minimum": 5375, "\u0120appeared": 5376, "\u0120title": 5377, "\u0120feelings": 5378, "Do": 5379, "\u0120concerned": 5380, "\u0120sin": 5381, "More": 5382, "aks": 5383, "\u0120pig": 5384, "ompl": 5385, "\u0120km": 5386, "\u0120request": 5387, "\u0120Carol": 5388, "\u0120closely": 5389, "gment": 5390, "\u0120AN": 5391, "\u0120disapp": 5392, "\u0120represents": 5393, "\u0120smart": 5394, "\u0120western": 5395, "\u0120Micro": 5396, "\u0120fle": 5397, "\u0120investment": 5398, "umber": 5399, "\u0120obtained": 5400, "\u0120haz": 5401, "\u0120visible": 5402, "ville": 5403, "\u0120Charles": 5404, "ellect": 5405, "\u0120suffering": 5406, "\u0120convent": 5407, "\u0120Elect": 5408, "\u0120prices": 5409, "hi": 5410, "\u0120grown": 5411, "\u0120ages": 5412, "\u0120tried": 5413, "\u0120Middle": 5414, "\u0120CD": 5415, "osc": 5416, "\u0120prison": 5417, "\u0120moral": 5418, "\u0120cardi": 5419, "\u0120Sea": 5420, "\u0120naturally": 5421, "\u0120rand": 5422, "oster": 5423, "\u0120Out": 5424, "\u0120sed": 5425, "li": 5426, "\u0120roots": 5427, "ooth": 5428, "\u0120Nor": 5429, "\u0120discovery": 5430, "\u0120discussed": 5431, "pat": 5432, "\u0120contem": 5433, "Another": 5434, "\u0120argument": 5435, "\u0120selected": 5436, "95": 5437, "\u0120Del": 5438, "ascular": 5439, "\u0120Smith": 5440, "ION": 5441, "\u0120tips": 5442, "abil": 5443, "\u0120justice": 5444, "\u0120Fam": 5445, "\u0120movements": 5446, "\u0120Mont": 5447, "\u0120Another": 5448, "\u0120Ste": 5449, "\u0120random": 5450, "\u0120pu": 5451, "\u0120gar": 5452, "isp": 5453, "\u0120outcomes": 5454, "active": 5455, "anes": 5456, "\u0120diversity": 5457, "ING": 5458, "65": 5459, "\u0120Robert": 5460, "\u0120Jose": 5461, "\u0120distingu": 5462, "\u0120188": 5463, "roc": 5464, "\u0120stated": 5465, "\u0120couple": 5466, "anguage": 5467, "alse": 5468, "MS": 5469, "\u0120views": 5470, "\u0120paid": 5471, "\u0120leaving": 5472, "\u0120Library": 5473, "\u0120Mem": 5474, "\u0120medications": 5475, "\u0120sides": 5476, "athy": 5477, "\u0120valuable": 5478, "\u0120extract": 5479, "\u0120director": 5480, "\u0120dial": 5481, "\u0120Jud": 5482, "\u0120adding": 5483, "\u01202020": 5484, "\u0120Russia": 5485, "\u0120expensive": 5486, "\u0120residents": 5487, "\u0120crisis": 5488, "\u0120neuro": 5489, "\u0120substance": 5490, "\u0120circumst": 5491, "\u0120stret": 5492, "\u0120latest": 5493, "\u0120*": 5494, "\u0120reform": 5495, "\u0120deliver": 5496, "32": 5497, "TS": 5498, "\u00e2\u0122\u013b.": 5499, "\u0120medium": 5500, "44": 5501, "\u0120documents": 5502, "\u0120Control": 5503, "\u0120weap": 5504, "\u0120Supp": 5505, "\u0120satell": 5506, "\u0120sets": 5507, "\u0120pump": 5508, "ada": 5509, "fall": 5510, "\u0120Land": 5511, "\u0120Make": 5512, "\u0120lessons": 5513, "\u0120correspond": 5514, "\u0120Instead": 5515, "\u0120pil": 5516, "\u0120millions": 5517, "eck": 5518, "\u0120allerg": 5519, "\u0120Well": 5520, "\u0120Google": 5521, "\u0120Ref": 5522, "chers": 5523, "\u0120accompl": 5524, "\u0120infrastructure": 5525, "bing": 5526, "\u0120alt": 5527, "ario": 5528, "lers": 5529, "olester": 5530, "\u0120recognize": 5531, "\u0120moon": 5532, "\u0120dut": 5533, "\u0120discrim": 5534, "\u0120rein": 5535, "tenance": 5536, "ato": 5537, "De": 5538, "\u0120talking": 5539, "\u0120regularly": 5540, "\u0120employees": 5541, "\u0120appearance": 5542, "\u0120gun": 5543, "\u012045": 5544, "\u0120Wild": 5545, "\u0120Such": 5546, "\u0120Emp": 5547, "\u0120hunt": 5548, "roid": 5549, "\u0120village": 5550, "\u0120pictures": 5551, "\u0120band": 5552, "\u0120od": 5553, "\u0120Henry": 5554, "esity": 5555, "\u0120funding": 5556, "\u0120internet": 5557, "\u0120decrease": 5558, "Sc": 5559, "\u0120Up": 5560, "\u0120Psych": 5561, "\u0120colors": 5562, "\u0120syndrome": 5563, "\u0120myth": 5564, "\u0120capable": 5565, "icks": 5566, "\u0120Federal": 5567, "\u0120wire": 5568, "\u0120Soviet": 5569, "Gen": 5570, "\u0120Like": 5571, "\u0120driving": 5572, "\u0120Disc": 5573, "\u0120agriculture": 5574, "\u0120stock": 5575, "\u0120Tem": 5576, "\u0120accomp": 5577, "\u0120Studies": 5578, "\u0120deaths": 5579, "\u0120mobile": 5580, "olesterol": 5581, "free": 5582, "\u0120Ham": 5583, "\u0120ingred": 5584, "\u01202019": 5585, "\u0120suffer": 5586, "rid": 5587, "exp": 5588, "ocratic": 5589, "\u0120frag": 5590, "\u0120Company": 5591, "\u0120param": 5592, "\u0120pregnancy": 5593, "\u0120Nature": 5594, "\u0120principle": 5595, "Dr": 5596, "\u0120corpor": 5597, "Go": 5598, "Ind": 5599, "omach": 5600, "\u0120horse": 5601, "\u0120advoc": 5602, "\u0120Post": 5603, "mbly": 5604, "stream": 5605, "\u0120Histor": 5606, "\u0120infected": 5607, "\u0120recovery": 5608, "\u0120du": 5609, "rem": 5610, "\u0120narrow": 5611, "Other": 5612, "\u0120houses": 5613, "\u0120facilit": 5614, "\u0120inflammation": 5615, "During": 5616, "idden": 5617, "\u0120marine": 5618, "\u0120secure": 5619, "\u0120format": 5620, "\u0120introduction": 5621, "\u0120soldiers": 5622, "\u0120pure": 5623, "\u0120closed": 5624, "\u0120interf": 5625, "\u0120shel": 5626, "\u0120fertil": 5627, "othe": 5628, "plicated": 5629, "\u0120parties": 5630, "\u0120regional": 5631, "\u0120Nav": 5632, "\u0120raise": 5633, "\u0120formal": 5634, "\u0120wear": 5635, "\u0120apart": 5636, "\u0120dream": 5637, "\u0120Engine": 5638, "pass": 5639, "dden": 5640, "long": 5641, "\u0120calls": 5642, "\u0120Environmental": 5643, "198": 5644, "\u0120inject": 5645, "DF": 5646, "\u0120Wil": 5647, "\u0120chain": 5648, "HO": 5649, "\u0120sick": 5650, "olve": 5651, "mas": 5652, "\u0120protocol": 5653, "\u0120prevention": 5654, "\u0120producing": 5655, "indu": 5656, "\u0120touch": 5657, "\u0120narr": 5658, "\u0120impossible": 5659, "\u0120creative": 5660, "\u0120adequ": 5661, "\u00d9\u0130": 5662, "\u0120Saf": 5663, "\u0120originally": 5664, "\u0120san": 5665, "\u0120precise": 5666, "\u0120Louis": 5667, "\u0120Ap": 5668, "uilding": 5669, "\u0120marriage": 5670, "\u0120opened": 5671, "\u0120describes": 5672, "\u0120arms": 5673, "\u0120normally": 5674, "ota": 5675, "\u0120enhance": 5676, "\u0120Bat": 5677, "\u0120inches": 5678, "ca": 5679, "burg": 5680, "\u0120Virginia": 5681, "spec": 5682, "hma": 5683, "\u0120Sum": 5684, "pping": 5685, "ibilities": 5686, "\u0120aw": 5687, "alian": 5688, "ypes": 5689, "\u0120coff": 5690, "\u0120Management": 5691, "\u0120\u00ce": 5692, "\u0120unlike": 5693, "\u0120Constitution": 5694, "CS": 5695, "\u0120Group": 5696, "\u0120possibly": 5697, "\u0120Pers": 5698, "\u0120businesses": 5699, "\u0120lifest": 5700, "\u0120wave": 5701, "\u0120mit": 5702, "hemical": 5703, "\u0120bones": 5704, "\u0120intelligence": 5705, "76": 5706, "My": 5707, "\u0120incl": 5708, "inet": 5709, "\u0120exchange": 5710, "\u0120Ox": 5711, "\u0120understood": 5712, "\u0120wors": 5713, "\u0120generate": 5714, "\u0120chapter": 5715, "ona": 5716, "iology": 5717, "\u0120computers": 5718, "Te": 5719, "rants": 5720, "\u0120tun": 5721, "\u0120trad": 5722, "\u0120accepted": 5723, "ctic": 5724, "\u0120Power": 5725, "\u0120absolute": 5726, "\u0120Commit": 5727, "\u0120ancest": 5728, "olf": 5729, "46": 5730, "\u0120traffic": 5731, "\u0120apprec": 5732, "\u0120opinion": 5733, "\u0120vehicles": 5734, "\u0120entirely": 5735, "\u0120rub": 5736, "\u0120possibility": 5737, "\u0120sensitive": 5738, "\u0120era": 5739, "31": 5740, "\u0120Know": 5741, "500": 5742, "\u0120Tor": 5743, "\u0120flight": 5744, "\u0120restrict": 5745, "\u0120secondary": 5746, "\u0120shell": 5747, "reed": 5748, "osm": 5749, "\u0120listed": 5750, "hist": 5751, "\u0120administration": 5752, "\u0120sudden": 5753, "\u0120brown": 5754, "\u0120stored": 5755, "\u0120Canadian": 5756, "\u0120suc": 5757, "\u0120pref": 5758, "\u0120pretty": 5759, "ka": 5760, ".|": 5761, "See": 5762, "ditionally": 5763, "\u0120candid": 5764, "ifies": 5765, "\u0120Bet": 5766, "\u0120stages": 5767, "ocracy": 5768, "bert": 5769, "\u0120recon": 5770, "add": 5771, "osal": 5772, "vironments": 5773, "cling": 5774, "\u0120label": 5775, "\u0120tal": 5776, "\u0120phr": 5777, "ye": 5778, "\u0120waves": 5779, "\u0120prepare": 5780, "\u0120adopted": 5781, "\u0120revealed": 5782, "\u0120toler": 5783, "\u0120Mo": 5784, "inations": 5785, "\u0120museum": 5786, "organ": 5787, "\u0120massive": 5788, "being": 5789, "osph": 5790, "\u0120185": 5791, "CR": 5792, "Us": 5793, "\u0120mamm": 5794, "\u0120worldwide": 5795, "\u0120speaking": 5796, "\u0120worse": 5797, "\u0120recip": 5798, "\u0120window": 5799, "aser": 5800, "agues": 5801, "\u0120ble": 5802, "\u0120dental": 5803, "\u0120unless": 5804, "\u0120lands": 5805, "obe": 5806, "\u0120medication": 5807, "LE": 5808, "\u0120selection": 5809, "\u0120warming": 5810, "\u0120Scient": 5811, "\u0120improving": 5812, "BN": 5813, "\u0120Florida": 5814, "alysis": 5815, "\u01201999": 5816, "\u0120Ter": 5817, "\u0120volunte": 5818, "teries": 5819, "anda": 5820, "\u0120Ma": 5821, "\u0120leadership": 5822, "\u0120Columb": 5823, "\u0120experiments": 5824, "\u0120fill": 5825, "\u0120comprehensive": 5826, "\u0120Ken": 5827, "\u0120diverse": 5828, "\u0120intake": 5829, "\u0120index": 5830, "\u0120acts": 5831, "\u0120starts": 5832, "\u0120library": 5833, "lements": 5834, "\u0120repeated": 5835, "\u0120decline": 5836, "\u0120extensive": 5837, "liam": 5838, "asive": 5839, "erals": 5840, "ua": 5841, "agers": 5842, "\u0120database": 5843, "\u0120figures": 5844, "\u0120latter": 5845, "\u0120poet": 5846, "Re": 5847, "ston": 5848, "\u0120manufacturing": 5849, "\u0120leaf": 5850, "\u0120behaviour": 5851, "ropical": 5852, "\u0120survival": 5853, "\u0120stick": 5854, "orrow": 5855, "\u0120minim": 5856, "\u0120creates": 5857, "apping": 5858, "\u0120nan": 5859, "\u0120<": 5860, "\u0120copy": 5861, "war": 5862, "\u0120agencies": 5863, "orith": 5864, "\u0120guidelines": 5865, "\u0120doctors": 5866, "imer": 5867, "anged": 5868, "\u0120networks": 5869, "\u0120plate": 5870, "rors": 5871, "\u0120cars": 5872, "\u0120Labor": 5873, "\u0120transmission": 5874, "\u0120dedic": 5875, "\u0120Id": 5876, "rus": 5877, "\u0120depos": 5878, "\u0120answers": 5879, "\u0120electronic": 5880, "\u0120assistance": 5881, "\u0120framework": 5882, "\u0120suitable": 5883, "\u0120indeed": 5884, "abric": 5885, "\u0120Good": 5886, "ogue": 5887, "normal": 5888, "\u0120Div": 5889, "\u0120possess": 5890, "asp": 5891, "\u0120Att": 5892, "\u0120wildlife": 5893, "\u0120cloud": 5894, "gent": 5895, "\u0120mur": 5896, "\u0120prem": 5897, "\u0120Leg": 5898, "\u0120survive": 5899, "\u0120IN": 5900, "\u01201980": 5901, "ini": 5902, "\u0120forests": 5903, "\u0120gall": 5904, "\u0120remaining": 5905, "\u0120routine": 5906, "\u0120wid": 5907, "\u0120tow": 5908, "\u0120Bro": 5909, "\u0120intellect": 5910, "\u0120Office": 5911, "\u0120district": 5912, "\u0120imper": 5913, "tage": 5914, "\u0120achieved": 5915, "\u0120accounts": 5916, "flow": 5917, "\u0120readers": 5918, "\u0120Review": 5919, "\u0120edge": 5920, "\u0120landscape": 5921, "\u012031": 5922, "\u0120Ann": 5923, "\u0120harmful": 5924, "\u0120tail": 5925, "\u0120engage": 5926, "inn": 5927, "\u0120twice": 5928, "\u0120transition": 5929, "struct": 5930, "\u0120gather": 5931, "\u0120door": 5932, "Se": 5933, "\u0120nurs": 5934, "\u0120Nations": 5935, "\u0120universe": 5936, "oto": 5937, "\u0120Alex": 5938, "\u0120acceler": 5939, "\u0120Prov": 5940, "\u0120sell": 5941, "\u0120foundation": 5942, "\u0120abund": 5943, "\u0120calcium": 5944, "last": 5945, "ava": 5946, "\u0120bio": 5947, "\u0120choices": 5948, "orter": 5949, "\u0120Rome": 5950, "\u0120mountain": 5951, "ceived": 5952, "\u0120budget": 5953, "\u0120filled": 5954, "htm": 5955, "Cont": 5956, "\u0120plays": 5957, "\u0120slowly": 5958, "\u0120www": 5959, "\u0120extended": 5960, "ansion": 5961, "\u0120scholars": 5962, "erent": 5963, "\u0120fell": 5964, "\u0120Any": 5965, "\u0120sequence": 5966, "\u0120injuries": 5967, "\u0120chart": 5968, "luding": 5969, "\u0120surf": 5970, "ashion": 5971, "\u0120equival": 5972, "\u0120generated": 5973, "\u0120antibiot": 5974, "\u0120seeing": 5975, "77": 5976, "\u0120tiny": 5977, "\u0120supplement": 5978, "liament": 5979, "\u0120remote": 5980, "\u0120healthcare": 5981, "under": 5982, "\u0120reject": 5983, "\u0120THE": 5984, "\u0120courses": 5985, "acts": 5986, "\u0120Common": 5987, "aria": 5988, "\u0120amb": 5989, "\u0120produces": 5990, "\u0120afford": 5991, "abits": 5992, "\u0120OF": 5993, "\u0120broken": 5994, "\u0120troops": 5995, ".\u00e2\u0122\u013b": 5996, "\u0120agreement": 5997, "\u0120laboratory": 5998, "\u0120environments": 5999, "\u0120stomach": 6000, "\u0120circumstances": 6001, "49": 6002, "\u0120professionals": 6003, "\u0120discipl": 6004, "\u0120expressed": 6005, "born": 6006, "\u0120truly": 6007, "\u0120Professor": 6008, "\u0120Global": 6009, "using": 6010, "\u0120unknown": 6011, "\u0120Expl": 6012, "\u0120audience": 6013, "\u0120sweet": 6014, "\u0120dust": 6015, "\u0120About": 6016, "\u0120happy": 6017, "UR": 6018, "\u0120Vict": 6019, "\u0120pull": 6020, "\u0120sports": 6021, "\u0120wants": 6022, "\u0120Those": 6023, "\u0120journey": 6024, "\u0120battery": 6025, "\u0120fly": 6026, "\u0120failed": 6027, "\u0120af": 6028, "\u0120domin": 6029, "\u0120aircraft": 6030, "\u0120cultiv": 6031, "CT": 6032, "ican": 6033, "\u0120obtain": 6034, "\u0120struggle": 6035, "\u0120implementation": 6036, "wing": 6037, "\u0120sharing": 6038, "\u0120grav": 6039, "igation": 6040, "\u0120decade": 6041, "\u0120fossil": 6042, "\u0120enable": 6043, "\u0120opening": 6044, "\u0120hus": 6045, "\u0120catch": 6046, "\u0120sky": 6047, "\u0120derived": 6048, "mary": 6049, "\u0120Only": 6050, "iform": 6051, "\u0120maintenance": 6052, "\u0120Through": 6053, "\u0120aqu": 6054, "reland": 6055, "ums": 6056, "\u0120insects": 6057, "ront": 6058, "\u0120beneficial": 6059, "\u0120consistent": 6060, "\u0120traum": 6061, "\u0120Yet": 6062, "\u0120doubt": 6063, "\u0120Sk": 6064, "\u0120Long": 6065, "\u0120childhood": 6066, "\u0120cholesterol": 6067, "\u0120decide": 6068, "\u0120permanent": 6069, "\u0120married": 6070, "\u0120multi": 6071, "no": 6072, "arant": 6073, "\u0120acids": 6074, "zen": 6075, "\u0120sentence": 6076, "\u0120managed": 6077, "\u0120error": 6078, "\u0120greatly": 6079, "\u0120Bre": 6080, "\u0120thor": 6081, "itan": 6082, "\u0120locations": 6083, "\u0120successfully": 6084, "Stud": 6085, "\u0120wish": 6086, "\u0120lots": 6087, "Read": 6088, "\u0120switch": 6089, "\u0120500": 6090, "\u0120Get": 6091, "\u0120skill": 6092, "ctive": 6093, "\u0120tells": 6094, "\u0120flav": 6095, "\u0120constitution": 6096, "icians": 6097, "\u0120steel": 6098, "\u0120>": 6099, "\u0120newsp": 6100, "\u0120solve": 6101, "\u0120remind": 6102, "icide": 6103, "\u0120USA": 6104, "\u0120responses": 6105, "\u0120ethnic": 6106, "\u0120studying": 6107, "itt": 6108, "\u0120Australian": 6109, "inction": 6110, "ita": 6111, "47": 6112, "\u0120optim": 6113, "\u0120ax": 6114, "....": 6115, "body": 6116, "\u0120300": 6117, "\u0120Ill": 6118, "\u01201998": 6119, "\u0120represented": 6120, "\u0120corn": 6121, "\u0120organized": 6122, "\u0120mechanism": 6123, "\u0120Design": 6124, "\u0120Dan": 6125, "\u0120Joseph": 6126, "\u0120indicates": 6127, "\u0120uns": 6128, "\u0120Fe": 6129, "\u0120Committee": 6130, "ribed": 6131, "from": 6132, "\u0120signals": 6133, "\u0120gal": 6134, "kes": 6135, "\u0120AI": 6136, "\u0120Gold": 6137, "eper": 6138, "stone": 6139, "\u0120cultures": 6140, "\u0120molecules": 6141, "pet": 6142, "\u0120authorities": 6143, "\u0120compr": 6144, "\u0120opposite": 6145, "\u0120replaced": 6146, "\u0120Care": 6147, "\u00e2\u0122\u013a": 6148, "itative": 6149, "but": 6150, "\u0120description": 6151, "En": 6152, "\u0120Peter": 6153, "ki": 6154, "ivery": 6155, "edu": 6156, "usal": 6157, "\u0120aer": 6158, "\u0120daughter": 6159, "\u0120institution": 6160, "ny": 6161, "\u0120difficulty": 6162, "\u0120princip": 6163, "\u0120bear": 6164, "\u0120younger": 6165, "\u0120consumers": 6166, "\u0120fixed": 6167, "ifications": 6168, "zil": 6169, "\u0120din": 6170, "\u0120sight": 6171, "level": 6172, "\u0120carefully": 6173, "wo": 6174, "\u0120Street": 6175, "\u0120Paris": 6176, "\u0120unable": 6177, "\u0120colour": 6178, "\u0120hydrogen": 6179, "\u0120destroyed": 6180, "\u0120Lab": 6181, "\u0120composition": 6182, "then": 6183, "\u0120algorith": 6184, "\u0120density": 6185, "rine": 6186, "\u0120Report": 6187, "\u0120ath": 6188, "\u0120Stat": 6189, "word": 6190, "\u0120Disease": 6191, "\u0120marked": 6192, "Can": 6193, "phone": 6194, "\u0120fasc": 6195, "\u0120inner": 6196, "\u0120philosophy": 6197, "ester": 6198, "\u0120Mad": 6199, "\u0120unp": 6200, "\u0120thousand": 6201, "cel": 6202, "\u0120Bul": 6203, "ymph": 6204, "\u0120fiber": 6205, "gu": 6206, "uts": 6207, "\u0120Ireland": 6208, "inking": 6209, "fish": 6210, "\u0120supplies": 6211, "\u0120intervention": 6212, "\u0120cart": 6213, "ocy": 6214, "\u0120agency": 6215, "\u0120refuge": 6216, "\u0120Southern": 6217, "American": 6218, "hand": 6219, "gans": 6220, "\u0120remark": 6221, "\u0120false": 6222, "lets": 6223, "\u01201970": 6224, "\u0120interaction": 6225, "\u0120photograph": 6226, "\u0120laun": 6227, "tra": 6228, "ait": 6229, "\u00c3\u00bc": 6230, "\u0120vessels": 6231, "\u0120outl": 6232, "\u0120Haw": 6233, "\u0120electron": 6234, "\u0120coffee": 6235, "\u0120Sl": 6236, "\u0120Cancer": 6237, "antly": 6238, "ints": 6239, "\u0120Study": 6240, "\u0120ultimately": 6241, "elled": 6242, "\u0120189": 6243, "\u0120Hall": 6244, "\u0120raw": 6245, "05": 6246, "\u0120fewer": 6247, "\u0120pup": 6248, "\u0120arrived": 6249, "\u0120walking": 6250, "\u0120closer": 6251, "\u0120chosen": 6252, "sey": 6253, "abul": 6254, "\u0120shift": 6255, "\u0120sod": 6256, "\u0120Rad": 6257, "\u0120Home": 6258, "\u0120boost": 6259, "\u0120gone": 6260, "\u0120ourselves": 6261, "\u0120founded": 6262, "Since": 6263, "\u0120dedicated": 6264, "ena": 6265, "\u0120simpl": 6266, "\u0120immediate": 6267, "\u0120gluc": 6268, "\u0120amaz": 6269, "\u0120handle": 6270, "\u0120cutting": 6271, "icago": 6272, "\u0120Gal": 6273, "\u0120Kh": 6274, "Pe": 6275, "IL": 6276, "\u0120limits": 6277, "\u0120ends": 6278, "\u0120purchase": 6279, "iration": 6280, "\u0120Cult": 6281, "\u0120lifestyle": 6282, "stein": 6283, "\u0120Time": 6284, "\u0120standing": 6285, "\u0120desire": 6286, "\u0120attend": 6287, "irty": 6288, "\u0120mixed": 6289, "\u0120emotions": 6290, "aped": 6291, "\u0120listen": 6292, "\u0120highlight": 6293, "kins": 6294, "\u0120evaluation": 6295, "\u0120join": 6296, "opy": 6297, "\u0120brand": 6298, "\u0120colleagues": 6299, "\u0120witness": 6300, "\u0120regist": 6301, "\u00e2\u0122\u013b,": 6302, "\u0120hero": 6303, "ipping": 6304, "\u0120critic": 6305, "\u0120Northern": 6306, "agon": 6307, "\u0120necessarily": 6308, "\u0120ratio": 6309, "\u0120zone": 6310, "\u0120mac": 6311, "\u0120accum": 6312, "\u0120paralle": 6313, "\u0120mild": 6314, "isters": 6315, "EP": 6316, "called": 6317, "top": 6318, "umes": 6319, "\u0120circuit": 6320, "\u0120Eth": 6321, "\u0120dioxide": 6322, "\u0120regulations": 6323, "\u0120supports": 6324, "fortunately": 6325, "anta": 6326, "\u0120Camp": 6327, "\u0120attached": 6328, "\u0120grew": 6329, "\u0120Exp": 6330, "\u0120mechanisms": 6331, "\u0120Natural": 6332, "\u0120regul": 6333, "esis": 6334, "\u0120Clin": 6335, "\u0120comments": 6336, "\u0120pus": 6337, "\u0120occasion": 6338, "itudes": 6339, "throp": 6340, "\u0120comparison": 6341, "\u0120Cat": 6342, "\u0120Ca": 6343, "\u0120Mag": 6344, "\u0120carb": 6345, "\u0120fighting": 6346, "\u0120yield": 6347, "\u0120knows": 6348, "\u0120nine": 6349, "\u0120voc": 6350, "\u0120Academy": 6351, "rating": 6352, "\u0120succeed": 6353, "\u0120alle": 6354, "\u0120acknow": 6355, "\u0120transportation": 6356, "\u0120Italy": 6357, "\u0120nerve": 6358, "\u0120hem": 6359, "hop": 6360, "zed": 6361, "inity": 6362, "\u0120persist": 6363, "\u0120supporting": 6364, "\u0120debate": 6365, "\u0120participate": 6366, "ribe": 6367, "\u0120stands": 6368, "\u0120Step": 6369, "cycl": 6370, "\u0120twenty": 6371, "hav": 6372, "icon": 6373, "\u0120neck": 6374, "UN": 6375, "\u0120resolution": 6376, "\u0120Det": 6377, "\u0120reader": 6378, "\u0120communicate": 6379, "\u0120Brown": 6380, "\u0120preval": 6381, "\u0120conventional": 6382, "Bl": 6383, "\u0120stroke": 6384, "55": 6385, "\u0120ships": 6386, "\u0120Administ": 6387, "omic": 6388, "\u0120unus": 6389, "\u0120overl": 6390, "\u0120Frank": 6391, "\u0120IP": 6392, "\u0120writer": 6393, "orous": 6394, "\u0120behaviors": 6395, "\u0120contained": 6396, "\u0120Vis": 6397, "\u0120clust": 6398, "\u0120powers": 6399, "\u0120subs": 6400, "\u0120membr": 6401, "\u0120Valley": 6402, "\u0120university": 6403, "\u0120relax": 6404, "\u0120biggest": 6405, "\u0120whatever": 6406, "sts": 6407, "\u0120Ext": 6408, "\u0120download": 6409, "izer": 6410, "heast": 6411, "tering": 6412, "\u0120ISBN": 6413, "utch": 6414, "\u0120Exper": 6415, "________": 6416, "\u0120Add": 6417, "\u0120breathing": 6418, "\u0120rising": 6419, "Let": 6420, "\u0120concrete": 6421, "\u0120feeding": 6422, "\u00d8\u00a7": 6423, "cher": 6424, "\u0120obesity": 6425, "\u0120willing": 6426, "\u0120Spain": 6427, "bridge": 6428, "\u0120Pub": 6429, "rd": 6430, "\u0120tank": 6431, "\u0120dent": 6432, "\u0120bread": 6433, "\u0120eastern": 6434, "\u0120veter": 6435, "\u0120vote": 6436, "DP": 6437, "\u0120fabric": 6438, "ctor": 6439, "\u0120mold": 6440, "tic": 6441, "\u0120border": 6442, "\u0120Color": 6443, "nect": 6444, "isk": 6445, "orses": 6446, "\u0120instructions": 6447, "\u0120eld": 6448, "\u0120vulnerable": 6449, "\u0120underlying": 6450, "\u0120organisms": 6451, "\u0120Sciences": 6452, "\u0120AS": 6453, "\u0120feedback": 6454, "\u0120cats": 6455, "\u0120drawing": 6456, "ora": 6457, "inating": 6458, "\u0120machines": 6459, "\u0120magnetic": 6460, "\u0120pron": 6461, "comm": 6462, "hether": 6463, "\u0120turns": 6464, "\u0120frequent": 6465, "\u0120pra": 6466, "\u01201960": 6467, "\u0120epid": 6468, "otion": 6469, "\u0120Sol": 6470, "Int": 6471, "\u0120architecture": 6472, "bour": 6473, "riting": 6474, "\u0120territory": 6475, "such": 6476, "\u0120teen": 6477, "\u0120exists": 6478, "ione": 6479, "\u0120Bank": 6480, "BS": 6481, "\u0120Richard": 6482, "Figure": 6483, "\u0120housing": 6484, "\u0120whereas": 6485, "\u0120accident": 6486, "\u0120Carolina": 6487, "\u0120compounds": 6488, "teen": 6489, "\u0120roof": 6490, "\u0120Empire": 6491, "etime": 6492, "\u0120presentation": 6493, "\u0120reserv": 6494, "01": 6495, "\u0120server": 6496, "\u0120launch": 6497, "\u0120greenhouse": 6498, "\u0120guarant": 6499, "\u0120Revolution": 6500, "\u0120lies": 6501, "\u0120Royal": 6502, "\u0120Ocean": 6503, "\u0120habits": 6504, "\u0120smoking": 6505, "ictionary": 6506, "rovers": 6507, "\u0120inhib": 6508, "\u0120Board": 6509, "\u0120trained": 6510, "\u0120functional": 6511, "irds": 6512, "stract": 6513, "\u0120contamin": 6514, "\u0120noise": 6515, "\u0120instruments": 6516, "\u0120mice": 6517, "riers": 6518, "igned": 6519, "\u0120percentage": 6520, "\u0120End": 6521, "weight": 6522, "\u0120horiz": 6523, "iratory": 6524, "\u01201997": 6525, "net": 6526, "\u0120tea": 6527, "\u0120supposed": 6528, "\u0120explo": 6529, "\u0120demonstrated": 6530, "\u0120Penn": 6531, "\u0120pool": 6532, "\u0120crow": 6533, "yles": 6534, "\u0120\u00e2\u0122\u00a2": 6535, "\u0120kit": 6536, "\u0120reactions": 6537, "ested": 6538, "\u0120demonstrate": 6539, "\u0120Rob": 6540, "\u0120funds": 6541, "\u0120insurance": 6542, "onia": 6543, "\u0120connections": 6544, "\u00c3\u00b3": 6545, "earchers": 6546, "eless": 6547, "ella": 6548, "\u0120prove": 6549, "\u0120joined": 6550, "\u0120bot": 6551, "\u0120resulted": 6552, "\u0120taste": 6553, "\u0120distur": 6554, "\u0120improvement": 6555, "\u0120psychological": 6556, "\u0120capture": 6557, "roduction": 6558, "\u0120butter": 6559, "\u0120recognition": 6560, "while": 6561, "\u0120players": 6562, "\u0120ment": 6563, "struction": 6564, "66": 6565, "\u0120artificial": 6566, "ittle": 6567, "\u0120chick": 6568, "ups": 6569, "\u0120ru": 6570, "irt": 6571, "\u0120equivalent": 6572, "\u0120tall": 6573, "\u0120Mill": 6574, "itter": 6575, "\u0120chrom": 6576, "\u0120neur": 6577, "\u0120confidence": 6578, "\u0120shot": 6579, "\u0120employment": 6580, "42": 6581, "\u0120usage": 6582, "\u0120administr": 6583, "\u0120script": 6584, "\u0120observations": 6585, "\u0120astronom": 6586, "\u0120calories": 6587, "\u0120shut": 6588, "\u0120competition": 6589, "\u0120tissues": 6590, "\u0120stable": 6591, "\u0120surve": 6592, "\u0120blocks": 6593, "\u0120debt": 6594, "\u0120sections": 6595, "irus": 6596, "plant": 6597, "\u0120Fort": 6598, "\u0120partner": 6599, "hered": 6600, "\u0120ahead": 6601, "\u0120fu": 6602, "\u0120Wood": 6603, "\u0120rhy": 6604, "\u0120shop": 6605, "LA": 6606, "\u0120Times": 6607, "\u0120Pract": 6608, "\u0120issued": 6609, "\u0120generations": 6610, "\u0120cryst": 6611, "\u0120Agricult": 6612, "\u0120matters": 6613, "\u0120Michael": 6614, "ults": 6615, "\u0120beliefs": 6616, "\u0120prev": 6617, "\u0120defe": 6618, "\u0120hur": 6619, "een": 6620, "how": 6621, "xts": 6622, "\u0120Brazil": 6623, "\u0120mand": 6624, "\u0120voltage": 6625, "aine": 6626, "\u0120trials": 6627, "\u0120nearby": 6628, "\u0120enemy": 6629, "\u0120variable": 6630, "\u0120Gard": 6631, "\u0120examine": 6632, "pan": 6633, "abled": 6634, "\u0120smoke": 6635, "icious": 6636, "\u0120Form": 6637, "ediatric": 6638, "earing": 6639, "\u0120delivery": 6640, "\u0120customers": 6641, "\u00c2\u00b7": 6642, "hesis": 6643, "anches": 6644, "\u0120Pan": 6645, "ditional": 6646, "\u0120cards": 6647, "\u0120delay": 6648, "\u0120hypothes": 6649, "car": 6650, "\u0120cup": 6651, "79": 6652, "\u0120legs": 6653, "\u0120wasn": 6654, "\u0120manif": 6655, "\u0120arrange": 6656, "\u0120Oh": 6657, "ulty": 6658, "iah": 6659, "scale": 6660, "erior": 6661, "oding": 6662, "\u0120camera": 6663, "CD": 6664, "\u0120prompt": 6665, "Not": 6666, "\u0120Chicago": 6667, "\u0120conclusion": 6668, "\u0120entry": 6669, "osion": 6670, "\u0120spok": 6671, "\u0120flag": 6672, "\u0120diagnosed": 6673, "\u0120Scott": 6674, "\u0120county": 6675, "aked": 6676, "Lear": 6677, "\u0120define": 6678, "\u0120rank": 6679, "\u0120painting": 6680, "\u0120politics": 6681, "First": 6682, "aph": 6683, "\u0120programming": 6684, "\u0120participation": 6685, "\u0120boy": 6686, "\u0120recept": 6687, "\u0120gap": 6688, "\u0120estimates": 6689, "Rec": 6690, "pread": 6691, "\u0120objective": 6692, "cons": 6693, "uter": 6694, "\u0120PC": 6695, "\u0120centre": 6696, "\u0120maps": 6697, "ourage": 6698, "\u0120layers": 6699, "\u0120Free": 6700, "everal": 6701, "ih": 6702, "\u0120Native": 6703, "itivity": 6704, "\u0120everyday": 6705, "43": 6706, "\u0120Str": 6707, "\u0120insulin": 6708, "ugh": 6709, "\u0120Bab": 6710, "\u0120swim": 6711, "\u0120interactions": 6712, "\u0120zero": 6713, "peror": 6714, "\u0120relation": 6715, "\u0120holds": 6716, "\u0120explanation": 6717, "\u0120Cap": 6718, "\u0120crime": 6719, "\u0120string": 6720, "\u0120Scot": 6721, "itely": 6722, "iability": 6723, "\u0120covers": 6724, "\u0120Keep": 6725, "\u0120danger": 6726, "\u0120thy": 6727, "\u0120sheet": 6728, "\u0120frame": 6729, "oln": 6730, "\u0120Creat": 6731, "\u0120legislation": 6732, "Le": 6733, "idespread": 6734, "\u0120settings": 6735, "\u0120Wik": 6736, "\u0120lect": 6737, "IP": 6738, "\u00c3\u00b6": 6739, "ether": 6740, "\u0120forget": 6741, "\u0120manip": 6742, "\u0120pair": 6743, "\u0120Climate": 6744, "\u0120fold": 6745, "\u0120bridge": 6746, "\u0120drain": 6747, "\u0120Victor": 6748, "\u0120positions": 6749, "\u0120operate": 6750, "\u0120trip": 6751, "\u0120undert": 6752, "eenth": 6753, "\u0120scan": 6754, "asters": 6755, "ritis": 6756, "\u0120mode": 6757, "gov": 6758, "\u0120agreed": 6759, "\u0120meth": 6760, "88": 6761, "\u0120III": 6762, "\u0120flo": 6763, "\u0120substances": 6764, "\u0120Indians": 6765, "\u0120consumer": 6766, "\u0120sole": 6767, "\u0120accessible": 6768, "\u0120indicated": 6769, "\u0120papers": 6770, "\u0120Face": 6771, "\u012075": 6772, "\u0120involving": 6773, "\u0120PM": 6774, "\u0120independence": 6775, "%)": 6776, "\u0120coastal": 6777, "\u012036": 6778, "\u0120Irish": 6779, "\u0120match": 6780, "\u0120Diff": 6781, "\u0120department": 6782, "\u0120Guide": 6783, "\u0120Dig": 6784, "uh": 6785, "urrent": 6786, "\u0120physics": 6787, "usiness": 6788, "ishment": 6789, "etics": 6790, "IG": 6791, "\u0120spaces": 6792, "\u0120election": 6793, "\u0120award": 6794, "\u0120association": 6795, "\u0120launched": 6796, "\u0120burning": 6797, "icit": 6798, "idity": 6799, "\u0120nob": 6800, "\u0120categories": 6801, "aud": 6802, "\u0120committed": 6803, "\u0120islands": 6804, "\u0120reliable": 6805, "\u0120poison": 6806, "\u0120mos": 6807, "\u0120relief": 6808, "ighter": 6809, "ola": 6810, "\u0120row": 6811, "\u0120Ess": 6812, "\u0120brings": 6813, "\u0120route": 6814, "\u0120putting": 6815, "\u0120blow": 6816, "\u0120sacr": 6817, "\u0120electro": 6818, "\u01201995": 6819, "\u0120passage": 6820, "Med": 6821, "\u0120maintaining": 6822, "\u0120doi": 6823, "orph": 6824, "Qu": 6825, "\u0120forth": 6826, "\u0120organs": 6827, "\u0120controls": 6828, "\u0120none": 6829, "\u0120Sing": 6830, "\u0120banks": 6831, "\u0120destruction": 6832, "opes": 6833, "\u0120Holy": 6834, "\u0120fever": 6835, "\u0120fract": 6836, "\u0120Zeal": 6837, "\u0120integrated": 6838, "\u0120Big": 6839, "\u0120estimate": 6840, "\u0120spending": 6841, "\u0120employed": 6842, "Of": 6843, "\u0120repair": 6844, "\u0120Georg": 6845, "\u0120oblig": 6846, "IA": 6847, "\u0120tight": 6848, "\u0120reven": 6849, "\u0120minerals": 6850, "azine": 6851, "Your": 6852, "fit": 6853, "\u0120conven": 6854, "andon": 6855, "\u0120expansion": 6856, "\u0120boys": 6857, "IR": 6858, "\u0120smooth": 6859, "\u0120glucose": 6860, "\u0120industries": 6861, "\u0120runs": 6862, "occ": 6863, "\u0120meal": 6864, "utrition": 6865, "\u0120vs": 6866, "\u0120column": 6867, "\u0120tons": 6868, "\u0120ille": 6869, "\u0120constructed": 6870, "\u0120hun": 6871, "ployment": 6872, "\u0120ended": 6873, "\u0120Language": 6874, "\u0120holding": 6875, "\u0120adequate": 6876, "\u0120ongoing": 6877, "she": 6878, "dule": 6879, "\u0120circle": 6880, "\u0120crim": 6881, "\u0120Cre": 6882, "41": 6883, "ented": 6884, "\u0120kidney": 6885, "\u0120ske": 6886, "ocation": 6887, "\u0120meters": 6888, "\u0120husband": 6889, "\u0120ring": 6890, "\u0120Py": 6891, "\u0120earn": 6892, "\u0120150": 6893, "\u0120Have": 6894, "Once": 6895, "\u0120rivers": 6896, "\u0120biod": 6897, "\u0120earthqu": 6898, "\u0120gram": 6899, "\u0120neither": 6900, "ohyd": 6901, "cul": 6902, "\u0120approved": 6903, "\u0120cm": 6904, "\u0120mm": 6905, "arsh": 6906, "\u0120receiving": 6907, "\u0120damaged": 6908, "\u0120challenging": 6909, "\u0120depart": 6910, "\u0120fashion": 6911, "\u0120Early": 6912, "\u0120arrest": 6913, "\u0120molecular": 6914, "isdom": 6915, "inally": 6916, "\u0120realize": 6917, "\u0120nervous": 6918, "\u01201996": 6919, "oples": 6920, "\u0120negot": 6921, "\u0120moisture": 6922, "\u0120Services": 6923, "\u0120loved": 6924, "\u0120entered": 6925, "\u0120asking": 6926, "\u0120photo": 6927, "\u0120intellectual": 6928, "\u0120bond": 6929, "iox": 6930, "\u0120category": 6931, "\u0120Eastern": 6932, "umps": 6933, "\u0120soul": 6934, "\u0120legisl": 6935, "ML": 6936, "\u0120vac": 6937, "\u0120rocks": 6938, "\u0120distributed": 6939, "\u0120exercises": 6940, "\u0120division": 6941, "\u0120orient": 6942, "\u0120Italian": 6943, "\u0120\u00e2\u0128": 6944, "\u0120prohib": 6945, "\u0120markets": 6946, "\u0120street": 6947, "\u0120texts": 6948, "\u0120scene": 6949, "\u0120strongly": 6950, "\u0120drawn": 6951, "\u0120males": 6952, "incoln": 6953, "\u0120historic": 6954, "Over": 6955, "\u0120females": 6956, "\u0120domain": 6957, "\u0120trouble": 6958, "\u0120hole": 6959, "\u0120Zealand": 6960, "gers": 6961, "ading": 6962, "\u0120turning": 6963, "\u0120asthma": 6964, "\u0120wait": 6965, "\u0120measurements": 6966, "IM": 6967, "\u0120widespread": 6968, "\u0120Family": 6969, "ureau": 6970, "\u0120publication": 6971, "\u0120rely": 6972, "opic": 6973, "\u0120virtual": 6974, "\u0120honor": 6975, "\u0120missing": 6976, "\u0120Take": 6977, "ortion": 6978, "ibl": 6979, "\u0120evaluate": 6980, "\u012032": 6981, "\u0120beings": 6982, "liest": 6983, "making": 6984, "\u0120declared": 6985, "\u0120Party": 6986, "alm": 6987, "\u0120Atlantic": 6988, "\u0120installed": 6989, "\u0120withd": 6990, "\u0120preparation": 6991, "cyclop": 6992, "ett": 6993, "\u0120Where": 6994, "\u0120designs": 6995, "\u0120discrimination": 6996, "\u0120intense": 6997, "OL": 6998, "\u0120holid": 6999, "\u0120viruses": 7000, "\u0120Jac": 7001, "Even": 7002, "\u0120kne": 7003, "VID": 7004, "\u0120worry": 7005, "\u0120shif": 7006, "\u0120merely": 7007, "\u0120recommendations": 7008, "\u0120somewhat": 7009, "\u0120breath": 7010, "\u0120mood": 7011, "rey": 7012, "\u0120dollars": 7013, "\u0120reduces": 7014, "\u0120Access": 7015, "\u0120Mer": 7016, "\u0120Kingdom": 7017, "\u0120stimul": 7018, "\u0120nest": 7019, "\u0120parallel": 7020, "abulary": 7021, "\u0120Cop": 7022, "\u0120composed": 7023, "herent": 7024, "\u0120controvers": 7025, "\u0120Sup": 7026, "\u0120outbre": 7027, "gical": 7028, "\u0120transp": 7029, "\u0120furn": 7030, "\u0120strict": 7031, "\u0120ped": 7032, "\u0120rig": 7033, "\u0120tract": 7034, "\u0120constantly": 7035, "arn": 7036, "iral": 7037, "\u0120Year": 7038, "pes": 7039, "\u0120significance": 7040, "\u0120renewable": 7041, "mes": 7042, "rial": 7043, "\u0120victims": 7044, "CA": 7045, "\u0120seeking": 7046, "\u0120Forest": 7047, "\u0120thanks": 7048, "\u0120Martin": 7049, "\u0120Acc": 7050, "\u0120rice": 7051, "\u0120proportion": 7052, "\u0120pregnant": 7053, "gs": 7054, "\u0120stre": 7055, "rary": 7056, "\u0120babies": 7057, "health": 7058, "\u0120mechanical": 7059, "\u0120escape": 7060, "igan": 7061, "\u0120seemed": 7062, "\u0120guidance": 7063, "sis": 7064, "alls": 7065, "\u0120tel": 7066, "\u0120Effect": 7067, "idential": 7068, "airy": 7069, "\u0120Prop": 7070, "operation": 7071, "\u0120examination": 7072, "\u0120rid": 7073, "'m": 7074, "ala": 7075, "\u0120Equ": 7076, "\u0120conversation": 7077, "\u0120mathematics": 7078, "Don": 7079, "\u0120phenomenon": 7080, "85": 7081, "bra": 7082, "\u0120plus": 7083, "\u0120facing": 7084, "\u0120agents": 7085, "\u0120fulf": 7086, "\u0120TV": 7087, "\u0120offering": 7088, "\u0120Age": 7089, "\u0120Security": 7090, "\u0120facility": 7091, "va": 7092, "rite": 7093, "\u0120fro": 7094, "\u0120centers": 7095, "\u0120engaged": 7096, "\u0120moves": 7097, "reek": 7098, "\u0120chest": 7099, "\u0120Sat": 7100, "CE": 7101, "rowing": 7102, "\u0120Windows": 7103, "\u0120archae": 7104, "\u0120advert": 7105, "\u0120Teac": 7106, "\u0120Cy": 7107, "\u0120dependent": 7108, "\u0120Dar": 7109, "\u0120roles": 7110, "\u0120bringing": 7111, "\u0120Rom": 7112, "\u0120compare": 7113, "asty": 7114, "\u0120pharm": 7115, "\u0120Coast": 7116, "forcement": 7117, "ivered": 7118, "olesc": 7119, "\u0120heating": 7120, "ady": 7121, "onomy": 7122, "\u0120score": 7123, "\u0120outcome": 7124, "\u0120biology": 7125, "inson": 7126, "hent": 7127, "\u0120Iss": 7128, "\u0120announced": 7129, "rane": 7130, "\u0120Please": 7131, "Because": 7132, "oven": 7133, "heimer": 7134, "CH": 7135, "osh": 7136, "\u0120confirmed": 7137, "\u0120volcan": 7138, "aded": 7139, "\u0120contemporary": 7140, "\u0120theories": 7141, "\u0120messages": 7142, "\u0120Hill": 7143, "\u0120respectively": 7144, "\u0120Agency": 7145, "\u0120incred": 7146, "\u0120measurement": 7147, "amins": 7148, "\u0120criminal": 7149, "\u0120satellite": 7150, "\u0120horses": 7151, "\u0120accuracy": 7152, "\u0120pounds": 7153, "\u0120Lib": 7154, "\u0120officers": 7155, "Every": 7156, "\u0120sought": 7157, "\u0120dischar": 7158, "\u0120theme": 7159, "SS": 7160, "\u0120blind": 7161, "\u0120Sometimes": 7162, "\u0120Viet": 7163, "\u0120mining": 7164, "\u0120favorite": 7165, "yal": 7166, "\u0120complicated": 7167, "\u0120passing": 7168, "htt": 7169, "\u0120beauty": 7170, "rooms": 7171, "\u0120artists": 7172, "esides": 7173, "\u0120Before": 7174, "\u0120defense": 7175, "\u0120plenty": 7176, "\u0120Resources": 7177, "\u0120farming": 7178, "\u0120dose": 7179, "itamin": 7180, "\u0120serving": 7181, "\u0120fourth": 7182, "\u0120carrying": 7183, "06": 7184, "orders": 7185, "71": 7186, "\u0120maintained": 7187, "\u0120Naz": 7188, "\u0120considering": 7189, "\u0120Cast": 7190, "hyd": 7191, "\u0120racial": 7192, "\u0120criteria": 7193, "iological": 7194, "\u0120Pop": 7195, "\u0120bees": 7196, "\u0120metabol": 7197, "medi": 7198, "\u0120Ep": 7199, "\u0120Change": 7200, "aired": 7201, "\u0120cav": 7202, "\u0120surfaces": 7203, "IDS": 7204, "\u0120List": 7205, "UT": 7206, "\u0120ingredients": 7207, "\u0120clothing": 7208, "quit": 7209, "\u0120implications": 7210, "\u0120dys": 7211, "\u0120rarely": 7212, "\u0120abandon": 7213, "\u0120Angel": 7214, "heric": 7215, "\u0120fairly": 7216, "\u0120bath": 7217, "\u0120screening": 7218, "\u0120statistics": 7219, "\u0120Lar": 7220, "\u0120collaboration": 7221, "\u0120honey": 7222, "Me": 7223, "\u0120combat": 7224, "including": 7225, "\u0120television": 7226, "%.": 7227, "estion": 7228, "\u0120Though": 7229, "example": 7230, "\u0120preventing": 7231, "acco": 7232, "\u0120visitors": 7233, "\u0120Moreover": 7234, "\u0120session": 7235, "\u0120proof": 7236, "\u0120Mel": 7237, "vard": 7238, "\u0120jump": 7239, "\u0120seconds": 7240, "\u0120implemented": 7241, "\u0120Asian": 7242, "\u0120Secret": 7243, "\u0120weapons": 7244, "\u0120intest": 7245, "Am": 7246, "\u0120claimed": 7247, "\u0120experimental": 7248, "\u0120theore": 7249, "\u0120angle": 7250, "\u0120id": 7251, "\u0120wound": 7252, "\u0120shock": 7253, "agram": 7254, "\u0120interpretation": 7255, "\u0120infect": 7256, "\u0120Special": 7257, "\u0120forg": 7258, "\u0120defend": 7259, "\u0120opposed": 7260, "\u012065": 7261, "\u0120microb": 7262, "\u0120photos": 7263, "\u0120tub": 7264, "\u0120insert": 7265, "\u0120Polic": 7266, "\u0120abnormal": 7267, "\u0120essentially": 7268, "\u0120Check": 7269, "trans": 7270, "ollowing": 7271, "thritis": 7272, "ventions": 7273, "\u0120temple": 7274, "\u0120variables": 7275, "\u0120Heb": 7276, "\u0120arts": 7277, "\u0120shapes": 7278, "\u0120attempts": 7279, "\u0120Men": 7280, "\u0120towns": 7281, "\u0120coc": 7282, "\u0120Hy": 7283, "\u01201950": 7284, "\u0120minute": 7285, "\u0120influenced": 7286, "fl": 7287, "\u0120considerable": 7288, "\u0120Iran": 7289, "eren": 7290, "inder": 7291, "ommod": 7292, "\u0120lake": 7293, "\u0120Oxford": 7294, "\u0120inher": 7295, "\u0120proven": 7296, "\u0120owner": 7297, "\u0120interpre": 7298, "ixture": 7299, "\u0120Po": 7300, "\u0120nitrogen": 7301, "itual": 7302, "\u0120advantages": 7303, "\u0120breeding": 7304, "\u0120Den": 7305, "\u0120paras": 7306, "sm": 7307, "\u0120empt": 7308, "\u0120panel": 7309, "\u0120sail": 7310, "\u0120desired": 7311, "\u0120imagine": 7312, "raining": 7313, "\u0120Sil": 7314, "\u0120careful": 7315, "\u0120evil": 7316, "\u0120knowing": 7317, "\u0120branches": 7318, "\u0120elected": 7319, "\u0120nose": 7320, "Su": 7321, "\u0120tube": 7322, "\u0120irrit": 7323, "ipedia": 7324, "\u0120cosm": 7325, "\u0120push": 7326, "outs": 7327, "\u0120microsc": 7328, "\u0120Christmas": 7329, "\u0120signed": 7330, "72": 7331, "raq": 7332, "\u0120phosph": 7333, "\u0120overw": 7334, "oom": 7335, "adder": 7336, "\u0120presents": 7337, "\u0120targets": 7338, "\u0120subsequent": 7339, "\u0120Word": 7340, "\u0120inn": 7341, "\u0120delivered": 7342, "reated": 7343, "ani": 7344, "\u0120clar": 7345, "\u0120finished": 7346, "\u0120uncertain": 7347, "\u0120effectiveness": 7348, "\u0120orbit": 7349, "ogether": 7350, "\u0120aims": 7351, "\u0120Grand": 7352, "\u0120captured": 7353, "\u0120Columbia": 7354, "\u0120analys": 7355, "greg": 7356, "\u0120assume": 7357, "\u0120peak": 7358, "\u0120encouraged": 7359, "\u0120District": 7360, "\u0120surprising": 7361, "\u0120item": 7362, "\u0120stronger": 7363, "\u0120crew": 7364, "ooking": 7365, "\u0120principal": 7366, "\u0120dealing": 7367, "\u0120exclus": 7368, "\u0120acute": 7369, "\u0120disaster": 7370, "\u0120informed": 7371, "Today": 7372, "\u0120compound": 7373, "\u0120Lincoln": 7374, "\u0120artist": 7375, "\u0120roughly": 7376, "\u0120planned": 7377, "\u0120Plant": 7378, "\u0120Director": 7379, "OC": 7380, "\u0120fer": 7381, "\u0120absence": 7382, "essions": 7383, "\u0120gradually": 7384, "\u0120cooking": 7385, "\u0120judge": 7386, "\u0120Furthermore": 7387, "\u0120Who": 7388, "\u0120proceed": 7389, "\u0120commission": 7390, "\u0120Open": 7391, "\u0120equally": 7392, "theless": 7393, "\u0120plane": 7394, "\u0120excessive": 7395, "oids": 7396, "atial": 7397, "\u0120writers": 7398, "\u0120branch": 7399, "\u0120gro": 7400, "apse": 7401, "\u0120respiratory": 7402, "\u0120radical": 7403, "\u0120universal": 7404, "\u0120defect": 7405, "amine": 7406, "\u0120Korea": 7407, "illa": 7408, "riz": 7409, "\u0120terror": 7410, "\u0120Sym": 7411, "\u0120modified": 7412, "\u0120proved": 7413, "oured": 7414, "\u0120Pet": 7415, "\u0120Among": 7416, "73": 7417, "\u0120dates": 7418, "itarian": 7419, "\u0120Wall": 7420, "\u0120Non": 7421, "tles": 7422, "\u0120Adv": 7423, "aska": 7424, "ovascular": 7425, "riend": 7426, "\u0120teams": 7427, "aning": 7428, "ioxid": 7429, "\u0120tut": 7430, "\u0120roads": 7431, "\u0120MD": 7432, "\u0120structural": 7433, "\u0120laid": 7434, "\u0120removal": 7435, "produ": 7436, "\u0120mineral": 7437, "amination": 7438, "\u0120infant": 7439, "\u0120cleaning": 7440, "\u0120Bill": 7441, "eness": 7442, "\u0120reward": 7443, "\u0120EU": 7444, "\u0120comfortable": 7445, "\u0120Method": 7446, "\u0120regulation": 7447, "\u0120assigned": 7448, "uality": 7449, "\u0120deeper": 7450, "\u0120detection": 7451, "rous": 7452, "\u0120unusual": 7453, "\u0120ordered": 7454, "\u0120flour": 7455, "\u0120bigger": 7456, "\u0120Low": 7457, "\u0120maybe": 7458, "74": 7459, "\u0120Young": 7460, "\u0120mortality": 7461, "\u0120Community": 7462, "\u0120eliminate": 7463, "\u0120400": 7464, "\u0120Network": 7465, "\u01201994": 7466, "\u0120warning": 7467, "\u0120flower": 7468, "\u0120focuses": 7469, "icted": 7470, "\u0120Article": 7471, "\u0120Administration": 7472, "ishop": 7473, "\u0120Swed": 7474, "otype": 7475, "\u0120usual": 7476, "\u0120Fund": 7477, "\u0120examined": 7478, "\u0120difficulties": 7479, "rene": 7480, "oric": 7481, "\u0120Centre": 7482, "\u0120Does": 7483, "\u0120serves": 7484, "\u0120Sar": 7485, "\u0120lie": 7486, "emia": 7487, "68": 7488, "\u0120cash": 7489, "\u0120Resp": 7490, "mers": 7491, "\u0120translation": 7492, "\u0120compens": 7493, "\u0120decor": 7494, "olving": 7495, "\u0120stead": 7496, "\u0120errors": 7497, "\u0120falls": 7498, "Or": 7499, "\u0120Rock": 7500, "\u0120sla": 7501, "\u0120Ven": 7502, "\u0120traditions": 7503, "\u0120fed": 7504, "eut": 7505, "\u0120hormone": 7506, "\u0120fishing": 7507, "\u0120neighborhood": 7508, "\u0120newly": 7509, "ruption": 7510, "\u012038": 7511, "\u0120biom": 7512, "onym": 7513, "\u0120player": 7514, "Note": 7515, "ude": 7516, "\u0120embry": 7517, "PR": 7518, "roat": 7519, "\u0120observe": 7520, "\u0120kilomet": 7521, "rox": 7522, "\u0120sport": 7523, "\u0120concerning": 7524, "agraph": 7525, "oir": 7526, "\u0120varieties": 7527, "\u0120outer": 7528, "rance": 7529, "omer": 7530, "iana": 7531, "\u0120guard": 7532, "\u0120suffered": 7533, "ersonal": 7534, "\u0120edition": 7535, "\u0120investigation": 7536, "\u0120MS": 7537, "\u0120physician": 7538, "ilation": 7539, "action": 7540, "\u0120Four": 7541, "\u0120\u00d0": 7542, "\u0120stuff": 7543, "\u0120gained": 7544, "\u0120AND": 7545, "\u0120amazing": 7546, "Comm": 7547, "vin": 7548, "bar": 7549, "unicip": 7550, "\u0120identification": 7551, "\u0120Despite": 7552, "98": 7553, "\u0120imaging": 7554, "\u0120fung": 7555, "\u0120spectrum": 7556, "\u0120encoun": 7557, "\u0120flows": 7558, "\u0120cab": 7559, "eli": 7560, "\u0120initially": 7561, "\u0120config": 7562, "ucky": 7563, "\u0120Gr": 7564, "class": 7565, "oston": 7566, "\u0120corner": 7567, "\u0120Sund": 7568, "\u0120breed": 7569, "\u0120scientist": 7570, "\u0120characterized": 7571, "zheimer": 7572, "\u0120Indust": 7573, "arents": 7574, "\u0120fest": 7575, "\u0120slavery": 7576, "\u0120galax": 7577, "ounce": 7578, "\u0120sitting": 7579, "\u0120ceremon": 7580, "\u0120drought": 7581, "\u0120treating": 7582, "\u0120consume": 7583, "\u0120windows": 7584, "soft": 7585, "itals": 7586, "ograp": 7587, "\u0120Additionally": 7588, "\u0120accompan": 7589, "ruit": 7590, "\u0120rose": 7591, "\u0120Christians": 7592, "iat": 7593, "\u0120ye": 7594, "\u0120chlor": 7595, "lvan": 7596, "\u0120tropical": 7597, "elfare": 7598, "\u0120Super": 7599, "istical": 7600, "\u0120exceed": 7601, "\u0120exception": 7602, "\u0120Finally": 7603, "\u0120athlet": 7604, "\u0120spin": 7605, "\u0120Facebook": 7606, "\u0120formula": 7607, "\u0120correl": 7608, "\u0120satisf": 7609, "OM": 7610, "\u0120threats": 7611, "\u0120printed": 7612, "\u0120Jeff": 7613, "\u0120Organization": 7614, "\u0120alter": 7615, "\u0120Kar": 7616, "\u0120happening": 7617, "\u0120isolated": 7618, "aming": 7619, "\u0120caught": 7620, "\u0120Tim": 7621, "print": 7622, "\u0120copper": 7623, "\u0120Pen": 7624, "\u0120innovation": 7625, "ptions": 7626, "\u0120Star": 7627, "oga": 7628, "\u0120pestic": 7629, "\u0120statements": 7630, "\u0120marks": 7631, "\u0120turb": 7632, "\u0120wine": 7633, "\u0120Ver": 7634, "\u0120Princ": 7635, "\u0120rect": 7636, "\u0120stores": 7637, "fts": 7638, "\u0120substantial": 7639, "otton": 7640, "ano": 7641, "\u0120earliest": 7642, "\u0120demands": 7643, "ogs": 7644, "\u0120learners": 7645, "\u0120trends": 7646, "\u0120)": 7647, "\u0120videos": 7648, "\u0120senior": 7649, "\u0120rab": 7650, "\u0120diameter": 7651, "\u0120complications": 7652, "\u0120conj": 7653, "\u0120conference": 7654, "\u0120trigger": 7655, "rency": 7656, "\u0120perception": 7657, "\u0120holes": 7658, "\u0120healing": 7659, "\u0120gut": 7660, "ricts": 7661, "\u0120worship": 7662, "\u0120anywhere": 7663, "\u0120pit": 7664, "\u0120unw": 7665, "\u0120sharp": 7666, "ocial": 7667, "ogenic": 7668, "lishing": 7669, "\u0120epis": 7670, "\u0120Liter": 7671, "\u0120decreased": 7672, "html": 7673, "\u0120intent": 7674, "\u0120faced": 7675, "\u0120Supreme": 7676, "\u0120filter": 7677, "\u0120variation": 7678, "\u0120detected": 7679, "\u0120prominent": 7680, "\u0120consideration": 7681, "\u0120representation": 7682, "bles": 7683, "\u0120driven": 7684, "\u0120Moon": 7685, "\u0120hazard": 7686, "\u0120granted": 7687, "rays": 7688, "\u0120inspired": 7689, "\u0120Three": 7690, "Comp": 7691, "effect": 7692, "\u0120measuring": 7693, "\u0120settlement": 7694, "\u0120Ur": 7695, "coming": 7696, "\u0120cham": 7697, "\u0120Works": 7698, "\u0120enorm": 7699, "\u0120processed": 7700, "isco": 7701, "igue": 7702, "App": 7703, "\u0120Er": 7704, "\u0120AM": 7705, "\u0120mountains": 7706, "sylvan": 7707, "\u0120reveal": 7708, "\u0120desert": 7709, "\u0120ampl": 7710, "enger": 7711, "\u0120cort": 7712, "\u0120union": 7713, "\u0120sup": 7714, "\u0120concluded": 7715, "People": 7716, "iary": 7717, "\u0120Est": 7718, "icate": 7719, "abeth": 7720, "\u0120Dev": 7721, "\u0120literacy": 7722, "orted": 7723, "\u0120Iraq": 7724, "64": 7725, "\u0120Type": 7726, "ieval": 7727, "\u0120remed": 7728, "\u0120disabilities": 7729, "\u00c3\u00a2": 7730, "03": 7731, "\u0120ov": 7732, "sell": 7733, "\u0120client": 7734, "ima": 7735, "\u0120wheel": 7736, "\u0120indigenous": 7737, "\u0120listening": 7738, "thm": 7739, "onal": 7740, "She": 7741, "\u0120Conservation": 7742, "ustain": 7743, "Per": 7744, "night": 7745, "\u0120accommod": 7746, "\u0120AP": 7747, "\u0120subt": 7748, "\u0120Cell": 7749, "\u0120Lo": 7750, "otherapy": 7751, "Ed": 7752, "\u0120Sign": 7753, "\u0120directed": 7754, "requ": 7755, "\u0120acres": 7756, "\u0120adds": 7757, "\u0120giant": 7758, "\u0120asc": 7759, "allow": 7760, "atively": 7761, "\u0120ritual": 7762, "\u0120Never": 7763, "\u0120democracy": 7764, "chen": 7765, "\u0120musical": 7766, "04": 7767, "akistan": 7768, "\u0120poem": 7769, "\u0120mic": 7770, "\u0120automatically": 7771, "AA": 7772, "\u0120occurring": 7773, "\u0120array": 7774, "lete": 7775, "pd": 7776, "08": 7777, "\u0120lymph": 7778, "\u0120schedule": 7779, "erman": 7780, "\u0120correctly": 7781, "rot": 7782, "uits": 7783, "\u0120sales": 7784, "\u0120editor": 7785, "\u0120Cross": 7786, "\u0120bag": 7787, "\u0120van": 7788, "\u0120abilities": 7789, "\u0120Amaz": 7790, "\u0120girl": 7791, "\u0120adm": 7792, "\u0120channel": 7793, "\u0120overcome": 7794, "\u0120identifying": 7795, "\u0120strengthen": 7796, "quir": 7797, "\u0120grain": 7798, "ostic": 7799, "aneously": 7800, "\u0120sunlight": 7801, "\u0120Learn": 7802, "\u0120peoples": 7803, "urolog": 7804, "\u0120experiencing": 7805, "\u0120intensity": 7806, "\u0120evolved": 7807, "\u0120alph": 7808, "\u0120Ins": 7809, "\u0120counsel": 7810, "real": 7811, "Col": 7812, "\u0120bomb": 7813, "\u0120stations": 7814, "\u0120carbohyd": 7815, "\u0120recover": 7816, "\u0120Sir": 7817, "aws": 7818, "\u0120lights": 7819, "\u0120grid": 7820, "\u0120oldest": 7821, "\u0120split": 7822, "\u0120Tre": 7823, "rav": 7824, "\u0120aged": 7825, "ansas": 7826, "\u0120heads": 7827, "\u0120observation": 7828, "\u01201992": 7829, "haust": 7830, "igate": 7831, "\u0120Hebrew": 7832, "\u0120provider": 7833, "Ear": 7834, "\u0120Protection": 7835, "just": 7836, "\u0120bless": 7837, "\u0120objectives": 7838, "\u0120viewed": 7839, "iture": 7840, "\u0120visited": 7841, "\u0120superior": 7842, "\u0120Lead": 7843, "RA": 7844, "pling": 7845, "\u0120fatty": 7846, "icing": 7847, "\u0120Alzheimer": 7848, "\u0120nice": 7849, "def": 7850, "esh": 7851, "\u0120heavily": 7852, "\u012048": 7853, "\u0120silver": 7854, "mod": 7855, "\u0120IV": 7856, "\u0120relie": 7857, "acent": 7858, "\u0120vocabulary": 7859, "\u0120grows": 7860, "69": 7861, "\u0120Jo": 7862, "\u0120printing": 7863, "\u0120assets": 7864, "irms": 7865, "?\"": 7866, "isted": 7867, "\u0120finds": 7868, "\u0120laser": 7869, "Car": 7870, "\u0120Safety": 7871, "\u0120scar": 7872, "\u0120Mult": 7873, "\u0120contribution": 7874, "\u0120regardless": 7875, "\u0120mathematical": 7876, "\u0120dietary": 7877, "\u0120weakness": 7878, "\u0120reaching": 7879, "\u0120hence": 7880, "\u0120bacterial": 7881, "\u0120Father": 7882, "century": 7883, "\u0120suscept": 7884, "\u0120disrupt": 7885, "\u0120extend": 7886, "\u0120conqu": 7887, "otal": 7888, "\u0120inhabit": 7889, "plete": 7890, "\u0120slaves": 7891, "May": 7892, "ura": 7893, "\u0120Dou": 7894, "\u0120Force": 7895, "ercury": 7896, "\u0120stability": 7897, "athered": 7898, "\u0120perm": 7899, "\u0120dynamic": 7900, "iop": 7901, "\u0120Sand": 7902, "\u0120agent": 7903, "asts": 7904, "\u0120plot": 7905, "HD": 7906, "\u0120Similar": 7907, "\u0120driver": 7908, "\u0120planets": 7909, "\u0120quarter": 7910, "\u0120Pot": 7911, "',": 7912, "\u0120argue": 7913, "\u0120mir": 7914, "AB": 7915, "\u0120myst": 7916, "etary": 7917, "\u0120pin": 7918, "09": 7919, "sylvania": 7920, "ENT": 7921, "door": 7922, "anger": 7923, "\u0120permission": 7924, "\u0120Current": 7925, "itory": 7926, "\u0120calling": 7927, "\u0120Road": 7928, "\u0120hidden": 7929, "erty": 7930, "ontal": 7931, "\u0120Dutch": 7932, "\u0120meals": 7933, "\u012033": 7934, "aneous": 7935, "\u0120les": 7936, "ema": 7937, "\u0120addressed": 7938, "ildren": 7939, "\u0120worst": 7940, "angered": 7941, "\u0120opposition": 7942, "\u0120functioning": 7943, "\u0120panels": 7944, "una": 7945, "\u0120Hor": 7946, "ega": 7947, "\u0120emphasis": 7948, "\u0120covering": 7949, "\u0120writes": 7950, "\u0120strain": 7951, "\u0120Chapter": 7952, "\u0120forming": 7953, "Get": 7954, "\u0120cattle": 7955, "gence": 7956, "\u0120Jul": 7957, "eping": 7958, "forest": 7959, "\u0120rational": 7960, "\u0120regarded": 7961, "About": 7962, "\u0120wisdom": 7963, "\u0120adolesc": 7964, "urches": 7965, "holders": 7966, "\u0120py": 7967, "\u0120manufacturers": 7968, "\u0120commitment": 7969, "icy": 7970, "\u0120Set": 7971, "ailable": 7972, "\u0120educators": 7973, "\u0120Minister": 7974, "\u0120moderate": 7975, "\u0120Engineering": 7976, "\u0120alive": 7977, "\u01201993": 7978, "brid": 7979, "\u0120engineers": 7980, "\u0120Mah": 7981, "\u0120advent": 7982, "\u0120antioxid": 7983, "ba": 7984, "\u0120separated": 7985, "dr": 7986, "02": 7987, "eor": 7988, "\u0120Light": 7989, "cyclopedia": 7990, "Pre": 7991, "asant": 7992, "apor": 7993, "ette": 7994, "\u0120decay": 7995, "\u0120flying": 7996, "\u0120consciousness": 7997, "\u0120gases": 7998, "\u0120Prevention": 7999, "\u0120Author": 8000, "\u0120purs": 8001, "\u0120jur": 8002, "\u0120preced": 8003, "\u0120Queen": 8004, "\u0120conserv": 8005, "endment": 8006, "\u0120Start": 8007, "\u0120innovative": 8008, "\u0120interface": 8009, "\u0120vitamins": 8010, "\u0120phrase": 8011, "\u0120profit": 8012, "\u0120insight": 8013, "\u0120mg": 8014, "\u0120autism": 8015, "\u0120COVID": 8016, "\u0120contributed": 8017, "izabeth": 8018, "\u0120thereby": 8019, "\u0120mouse": 8020, "\u0120Figure": 8021, "icular": 8022, "\u0120providers": 8023, "\u0120tribes": 8024, "sen": 8025, "angle": 8026, "neys": 8027, "\u0120Online": 8028, "\u0120interactive": 8029, "Part": 8030, "\u0120mothers": 8031, "usalem": 8032, "\u0120brows": 8033, "ulpt": 8034, "\u0120Nov": 8035, "\u0120coverage": 8036, "\u0120DC": 8037, "\u0120Heart": 8038, "\u012055": 8039, "\u0120charged": 8040, "\u0120Boston": 8041, "\u0120Palest": 8042, "\u0120overwhel": 8043, "\u0120stake": 8044, "\u0120versions": 8045, "oli": 8046, "\u0120concentrations": 8047, "hea": 8048, "\u0120Ut": 8049, "\u0120plain": 8050, "\u0120arguments": 8051, "\u0120antibiotics": 8052, "mm": 8053, "\u0120protecting": 8054, "eries": 8055, "\u0120mixture": 8056, "\u0120ven": 8057, "\u0120illegal": 8058, "\u0120uniform": 8059, "\u0120Michigan": 8060, "rection": 8061, "\u0120fats": 8062, "\u0120Note": 8063, "uten": 8064, "\u0120copyright": 8065, "\u0120Oper": 8066, "\u0120Reading": 8067, "rat": 8068, "iments": 8069, "iva": 8070, "\u0120chemistry": 8071, "amples": 8072, "\u0120polar": 8073, "\u0120Battle": 8074, "rolled": 8075, "\u0120cooling": 8076, "\u0120Fire": 8077, "\u0120Johnson": 8078, "\u0120vaccines": 8079, "Also": 8080, "ographical": 8081, "\u0120Top": 8082, "\u0120orb": 8083, "\u0120seat": 8084, "\u0120Georgia": 8085, "\u0120AL": 8086, "har": 8087, "\u0120chap": 8088, "\u0120pla": 8089, "\u0120rac": 8090, "asma": 8091, "\u0120buried": 8092, "\u0120acquired": 8093, "\u0120Table": 8094, "\u0120Policy": 8095, "yer": 8096, "\u0120elder": 8097, "\u0120resid": 8098, "\u0120Play": 8099, "\u0120AT": 8100, "adel": 8101, "\u0120adverse": 8102, "zym": 8103, "\u0120ran": 8104, "\u0120slave": 8105, "\u0120stopped": 8106, "],": 8107, "\u0120appointed": 8108, "lines": 8109, "Last": 8110, "\u0120Hospital": 8111, "\u0120Tom": 8112, "58": 8113, "\u0120wheat": 8114, "\u0120attach": 8115, "ptic": 8116, "archy": 8117, "\u0120authent": 8118, "\u0120taxes": 8119, "\u0120updated": 8120, "aren": 8121, "\u0120robot": 8122, "\u0120Polit": 8123, "\u0120pointed": 8124, "\u0120beat": 8125, "\u0120cancers": 8126, "\u0120sched": 8127, "uset": 8128, "\u0120vel": 8129, "Com": 8130, "\u0120hosp": 8131, "\u0120affecting": 8132, "\u0120smell": 8133, "hus": 8134, "atal": 8135, "berry": 8136, "\u0120preserve": 8137, "\u0120Assess": 8138, "\u0120scores": 8139, "\u0120behavioral": 8140, "Pr": 8141, "quar": 8142, "Step": 8143, "\u0120hardware": 8144, "\u0120Ohio": 8145, "\u0120tong": 8146, "\u0120faces": 8147, "\u0120Hand": 8148, "\u0120parameters": 8149, ")|": 8150, ".).": 8151, "\u0120tables": 8152, "\u0120tumor": 8153, "\u0120sizes": 8154, "ipher": 8155, "\u0120improvements": 8156, "\u0120Unfortunately": 8157, "\u0120quiet": 8158, "\u0120lists": 8159, "\u0120exped": 8160, "\u0120protective": 8161, "ocolate": 8162, "\u0120households": 8163, "\u0120container": 8164, "ila": 8165, "\u0120researcher": 8166, "\u0120drag": 8167, "\u0120Edward": 8168, "\u0120duty": 8169, "ourse": 8170, "\u00d9\u0126": 8171, "\u0120committee": 8172, "\u0120orders": 8173, "\u0120Pakistan": 8174, "\u0120programme": 8175, "\u0120farms": 8176, "\u0120spray": 8177, "\u0120ordinary": 8178, "\u0120trauma": 8179, "\u01201930": 8180, "\u0120flash": 8181, "\u0120sensitivity": 8182, "\u0120Without": 8183, "BT": 8184, "\u0120reporting": 8185, "\u0120narrative": 8186, "EF": 8187, "\u0120surge": 8188, "\u0120supplements": 8189, "\u0120Islamic": 8190, ".'": 8191, "\u0120spr": 8192, "\u0120neutral": 8193, "\u0120comprom": 8194, "\u0120ton": 8195, "\u0120descript": 8196, "\u0120harder": 8197, "achuset": 8198, "\u0120degrad": 8199, "\u0120introduce": 8200, "\u0120Colorado": 8201, "achusetts": 8202, "\u0120;": 8203, "\u0120membrane": 8204, "raham": 8205, "\u0120initiative": 8206, "\u0120migration": 8207, "\u0120enables": 8208, "\u0120killing": 8209, "\u0120interior": 8210, "Art": 8211, "\u0120Less": 8212, "\u0120fuels": 8213, "\u0120characteristic": 8214, "through": 8215, "\u0120Scotland": 8216, "opher": 8217, "\u0120dramatic": 8218, "iti": 8219, "\u0120inequ": 8220, "irth": 8221, "\u0120fra": 8222, "eting": 8223, "uting": 8224, "\u0120humanity": 8225, "\u0120lens": 8226, "adow": 8227, "\u0120Math": 8228, "\u0120Arctic": 8229, "\u0120Jerusalem": 8230, "\u0120Christianity": 8231, "\u0120Cho": 8232, "\u0120believes": 8233, "\u0120wonderful": 8234, "\u0120aimed": 8235, "\u0120owned": 8236, "\u0120spoken": 8237, "\u0120Gulf": 8238, "\u0120ethical": 8239, "\u0120interventions": 8240, "\u0120parad": 8241, "Hist": 8242, "bec": 8243, "\u0120grounds": 8244, "\u0120availability": 8245, "kind": 8246, "\u0120Head": 8247, "\u0120dance": 8248, "\u0120elsewhere": 8249, "\u0120falling": 8250, "\u0120losses": 8251, "\u0120nutrient": 8252, "\u0120expanded": 8253, "ugg": 8254, "\u0120om": 8255, "\u0120tor": 8256, "\u0120communications": 8257, "\u0120fur": 8258, "\u0120Ol": 8259, "\u0120incident": 8260, "\u0120royal": 8261, "\u0120waiting": 8262, "ricted": 8263, "\u0120Pennsylvania": 8264, "\u0120logic": 8265, "\u0120\u00c2\u00a3": 8266, "ecess": 8267, "\u0120paragraph": 8268, "\u0120emerging": 8269, "\u0120Cambridge": 8270, "urning": 8271, "\u0120creatures": 8272, "\u0120argued": 8273, "IF": 8274, "imm": 8275, "ami": 8276, "idal": 8277, "bean": 8278, "\u0120boundaries": 8279, "\u0120Pur": 8280, "\u0120cord": 8281, "asm": 8282, "\u0120Find": 8283, "\u0120genome": 8284, "\u0120consumed": 8285, "Where": 8286, "ao": 8287, "\u0120technological": 8288, "\u0120Imp": 8289, "EG": 8290, "rical": 8291, "\u0120evening": 8292, "\u0120audio": 8293, "\u0120expectations": 8294, "\u0120Division": 8295, "56": 8296, "zyme": 8297, "\u0120physically": 8298, "\u0120equality": 8299, "disc": 8300, "\u0120simult": 8301, "\u0120pursu": 8302, "\u0120deficiency": 8303, "\u0120exhibit": 8304, "ali": 8305, "\u0120courts": 8306, "\u0120exciting": 8307, "John": 8308, "gener": 8309, "\u0120thermal": 8310, "\u0120directions": 8311, "\u00c3\u00a4": 8312, "rize": 8313, "\u0120sensors": 8314, "mann": 8315, "\u0120Try": 8316, "\u0120Survey": 8317, "\u0120exhaust": 8318, "\u0120lip": 8319, "\u0120heritage": 8320, "\u0120probability": 8321, "\u0120Little": 8322, "\u0120streets": 8323, "\u0120mine": 8324, "\u0120Harvard": 8325, "\u0120hunting": 8326, "\u0120fought": 8327, "\u0120vegetation": 8328, "advant": 8329, "\u0120reasonable": 8330, "\u0120shoot": 8331, "\u0120quantity": 8332, "\u0120fellow": 8333, "\u0120ecological": 8334, "uum": 8335, "\u0120Books": 8336, "ptom": 8337, "\u0120disability": 8338, "\u0120temporary": 8339, "\u0120attitude": 8340, "\u0120substit": 8341, "\u0120mosquit": 8342, "07": 8343, "\u0120entit": 8344, "\u0120tort": 8345, "\u0120tempor": 8346, "\u0120finger": 8347, "\u0120boat": 8348, "\u0120threatened": 8349, "\u0120achievement": 8350, "Pub": 8351, "wan": 8352, "\u0120Lee": 8353, "elve": 8354, "iations": 8355, "\u0120keeps": 8356, "\u0120sentences": 8357, "\u0120stones": 8358, "\u01201991": 8359, "\u0120geomet": 8360, "lymp": 8361, "apes": 8362, "\u0120propag": 8363, "\u0120managing": 8364, "\u0120province": 8365, "\u0120heaven": 8366, "\u0120analyze": 8367, "\u0120bare": 8368, "\u0120lungs": 8369, "\u00e1\u0125": 8370, "\u0120pH": 8371, "\u0120RNA": 8372, "\u0120glac": 8373, "\u0120flexible": 8374, "HS": 8375, "RC": 8376, "\u0120engaging": 8377, "\u0120emotion": 8378, "\u0120chances": 8379, "\u0120resc": 8380, "\u0120explicit": 8381, "thon": 8382, "\u0120extension": 8383, "\u0120grains": 8384, "\u0120calculated": 8385, "\u0120Way": 8386, "\u0120entertain": 8387, "\u0120Analysis": 8388, "endar": 8389, "\u0120establishment": 8390, "utation": 8391, "\u0120advis": 8392, "\u0120biodiversity": 8393, "gien": 8394, "\u0120addiction": 8395, "ogy": 8396, "hire": 8397, "\u0120pand": 8398, "\u0120fo": 8399, "\u0120cure": 8400, "\u0120beans": 8401, "DS": 8402, "\u0120dim": 8403, "\u0120personality": 8404, "\u0120officer": 8405, "\u0120performing": 8406, "pled": 8407, "\u0120button": 8408, "\u0120colonies": 8409, "\u0120libr": 8410, "ependent": 8411, "\u0120Justice": 8412, "you": 8413, "\u0120variations": 8414, "\u0120Model": 8415, "\u0120newspaper": 8416, "\u0120styles": 8417, "\u0120Conference": 8418, "\u0120cardiovascular": 8419, "\u0120Card": 8420, "\u0120dism": 8421, "\u012037": 8422, "uther": 8423, "\u0120marketing": 8424, "\u0120enormous": 8425, "\u0120Spring": 8426, "\u0120urine": 8427, "\u0120targeted": 8428, "\u0120Corn": 8429, "\u0120Rh": 8430, "\u0120assumed": 8431, "\u0120productivity": 8432, "\u0120dimens": 8433, "\u0120myself": 8434, "zer": 8435, "\u0120Ident": 8436, "alities": 8437, "\u0120Business": 8438, "\u0120painful": 8439, "\u0120Massachusetts": 8440, "67": 8441, "\u0120dress": 8442, "\u0120Ott": 8443, "\u0120ease": 8444, "rix": 8445, "\u0120guess": 8446, "bell": 8447, "ivest": 8448, "\u0120cyber": 8449, "\u0120steam": 8450, "\u0120Click": 8451, "\u0120vertical": 8452, "ashes": 8453, "\u0120Far": 8454, "\u0120focusing": 8455, "box": 8456, "\u0120Islands": 8457, "\u0120literary": 8458, "iger": 8459, "\u0120exploration": 8460, "\u0120gods": 8461, "\u0120tob": 8462, "\u0120investigate": 8463, "\u0120planting": 8464, "\u0120minds": 8465, "\u0120oxid": 8466, "\u0120perceived": 8467, "\u0120IT": 8468, "\u0120executive": 8469, "\u0120universities": 8470, "!!": 8471, "Cons": 8472, "\u0120cas": 8473, "\u0120Obs": 8474, "HA": 8475, "\u0120fing": 8476, "\u0120herb": 8477, "ifice": 8478, "\u0120reverse": 8479, "\u0120sevent": 8480, "ranean": 8481, "\u0120Francisco": 8482, "\u0120dense": 8483, "\u0120attribut": 8484, "\u0120Systems": 8485, "\u0120Spirit": 8486, "\u0120priority": 8487, "\u0120Biology": 8488, "\u0120contributions": 8489, "jo": 8490, "\u0120movie": 8491, "world": 8492, "unct": 8493, "ensed": 8494, "\u0120Hawai": 8495, "anted": 8496, "istant": 8497, "\u0120habitats": 8498, "\u0120photographs": 8499, "Under": 8500, "asy": 8501, "enced": 8502, "\u0120empty": 8503, "Co": 8504, "Sim": 8505, "\u0120feels": 8506, "\u0120ensuring": 8507, "\u0120corresponding": 8508, "ushing": 8509, "ician": 8510, "\u0120EPA": 8511, "ipe": 8512, "\u012095": 8513, "\u0120DO": 8514, "\u0120settled": 8515, "89": 8516, "Sm": 8517, "\u0120societies": 8518, "\u0120remarkable": 8519, "foot": 8520, "\u0120fatigue": 8521, "\u0120Pass": 8522, "\u0120Ba": 8523, "\u0120duration": 8524, "aints": 8525, "\u0120chair": 8526, "\u0120classified": 8527, "\u0120Convention": 8528, "\u0120embra": 8529, "http": 8530, "\u0120Last": 8531, "stant": 8532, "\u0120Lin": 8533, "\u0120appeal": 8534, "orig": 8535, "ouds": 8536, "mentia": 8537, "aret": 8538, "\u0120telling": 8539, "63": 8540, "Just": 8541, "\u0120entering": 8542, "\u0120batteries": 8543, "\u0120tick": 8544, "\u0120Fact": 8545, "MP": 8546, "CP": 8547, "\u0120Back": 8548, "\u0120Jacob": 8549, "\u0120Bu": 8550, "\u0120transmit": 8551, "\u0120sad": 8552, "\u0120Philipp": 8553, "Using": 8554, "\u00c2\u00ae": 8555, "\u0120requirement": 8556, "\u0120Ly": 8557, "actions": 8558, "\u012039": 8559, "\u0120lifetime": 8560, "\u0120Modern": 8561, "\u0120Again": 8562, "\u0120drivers": 8563, "ket": 8564, "\u0120references": 8565, "\u0120strike": 8566, "encing": 8567, "\u0120deeply": 8568, "\u0120Testament": 8569, "\u0120converted": 8570, "\u0120gast": 8571, "\u0120summary": 8572, "\u0120colonial": 8573, "\u0120watching": 8574, "%,": 8575, "bel": 8576, "\u0120capabilities": 8577, "oul": 8578, "'.": 8579, "uscript": 8580, "\u0120scope": 8581, "\u0120customer": 8582, "\u0120preferred": 8583, "agen": 8584, "imp": 8585, "\u0120differently": 8586, "\u0120Elizabeth": 8587, "\u0120shaped": 8588, "\u0120continuing": 8589, "\u0120Him": 8590, "\u0120club": 8591, "\u0120lowest": 8592, "\u0120collective": 8593, "\u0120passion": 8594, "\u0120saved": 8595, "\u0120ecosystems": 8596, "\u0120tobacco": 8597, "\u0120engines": 8598, "\u0120promoting": 8599, "\u0120accompanied": 8600, "59": 8601, "\u0120notion": 8602, "\u0120Los": 8603, "\u0120abstract": 8604, "\u0120acting": 8605, "\u0120violent": 8606, "\u0120irrig": 8607, "\u0120gent": 8608, "\u0120TO": 8609, "\u0120cann": 8610, "\u0120tens": 8611, "CL": 8612, "thew": 8613, ")||": 8614, "\u0120districts": 8615, "\u0120definitely": 8616, "\u0120sustainability": 8617, "\u0120fires": 8618, "\u0120removing": 8619, "\u0120tip": 8620, "\u0120evident": 8621, "\u0120adapted": 8622, "\u0120Asse": 8623, "\u0120Mur": 8624, "\u0120clothes": 8625, "\u0120conclus": 8626, "\u0120gravity": 8627, "ivestock": 8628, "\u0120equation": 8629, "agan": 8630, "Ref": 8631, "\u0120promise": 8632, "\u0120loose": 8633, "\u0120drinks": 8634, "\u0120Olymp": 8635, "\u0120council": 8636, "\u0120metals": 8637, "\u0120Senate": 8638, "\u0120crack": 8639, "Are": 8640, "\u0120marg": 8641, "\u0120wider": 8642, "\u0120Parliament": 8643, "Before": 8644, "\u0120losing": 8645, "\u0120convey": 8646, "\u01202021": 8647, "\u0120manifest": 8648, "\u0120fet": 8649, "\u0120determining": 8650, "\u0120dominant": 8651, "\u0120thread": 8652, "\u0120Laboratory": 8653, "\u0120Orig": 8654, "kl": 8655, "aka": 8656, "havior": 8657, "iner": 8658, "\u0120sculpt": 8659, "\u0120accord": 8660, "\u0120enterpr": 8661, "Each": 8662, "\u0120Saint": 8663, "\u0120weigh": 8664, "\u0120Turk": 8665, "NS": 8666, "\u0120trick": 8667, "\u0120integration": 8668, "\u0120intention": 8669, "roud": 8670, "eutic": 8671, "hemistry": 8672, "borne": 8673, "\u0120Point": 8674, "\u0120clock": 8675, "\u0120lock": 8676, "\u0120profile": 8677, "\u0120fisher": 8678, "ceans": 8679, "\u0120Economic": 8680, "\u0120manager": 8681, "\u0120sodium": 8682, "fast": 8683, "\u0120Fred": 8684, "\u0120compost": 8685, "\u0120infants": 8686, "aware": 8687, "\u0120hall": 8688, "\u0120Cr": 8689, "\u0120wouldn": 8690, "\u0120eru": 8691, "\u0120verb": 8692, "\u0120Wal": 8693, "\u0120classical": 8694, "\u0120ranging": 8695, "awn": 8696, "\u0120prayer": 8697, "was": 8698, "\u0120bee": 8699, "text": 8700, "\u0120existed": 8701, "Ne": 8702, "\u0120Wildlife": 8703, "\u0120Imm": 8704, "\u0120facilitate": 8705, "53": 8706, "\u0120shore": 8707, "\u0120Indeed": 8708, "\u0120celebrated": 8709, "umer": 8710, "\u0120computing": 8711, "\u0120Down": 8712, "erts": 8713, "\u0120stood": 8714, "\u0120applying": 8715, "\u0120nutritional": 8716, "2010": 8717, "\u0120raising": 8718, "\u0120websites": 8719, "\u0120welfare": 8720, "\u0120dairy": 8721, "mentation": 8722, "\u0120prey": 8723, "\u0120withdraw": 8724, "aya": 8725, "\u0120Page": 8726, "feed": 8727, "\u0120spots": 8728, "ati": 8729, "\u0120cow": 8730, "\u0120spinal": 8731, "\u0120Navy": 8732, "EE": 8733, "uan": 8734, "chain": 8735, "\u0120sessions": 8736, "\u0120Circ": 8737, "\u0120virtually": 8738, "words": 8739, "\u0120Egyptian": 8740, "ailed": 8741, "\u0120recycling": 8742, "\u0120versus": 8743, "\u0120poetry": 8744, "\u0120seriously": 8745, "\u0120buff": 8746, "\u0120apparently": 8747, "\u01201920": 8748, "\u0120actively": 8749, "\u0120orange": 8750, "\u0120Coll": 8751, "\u0120assert": 8752, "\u0120labour": 8753, "Who": 8754, "\u0120Agriculture": 8755, "\u0120craft": 8756, "\u0120songs": 8757, "\u0120aging": 8758, "\u0120differ": 8759, "\u0120CP": 8760, "\u0120obst": 8761, "\u0120transmitted": 8762, "Sec": 8763, "\u0120\u00d8": 8764, "\u0120tension": 8765, "MA": 8766, "made": 8767, "\u0120dies": 8768, "!\u00e2\u0122\u013f": 8769, "fe": 8770, "\u0120dating": 8771, "\u0120quantum": 8772, "\u0120suit": 8773, "\u0120occas": 8774, "\u0120Phot": 8775, "\u0120aggressive": 8776, "\u0120Confed": 8777, "\u0120Alexander": 8778, "\u0120hormones": 8779, "\u0120Greece": 8780, "\u0120tack": 8781, "\u0120ID": 8782, "awa": 8783, "\u0120safely": 8784, "play": 8785, "\u0120devast": 8786, "\u0120representative": 8787, "\u0120resistant": 8788, "zo": 8789, "\u0120linear": 8790, "\u0120strategic": 8791, "\u0120Amazon": 8792, "\u0120Gar": 8793, "ologically": 8794, "\u0120begun": 8795, "\u0120psychology": 8796, "\u0120teens": 8797, "\u0120victory": 8798, "ref": 8799, "\u0120gathered": 8800, "\u0120asp": 8801, "\u0120hypothesis": 8802, "rh": 8803, "\u0120Section": 8804, "unc": 8805, "\u012034": 8806, "\u0120haven": 8807, "plo": 8808, "specific": 8809, "\u0120municip": 8810, "\u0120Sunday": 8811, "mented": 8812, "\u0120coat": 8813, "sub": 8814, "\u0120gif": 8815, "fulness": 8816, "\u0120constra": 8817, "\u0120literally": 8818, "\u0120tom": 8819, "\u0120Solar": 8820, "\u0120develops": 8821, "\u0120classic": 8822, "\u0120sensor": 8823, "'d": 8824, "\u0120Process": 8825, "\u0120recre": 8826, "\u0120barrier": 8827, "\u0120Stan": 8828, "\u0120sacred": 8829, "\u0120noticed": 8830, "\u0120resil": 8831, "usive": 8832, "Eng": 8833, "\u0120cul": 8834, "isd": 8835, "itting": 8836, "\u0120Cub": 8837, "\u0120balanced": 8838, "\u0120Rail": 8839, "after": 8840, "\u0120wars": 8841, "\u0120hydro": 8842, "\u0120pilot": 8843, "\u0120neurons": 8844, "\u0120\u00d7": 8845, "\u0120Drug": 8846, "\u0120colony": 8847, "\u0120pione": 8848, "\u0120transc": 8849, "\u0120frust": 8850, "\u0120default": 8851, "\u0120Consider": 8852, "\u0120integr": 8853, "EA": 8854, "\u0120cooperation": 8855, "press": 8856, "oline": 8857, "\u0120clients": 8858, "\u0120engagement": 8859, "\u0120complexity": 8860, "\u0120pill": 8861, "\u0120unn": 8862, "\u0120SS": 8863, "\u0120chose": 8864, "cho": 8865, "\u0120Ask": 8866, "\u0120limitations": 8867, "\u0120cotton": 8868, "dep": 8869, "\u0120contents": 8870, "\u0120wearing": 8871, "\u0120dil": 8872, "section": 8873, "this": 8874, "\u0120Bang": 8875, "\u0120telesc": 8876, "\u0120purchased": 8877, "\u0120Media": 8878, "lights": 8879, "Then": 8880, "\u0120Blue": 8881, "\u0120readily": 8882, "\u0120discussions": 8883, "\u0120Treatment": 8884, "\u0120Digital": 8885, "\u0120armed": 8886, "\u0120faculty": 8887, "Despite": 8888, "\u0120anticip": 8889, "\u00d0\u00b0": 8890, "\u0120reaches": 8891, "omal": 8892, "\u0120Code": 8893, "\u0120Max": 8894, "unning": 8895, "ateral": 8896, "\u0120assembly": 8897, "\u0120funded": 8898, "\u0120adopt": 8899, "\u0120Nob": 8900, "\u0120mature": 8901, "\u0120kingdom": 8902, "cin": 8903, "\u0120Town": 8904, "icking": 8905, "\u0120symbols": 8906, "\u0120juice": 8907, "abs": 8908, "estions": 8909, "\u0120friendly": 8910, "\u0120celebrate": 8911, "\u0120partnership": 8912, "\u0120wat": 8913, "\u0120occupied": 8914, "\u0120Mess": 8915, "\u0120soph": 8916, "\u0120120": 8917, "\u0120pupils": 8918, "adelph": 8919, "\u0120volunteers": 8920, "\u0120tone": 8921, "\u0120controlling": 8922, "zymes": 8923, "olt": 8924, "\u0120Ha": 8925, "\u0120spacecraft": 8926, "\u0120streams": 8927, "\u0120Avoid": 8928, "\u0120chromos": 8929, "ga": 8930, "thod": 8931, "\u0120realized": 8932, "\u0120shorter": 8933, "\u0120privile": 8934, "operative": 8935, "\u0120grades": 8936, "books": 8937, "52": 8938, "EO": 8939, "amil": 8940, "oded": 8941, "\u0120solving": 8942, "\u0120Pu": 8943, "\u0120ears": 8944, "\u0120sees": 8945, "61": 8946, "\u0120crown": 8947, "\u0120personnel": 8948, "\u0120emerged": 8949, "\u0120involvement": 8950, "friend": 8951, "\u0120convert": 8952, "\u0120Bal": 8953, "onday": 8954, "\u0120trem": 8955, "\u0120viral": 8956, "\u0120expertise": 8957, "\u0120NO": 8958, "\u0120acknowled": 8959, "\u0120Several": 8960, "icts": 8961, "\u0120incent": 8962, "\u0120scheme": 8963, "\u0120AR": 8964, "\u0120forecast": 8965, "\u0120logical": 8966, "\u0120varies": 8967, "\u0120churches": 8968, "\u0120compass": 8969, "\u0120Heritage": 8970, "\u0120displayed": 8971, "obile": 8972, "\u0120span": 8973, "Like": 8974, "rue": 8975, "\u0120pairs": 8976, "ilst": 8977, "\u0120Contin": 8978, "claim": 8979, "\u0120finish": 8980, "also": 8981, "\u0120amino": 8982, "\u0120immigrants": 8983, "\u0120spoke": 8984, "\u0120restore": 8985, "\u0120barriers": 8986, "agnetic": 8987, "\u0120Key": 8988, "\u0120holiday": 8989, "2011": 8990, "\u0120breaking": 8991, "\u0120Secretary": 8992, "atus": 8993, "\u0120Right": 8994, "\u0120origins": 8995, "\u0120oste": 8996, "\u0120scat": 8997, "\u0120tact": 8998, "\u0120vibr": 8999, "green": 9000, "\u0120manual": 9001, "\u0120specified": 9002, "iterranean": 9003, "\u0120Incre": 9004, "\u0120sug": 9005, "\u0120Gall": 9006, "\u0120cough": 9007, "\u0120Mach": 9008, "\u0120spatial": 9009, "lected": 9010, "\u0120unlikely": 9011, "\u0120associate": 9012, "\u0120lighting": 9013, "Source": 9014, "\u0120align": 9015, "\u0120replacement": 9016, "\u01201940": 9017, "mail": 9018, "\u01201989": 9019, "\u00c3\u00b1": 9020, "\u0120returns": 9021, "\u0120atoms": 9022, "\u0120opinions": 9023, "ols": 9024, "\u0120anger": 9025, "\u0120specialized": 9026, "\u0120saving": 9027, "\u0120module": 9028, "2012": 9029, ":||": 9030, "ifier": 9031, "2013": 9032, "\u0120gift": 9033, "ospel": 9034, "\u0120Muslims": 9035, "\u0120cub": 9036, "\u0120deploy": 9037, "\u0120prevalence": 9038, "\u0120regime": 9039, "\u0120enthus": 9040, "\u0120posts": 9041, "\u0120peer": 9042, "\u0120couldn": 9043, "\u0120choosing": 9044, "\u0120Music": 9045, "rin": 9046, "izz": 9047, "\u0120hat": 9048, "\u0120gum": 9049, "\u0120handling": 9050, "\u0120Ast": 9051, "\u0120Fil": 9052, "\u0120paying": 9053, "neum": 9054, "\u0120assemb": 9055, "adelphia": 9056, "\u0120recording": 9057, "\u0120CT": 9058, "\u0120tap": 9059, "Rel": 9060, "\u0120nom": 9061, "\u0120planted": 9062, "inois": 9063, "\u0120ownership": 9064, "swe": 9065, "----": 9066, "\u0120Standard": 9067, "\u0120Building": 9068, "mond": 9069, "izers": 9070, "\u0120vegetable": 9071, "\u0120reflected": 9072, "\u0120Die": 9073, "Tra": 9074, "\u0120Wikipedia": 9075, "Use": 9076, "\u0120sons": 9077, "\u0120cellular": 9078, "\u0120Chief": 9079, "\u0120auto": 9080, "\u0120curve": 9081, "\u0120hal": 9082, "\u0120throat": 9083, "chnology": 9084, "\u0120indirect": 9085, "\u0120Lim": 9086, "\u0120meaningful": 9087, "\u0120bleeding": 9088, "\u0120Abraham": 9089, "\u0120Temple": 9090, "\u0120trace": 9091, "\u0120mammals": 9092, "\u0120shed": 9093, "\u0120traits": 9094, "Rep": 9095, "BM": 9096, "\u0120everywhere": 9097, "\u0120restaur": 9098, "\u0120dropped": 9099, "\u0120borrow": 9100, "\u0120reef": 9101, "\u0120breaks": 9102, "\u0120analyzed": 9103, "62": 9104, "\u0120cheap": 9105, "\u0120exploring": 9106, "\u0120Vietnam": 9107, "\u0120ash": 9108, "\u0120penet": 9109, "\u0120surprise": 9110, "\u0120enjoyed": 9111, "\u0120Daniel": 9112, "\u0120tongue": 9113, "ifer": 9114, "\u0120Kent": 9115, "oons": 9116, "\u0120qualities": 9117, "\u0120fifth": 9118, "cut": 9119, "\u0120gly": 9120, "\u0120Farm": 9121, "\u0120draft": 9122, "\u0120oils": 9123, "\u0120utility": 9124, "\u0120preserved": 9125, "\u0120competitive": 9126, "\u0120Move": 9127, "assium": 9128, "Ge": 9129, "reens": 9130, "\u0120pel": 9131, "ocated": 9132, "\u0120representing": 9133, "\u0120passes": 9134, "\u0120prox": 9135, "\u0120Andrew": 9136, "shaped": 9137, "\u0120maxim": 9138, "\u0120Kids": 9139, "\u0120Capt": 9140, "\u0120sciences": 9141, "\u0120annually": 9142, "sex": 9143, "\u0120joints": 9144, "oves": 9145, "rowth": 9146, "\u0120Frid": 9147, "\u0120Impro": 9148, "\u0120chicken": 9149, "\u0120visits": 9150, "\u0120disadvant": 9151, "\u0120algorithm": 9152, "\u00d0\u00be": 9153, "\u0120Historical": 9154, "\u0120alarm": 9155, "\u0120Ve": 9156, "\u0120Perhaps": 9157, "\u0120minority": 9158, "\u0120earthquake": 9159, "Ps": 9160, "\u0120descend": 9161, "\u0120prescribed": 9162, "function": 9163, "\u0120pets": 9164, "\u0120Hum": 9165, "\u0120workshe": 9166, "\u00d0\u00b5": 9167, "\u0120Need": 9168, "\u0120pace": 9169, "\u0120practition": 9170, "Two": 9171, "\u0120wing": 9172, "\u0120ul": 9173, "\u0120reserved": 9174, "\u0120privacy": 9175, "\u0120graduate": 9176, "OD": 9177, "mental": 9178, "\u0120till": 9179, "\u0120sulf": 9180, "\u0120Commons": 9181, "otypes": 9182, "ackson": 9183, "\u0120Invest": 9184, "\u0120refused": 9185, "\u0120nuts": 9186, "54": 9187, "mble": 9188, "acles": 9189, "\u0120uncle": 9190, "\u0120sale": 9191, "\u0120Creek": 9192, "\u0120addresses": 9193, "\u0120burden": 9194, "\u0120Small": 9195, "\u0120shr": 9196, "\u0120advances": 9197, "onents": 9198, "\u0120restoration": 9199, "Post": 9200, "lock": 9201, "\u0120sleeping": 9202, "\u0120Being": 9203, "\u0120tends": 9204, "\u0120attitudes": 9205, "\u0120buying": 9206, "\u0120identical": 9207, "\u0120minimal": 9208, "\u0120worker": 9209, "\u0120diarr": 9210, "\u0120ham": 9211, "\u0120chocolate": 9212, "\u0120dict": 9213, "\u0120suicide": 9214, "\u0120impair": 9215, "\u0120permit": 9216, "bury": 9217, "\u0120MA": 9218, "ghan": 9219, "stru": 9220, "\u0120documented": 9221, "\u0120sister": 9222, "\u0120Connect": 9223, "\u0120discipline": 9224, "aterials": 9225, "gments": 9226, "amps": 9227, "\u0120varied": 9228, "\u0120reveals": 9229, "\u0120Portug": 9230, "\u0120Lew": 9231, "\u0120specialist": 9232, "\u0120gardens": 9233, "\u0120meetings": 9234, "Gl": 9235, "\u0120bene": 9236, "Mar": 9237, "\u0120evolutionary": 9238, "ysical": 9239, "\u0120basically": 9240, "\u0120requiring": 9241, "\u0120scenario": 9242, "\u0120Arts": 9243, "\u0120profound": 9244, "\u0120zones": 9245, "\u0120overview": 9246, "\u0120Mid": 9247, "enter": 9248, "\u0120ol": 9249, "\u0120invasion": 9250, "\u0120developments": 9251, "\u00e0\u00a5": 9252, "\u0120^": 9253, "ador": 9254, "\u0120Aff": 9255, "\u0120clay": 9256, "\u0120Ministry": 9257, "\u0120savings": 9258, "power": 9259, "uis": 9260, "emb": 9261, "\u0120globe": 9262, "\u0120Mediterranean": 9263, "\u0120dipl": 9264, "\u0120transferred": 9265, "\u0120digestive": 9266, "\u0120arise": 9267, "\u0120precip": 9268, "\u0120metabolism": 9269, "\u0120absorb": 9270, "iblical": 9271, "GE": 9272, "ouri": 9273, "iano": 9274, "pring": 9275, "outheast": 9276, "\u0120Korean": 9277, "\u0120Vitamin": 9278, "\u0120creativity": 9279, "irable": 9280, "uled": 9281, "\u0120tumors": 9282, "ocity": 9283, "\u0120incidence": 9284, "93": 9285, "\u0120conversion": 9286, "uity": 9287, "\u0120herself": 9288, "\u0120Li": 9289, "rizona": 9290, "\u0120Bureau": 9291, "\u0120surgical": 9292, "\u0120Blood": 9293, "\u0120cited": 9294, "\u0120particle": 9295, "\u0120currency": 9296, "apped": 9297, "\u0120Fair": 9298, "\u0120entitled": 9299, "\u0120villages": 9300, "\u0120ultimate": 9301, "Please": 9302, "\u0120Diet": 9303, "\u0120reflection": 9304, "86": 9305, "pre": 9306, "\u0120Var": 9307, "\u0120applies": 9308, "\u0120bought": 9309, "\u0120outbreak": 9310, "\u0120Hindu": 9311, "\u0120joy": 9312, "\u0120Next": 9313, "\u0120certific": 9314, "regon": 9315, "vation": 9316, "olk": 9317, "\u0120Dictionary": 9318, "\u0120Antar": 9319, "\u0120suddenly": 9320, "\u0120strange": 9321, "\u0120morph": 9322, "\u0120medicines": 9323, "\u0120prime": 9324, "Google": 9325, "\u0120influences": 9326, "\u0120\u00c2\u00a9": 9327, "\u0120beneath": 9328, "\u0120ancestors": 9329, "\u0120beach": 9330, "ogens": 9331, "\u0120livestock": 9332, "\u0120insights": 9333, "\u0120Encyclopedia": 9334, "\u0120swelling": 9335, "\u0120accurately": 9336, "\u0120ruled": 9337, "\u0120circulation": 9338, "\u0120divine": 9339, "ricks": 9340, "urable": 9341, "astics": 9342, "science": 9343, "\u0120Help": 9344, "erally": 9345, "\u0120provision": 9346, "zone": 9347, "ologic": 9348, "\u0120registered": 9349, "iro": 9350, "\u0120hier": 9351, "rait": 9352, "western": 9353, "\u0120reign": 9354, "\u0120consequence": 9355, "fly": 9356, "\u0120happiness": 9357, "2009": 9358, "\u0120accomplish": 9359, "\u0120perfectly": 9360, "\u0120distinguish": 9361, "rust": 9362, "\u0120inev": 9363, "thur": 9364, "\u0120Van": 9365, "\u0120ion": 9366, "rip": 9367, "oked": 9368, "\u0120Moses": 9369, "\u0120Ell": 9370, "\u0120enzyme": 9371, "bris": 9372, "opl": 9373, "\u0120Field": 9374, "\u0120estate": 9375, "\u0120suspect": 9376, "\u0120tomat": 9377, "\u0120lakes": 9378, "\u0120productive": 9379, "Scient": 9380, "\u0120inhabitants": 9381, "\u0120possibilities": 9382, "\u0120attempted": 9383, "\u0120Offic": 9384, "\u012042": 9385, "\u0120illnesses": 9386, "mia": 9387, "\u0120wal": 9388, "\u0120workplace": 9389, "issance": 9390, "Learn": 9391, "\u0120Century": 9392, "\u0120paintings": 9393, "\u0120(\u00e2\u0122\u013e": 9394, "\u0120Mexican": 9395, "\u0120judgment": 9396, "\u0120puzz": 9397, "\u0120designated": 9398, "quiry": 9399, "\u0120legit": 9400, "\u0120puts": 9401, "\u0120acceptable": 9402, "\u0120underground": 9403, "bow": 9404, "\u0120Colon": 9405, "TH": 9406, "\u0120cycles": 9407, "\u0120Desc": 9408, "enda": 9409, "\u0120contributing": 9410, "\u0120restrictions": 9411, "\u0120addressing": 9412, "\u0120CA": 9413, "\u0120Cost": 9414, "\u0120Ice": 9415, "\u0120vot": 9416, "\u0120initiatives": 9417, "\u0120Obama": 9418, "\u0120Microsoft": 9419, "\u0120tu": 9420, "\u0120preparing": 9421, "UL": 9422, "\u0120sending": 9423, "\u0120calculate": 9424, "ideo": 9425, "\u0120compos": 9426, "issipp": 9427, "giene": 9428, "\u0120encl": 9429, "QL": 9430, "erving": 9431, "sur": 9432, "\u0120Santa": 9433, "\u0120manuscript": 9434, "\u0120diets": 9435, "\u0120Luc": 9436, "\u0120Level": 9437, "\u0120Whether": 9438, "\u0120Indones": 9439, "\u0120reasoning": 9440, "\u0120HT": 9441, "\u0120neurolog": 9442, "\u0120Later": 9443, "\u0120translated": 9444, "\u0120magnitude": 9445, "\u0120absolutely": 9446, "\u0120ft": 9447, "\u0120wise": 9448, "\u0120invention": 9449, "\u0120therm": 9450, "\u0120totally": 9451, "\u0120motivation": 9452, "\u0120\u00e2\u0128\u0133": 9453, "about": 9454, "\u0120wash": 9455, "ceive": 9456, "\u0120Philadelphia": 9457, "\u0120Illinois": 9458, "DL": 9459, "\u0120assignment": 9460, "\u0120Major": 9461, "\u0120\u00d9": 9462, "\")": 9463, "97": 9464, "\u0120revers": 9465, "\u0120invasive": 9466, "\u0120instances": 9467, "\u0120memor": 9468, "\u0120dementia": 9469, "\u0120outdoor": 9470, "\u0120philosoph": 9471, "\u0120Action": 9472, "ritten": 9473, "igious": 9474, "\u0120Which": 9475, "\u0120dramatically": 9476, "\u0120subsc": 9477, "emies": 9478, "\u0120powder": 9479, "\u0120distant": 9480, "\u0120Son": 9481, "\u0120vig": 9482, "\u0120Mic": 9483, "\u0120distinction": 9484, "\u0120conflicts": 9485, "\u0124\u00ac": 9486, "\u0120coron": 9487, "\u0120bias": 9488, "\u0120pert": 9489, "sk": 9490, "\u0120transplant": 9491, "\u0120pandemic": 9492, "\u0120alumin": 9493, "2006": 9494, "\u0120rooms": 9495, "ometer": 9496, "2008": 9497, "\u0120Ont": 9498, "ulates": 9499, "terior": 9500, "\u0120painted": 9501, "\u0120cuts": 9502, "\u0120Adam": 9503, "\u0120alternatives": 9504, "elly": 9505, "\u0120wooden": 9506, "\u0120establishing": 9507, "ais": 9508, "\u0120cream": 9509, "inces": 9510, "\u0120Norm": 9511, "\u0120Week": 9512, "\u0120(\"": 9513, "aved": 9514, "\u0120themes": 9515, "regular": 9516, "\u0120copies": 9517, "\u0120varying": 9518, "Sub": 9519, "\u0120rod": 9520, "\u0120quantities": 9521, "\u0120UV": 9522, "\u0120Angeles": 9523, "\u0120channels": 9524, "\u0120Pain": 9525, "\u0120dimin": 9526, "\u0120alert": 9527, "isting": 9528, "\u0120consent": 9529, "isations": 9530, "\u00e1\u00b9": 9531, "\u0120Ram": 9532, "\u0120dish": 9533, "\u0120subsid": 9534, "orus": 9535, "\u0120Dam": 9536, "\u0120scr": 9537, "esium": 9538, "\u0120elections": 9539, "\u0120statistical": 9540, "\u0120reproductive": 9541, "quality": 9542, "\u0120surrounded": 9543, "\u0120bears": 9544, "SP": 9545, "\u0120bonds": 9546, "\u0120eleph": 9547, "\u0120250": 9548, "ught": 9549, "\u0120embed": 9550, "\u0120predicted": 9551, "\u0120Poly": 9552, "\u0120relate": 9553, "\u0120restricted": 9554, "\u0120Peace": 9555, "\u0120Hard": 9556, "\u0120package": 9557, "\u0120phones": 9558, "\u0120Trust": 9559, "\u0120candidate": 9560, "\u0120optimal": 9561, "\u0120broke": 9562, "\u0120favour": 9563, "51": 9564, "host": 9565, "\u0120attractive": 9566, "\u0120susceptible": 9567, "eras": 9568, "\u0120disturb": 9569, ".),": 9570, "Students": 9571, "\u0120?": 9572, "oler": 9573, "\u0120electrons": 9574, "raine": 9575, "\u0120soils": 9576, "amic": 9577, "pectives": 9578, "\u0120enforcement": 9579, "\u0120rainfall": 9580, "\u0120Turkey": 9581, "\u0120regulate": 9582, "\u0120films": 9583, "\u0120wage": 9584, "inth": 9585, "\u0120lob": 9586, "\u0120Univers": 9587, "\u0120caps": 9588, "\u0120separation": 9589, "han": 9590, "\u0120analyses": 9591, "\u0120Friday": 9592, "\u0120theoretical": 9593, "\u0120minimize": 9594, "ustainable": 9595, "\u0120BM": 9596, "\u0120Hence": 9597, "\u0120fascinating": 9598, "\u0120disag": 9599, "ools": 9600, "ictions": 9601, "\u0120penal": 9602, "\u0120empire": 9603, "\u01201988": 9604, "\u0120lingu": 9605, "\u0120ranges": 9606, "aternal": 9607, "\u0120developmental": 9608, "engers": 9609, "\u0120honest": 9610, "\u0120lun": 9611, "\u0120efficiently": 9612, "\u0120Station": 9613, "eem": 9614, "\u0120neural": 9615, "rub": 9616, "\u0120Emer": 9617, "\u0120elementary": 9618, "\u0120hospitals": 9619, "\u0120precisely": 9620, "\u0120candidates": 9621, "\u0120inherent": 9622, "\u0120democratic": 9623, "\u0120citizen": 9624, ".||": 9625, "\u0120Rab": 9626, "\u0120seal": 9627, "plate": 9628, "\u0120sheep": 9629, "\u0120isolation": 9630, "\u0120prosper": 9631, "\u0120trail": 9632, "\u0120Issue": 9633, "\u0120dimensions": 9634, "anwhile": 9635, "\u0120calm": 9636, "\u0120corporate": 9637, "\u0120adolescents": 9638, "\u0120wings": 9639, "\u0120Often": 9640, "\u0120scholar": 9641, "\u0120Nutrition": 9642, "\u0120Bush": 9643, "\u0120absorption": 9644, "\u0120occasionally": 9645, "OW": 9646, "\u0120camps": 9647, "\u0120operated": 9648, "sters": 9649, "\u0120segment": 9650, "\u0120Bulgar": 9651, "\u0120thirty": 9652, "ceptions": 9653, "\u0120encounter": 9654, "Man": 9655, "\u0120attributed": 9656, "rose": 9657, "\u0120combine": 9658, "\u0120simultaneously": 9659, "92": 9660, "worth": 9661, "\u0120Area": 9662, "\u0120aside": 9663, "\u0120payment": 9664, "\u0120robust": 9665, "\u0120Buddh": 9666, "ivities": 9667, "\u0120proposal": 9668, "olves": 9669, "\u0120medieval": 9670, "\u0120allergic": 9671, "abling": 9672, "\u0120severity": 9673, "\u0120lecture": 9674, "pos": 9675, "\u0120optical": 9676, "\u0120600": 9677, "\u0120doors": 9678, "\u0120Assembly": 9679, "omed": 9680, "\u0120Proble": 9681, "\u0120Remember": 9682, "\u0120Squ": 9683, "\u0120FDA": 9684, "ois": 9685, "\u0120jurisd": 9686, "\u0120plates": 9687, "ugs": 9688, "\u0120summar": 9689, "\u0120ending": 9690, "\u0120surveys": 9691, "ori": 9692, "\u0120discharge": 9693, "di": 9694, "\u0120clouds": 9695, "\u0120scales": 9696, "\u0120TH": 9697, "ethe": 9698, "96": 9699, "\u0120rib": 9700, "ouses": 9701, "57": 9702, "Table": 9703, "\u0120Main": 9704, "View": 9705, "\u0120Guard": 9706, "2007": 9707, "\u0120Physical": 9708, "**": 9709, "orters": 9710, "\u0120Based": 9711, "oca": 9712, "\u0120gest": 9713, "\u0120blank": 9714, "reprene": 9715, "\u0120confusion": 9716, "\u0120erosion": 9717, "\u0120neighb": 9718, "Ke": 9719, "BI": 9720, "\u0120incorporated": 9721, "Click": 9722, "\u0120rough": 9723, "\u0120endangered": 9724, "\u0120elevated": 9725, "page": 9726, "\u0120bags": 9727, "\u0120extens": 9728, "etically": 9729, "\u0120enzymes": 9730, "\u0120engineer": 9731, "issippi": 9732, "esthetic": 9733, "\u0120Oregon": 9734, "\u0120dried": 9735, "\u0120Having": 9736, "lectric": 9737, "\u0120persu": 9738, "\u0120celeb": 9739, "rons": 9740, "\u0120ho": 9741, "Health": 9742, "\u0120rhythm": 9743, "\u0120Crit": 9744, "\u0120flexibility": 9745, "best": 9746, "\u0120kilometers": 9747, "\u0120perpet": 9748, "\u0120visiting": 9749, "\u0120PhD": 9750, "\u0120merch": 9751, "\u0120noun": 9752, "\u01201000": 9753, "egin": 9754, "\u0120amongst": 9755, "\u0120Jackson": 9756, "\u0120legend": 9757, "eling": 9758, "ocument": 9759, "\u0120Line": 9760, "profit": 9761, "\u0120soy": 9762, "\u0120relating": 9763, "\u0120hybrid": 9764, "aven": 9765, "even": 9766, "\u0120perf": 9767, "\u0120cable": 9768, "\u0120sediment": 9769, "\u0120prol": 9770, "\u0120satisfact": 9771, "\u0120Jr": 9772, "\u0120allergies": 9773, "\u0120encouraging": 9774, "\u0120Bern": 9775, "\u0120extraord": 9776, "\u0120adoption": 9777, "\u0120imagination": 9778, "\u0120abundance": 9779, "\u0120landing": 9780, "\u0120collections": 9781, "\u0120reflects": 9782, "\u0120mistakes": 9783, "\u0120Standards": 9784, "\u0120resemb": 9785, "\u0120recall": 9786, "\u0120fraction": 9787, "\u0120Thanks": 9788, "ropol": 9789, "\u0120brains": 9790, "acle": 9791, "\u0120Twitter": 9792, "\u0120refugees": 9793, "ffe": 9794, "\u0120Garden": 9795, "\u0120verte": 9796, "\u0120synthetic": 9797, "Os": 9798, "\u0120continent": 9799, "\u0120deposits": 9800, "\u0120Hem": 9801, "\u0120CH": 9802, "\u0120pleasure": 9803, "ications": 9804, "\u0120employee": 9805, "\u0120metabolic": 9806, "\u0120thyroid": 9807, "\u0120Ak": 9808, "\u0120plasma": 9809, "\u0120peers": 9810, "\u0120PL": 9811, "\u0120Fed": 9812, "ivation": 9813, "nesota": 9814, "\u0120duties": 9815, "\u0120spons": 9816, "\u0120Place": 9817, "\u0120repeat": 9818, "\u0120grammar": 9819, "expected": 9820, "\u0120Marine": 9821, "\u0120Scholar": 9822, "\u0120swimming": 9823, "\u0120Mot": 9824, "\u0120boundary": 9825, "\u0120intra": 9826, "oving": 9827, "cking": 9828, "\u0120ster": 9829, "\u0120hopes": 9830, "\u0120revenue": 9831, "\u0120abandoned": 9832, "\u0120knee": 9833, "\u0120arc": 9834, "III": 9835, "itches": 9836, "Reg": 9837, "urd": 9838, "\u0120debris": 9839, "duction": 9840, "\u0120dynamics": 9841, "\u0120mask": 9842, "redit": 9843, "\u0120bottle": 9844, "itic": 9845, "\u0120inch": 9846, "\u0120invented": 9847, "cular": 9848, "\u0120Due": 9849, "\u0120survived": 9850, "\u0120abol": 9851, "\u0120View": 9852, "\u0120register": 9853, ".:": 9854, "\u0120Arizona": 9855, "\u0120grad": 9856, "\u0120atmospheric": 9857, "\u0120Master": 9858, "\u0120width": 9859, "\u0120tanks": 9860, "ayer": 9861, "\u0120rays": 9862, "\u0120surprised": 9863, "\u0120deer": 9864, "\u0120prevents": 9865, "lear": 9866, "\u0120Unlike": 9867, "\u0120Product": 9868, "\u0120oceans": 9869, "\u0120semi": 9870, "\u0120hung": 9871, "\u0120crypt": 9872, "isons": 9873, "rible": 9874, "\u0120murder": 9875, "\u0120Missouri": 9876, "\u0120Lat": 9877, "\u0120regulatory": 9878, "elihood": 9879, "\u0120responsibilities": 9880, "\u0120Sus": 9881, "\u0120sequences": 9882, "who": 9883, "\u0120pipe": 9884, "\u0120Ash": 9885, "\u0120approval": 9886, "\u0120burned": 9887, "\u0120erect": 9888, "\u0120Fish": 9889, "\u0120calendar": 9890, "\u0120memories": 9891, "300": 9892, "\u0120magazine": 9893, "\u012044": 9894, "\u0120minister": 9895, "\u0120expanding": 9896, "\u0120doses": 9897, "\u0120installation": 9898, "\u0120pesticides": 9899, "\u0120popularity": 9900, "\u0120tag": 9901, "\u0120thank": 9902, "\u0120glob": 9903, "\u0120fan": 9904, "\u0120whenever": 9905, "\u0120Alaska": 9906, "Any": 9907, "\u0120tab": 9908, "\u0120arthritis": 9909, "\u0120systematic": 9910, "\u0120Corpor": 9911, "\u0120contaminated": 9912, "rypt": 9913, "\u0120containers": 9914, "olph": 9915, "\u0120contamination": 9916, "\u0120athletes": 9917, "\u0120twelve": 9918, "\u0120Assessment": 9919, "\u0120Pope": 9920, "\u0120symptom": 9921, "\u0120guarantee": 9922, "oa": 9923, "\u0120gate": 9924, "reshold": 9925, "\u0120Schools": 9926, "isition": 9927, "\u0120stere": 9928, "\u0120partly": 9929, "\u0120suggesting": 9930, "\u0120alongside": 9931, "\u0120divide": 9932, "\u0120Rest": 9933, "\u0120intr": 9934, "ATION": 9935, "National": 9936, "\u0120reh": 9937, "\u0120export": 9938, "iating": 9939, "pdf": 9940, "\u0120managers": 9941, "\u0120collecting": 9942, "\u0120elderly": 9943, "\u0120diagram": 9944, "\u0120consistently": 9945, "Researchers": 9946, "rium": 9947, "\u0120Look": 9948, "acon": 9949, "ighth": 9950, "\u0120valley": 9951, "\u0120speaker": 9952, "da": 9953, "\u0120Ide": 9954, "illance": 9955, "\u0120confident": 9956, "\u0120arrival": 9957, "\u0120Support": 9958, "2000": 9959, "bage": 9960, "angel": 9961, "they": 9962, "\u0120vom": 9963, "\u0120incorporate": 9964, "\u0120fant": 9965, "\u0120treaty": 9966, "87": 9967, "\u0120Op": 9968, "\u0120Mountain": 9969, "\u0120posted": 9970, "\u0120exclud": 9971, "\u0120bull": 9972, "\u0120Os": 9973, "economic": 9974, "\u0120enhanced": 9975, "\u0120myster": 9976, "\u0120libraries": 9977, "Aut": 9978, "\u0120OS": 9979, "\u0120describing": 9980, "\u0120fitness": 9981, "\u0120holy": 9982, "\u0120Allah": 9983, "\u0120Williams": 9984, "\u0120hurt": 9985, "nea": 9986, "\u0120canal": 9987, "\u0120strains": 9988, "\u0120codes": 9989, "\u0120AC": 9990, "enti": 9991, "\u0120therapeutic": 9992, "\u0120suggestions": 9993, "OP": 9994, "\u0120entrance": 9995, "\u0120organism": 9996, "\u0120license": 9997, "urse": 9998, "\u0120Map": 9999, "\u0120exhibition": 10000, "\u0120Log": 10001, "\u0120grams": 10002, "\u0120abundant": 10003, "owered": 10004, "isticated": 10005, "author": 10006, "\u0120tendency": 10007, "\u0120surviv": 10008, "\u0120Writing": 10009, "\u0120rh": 10010, "\u0120Fer": 10011, "Rem": 10012, "ricane": 10013, "\u0120evaluated": 10014, "vae": 10015, "\u0120pale": 10016, "itate": 10017, "\u0120throw": 10018, "\u0120receives": 10019, "\u0120spreading": 10020, "\u0120eaten": 10021, "\u0120Bell": 10022, "\u0120Best": 10023, "\u0120absorbed": 10024, "\u0120phenomena": 10025, "wa": 10026, "Yes": 10027, "efficient": 10028, "\u0120shoes": 10029, "\u0120charges": 10030, "\u0120winds": 10031, "\u0120achieving": 10032, "\u0120Brain": 10033, "\u0120sew": 10034, "\u0120economics": 10035, "\u0120Between": 10036, "\u0120complement": 10037, "\u0120transformation": 10038, "\u0120Rather": 10039, "\u0120dentist": 10040, "\u0120offices": 10041, "\u0120Ancient": 10042, "\u0120liberal": 10043, "\u0120weaken": 10044, "\u0120Clinical": 10045, "enh": 10046, "\u01202022": 10047, "\u0120bron": 10048, "ylon": 10049, "ipation": 10050, "\u0120loud": 10051, "\u0120mutations": 10052, "ker": 10053, "\u0120disk": 10054, "\u0120Mississippi": 10055, "\u0120tough": 10056, "aylor": 10057, "\u0120crimes": 10058, "\u0120conclusions": 10059, "\u0120excav": 10060, "Fig": 10061, "\u0120stabil": 10062, "\u0120healthier": 10063, "\u0120mile": 10064, "\u0120mail": 10065, "\u0120fiction": 10066, "\u0120SP": 10067, "ivate": 10068, "\u0120cave": 10069, "\u0120struck": 10070, "\u0120provisions": 10071, "\u0120seasonal": 10072, "\u0120attributes": 10073, "\u0120unem": 10074, "\u0120submit": 10075, "\u0120Charl": 10076, "orms": 10077, "\u0120pollut": 10078, "\u0120Governor": 10079, "comp": 10080, "\u0120partially": 10081, "\u0120Occ": 10082, "\u0120producers": 10083, "\u0120irrigation": 10084, "berries": 10085, "\u0120Kn": 10086, "healthy": 10087, "\u0120socio": 10088, "develop": 10089, "\u0120Others": 10090, "\u0120ow": 10091, "\u0120busy": 10092, "\u0120likelihood": 10093, "\u0120sectors": 10094, "\u0120consisting": 10095, "\u0120welcome": 10096, "list": 10097, "found": 10098, "ntil": 10099, "TA": 10100, "\u0120appl": 10101, "\u0120humidity": 10102, "\u0120schem": 10103, "\u0120Minnesota": 10104, "\u0120selling": 10105, "imen": 10106, "\u0120Put": 10107, "\u0120trading": 10108, "\u0120CDC": 10109, "ashed": 10110, "duate": 10111, "rics": 10112, "\u0120cig": 10113, "\u0120binding": 10114, "\u0120bell": 10115, "\u0120diagnostic": 10116, "\u0120utilized": 10117, "\u0120PDF": 10118, "\u0120striking": 10119, "ji": 10120, "\u0120repet": 10121, "\u0120Philos": 10122, "\u0120brothers": 10123, "\u0120spine": 10124, "\u0120assessments": 10125, "\u0120adjacent": 10126, "anz": 10127, "\u0120altered": 10128, "\u0120sovere": 10129, "\u0120tower": 10130, "\u0120missions": 10131, "ubble": 10132, "\u0120Story": 10133, "\u0120consuming": 10134, "Will": 10135, "\u0120Self": 10136, "\u0120Mind": 10137, "\u0120accounting": 10138, "\u0120fingers": 10139, "cal": 10140, "step": 10141, "law": 10142, "\u0120Theory": 10143, "\u0120injured": 10144, "\u0120retain": 10145, "\u0120sensory": 10146, "\u0120Ontario": 10147, "\u0120Emperor": 10148, "\u0120Nic": 10149, "\u0120Mother": 10150, "\u0120straw": 10151, "imensional": 10152, "\u0120pose": 10153, "\u0120germ": 10154, "\u0120horizontal": 10155, "\u0120classification": 10156, "2005": 10157, "\u0120tolerance": 10158, "\u0120milit": 10159, "\u0120civilization": 10160, "Che": 10161, "\u01201987": 10162, "\u0120awarded": 10163, "pert": 10164, "ulture": 10165, "\u012085": 10166, "\u0120Jack": 10167, "\u0120somewhere": 10168, "\u0120fibers": 10169, "Cop": 10170, "\u0120Wed": 10171, "\u0120officially": 10172, "fold": 10173, "\u0120aster": 10174, "ctors": 10175, "\u0120pond": 10176, "\u0120Local": 10177, "\u0120platforms": 10178, "\u0120prolong": 10179, "\u0120attended": 10180, "\u0120Carib": 10181, "\u0120punishment": 10182, "orer": 10183, "arks": 10184, "\u0120ninet": 10185, "\u0120partial": 10186, "\u0120stretch": 10187, "Ac": 10188, "\u0120Turn": 10189, "athan": 10190, "\u0120appreciate": 10191, "yes": 10192, "\u0120numer": 10193, "\u0120Script": 10194, "\u0120Prom": 10195, "\u0120administrative": 10196, "\u0120representatives": 10197, "94": 10198, "umns": 10199, "\u0120impr": 10200, "\u0120NOT": 10201, "\u0120improves": 10202, "\u0120Nether": 10203, "\u0120fles": 10204, "\u0120patent": 10205, "\u0120argues": 10206, "\u0120reputation": 10207, "\u0120freely": 10208, "nia": 10209, "erb": 10210, "\u0120kitchen": 10211, "\u0120chamber": 10212, "\u0120pine": 10213, "\u0120Watch": 10214, "\u0120definitions": 10215, "plex": 10216, "\u0120weekly": 10217, "\u0120Practice": 10218, "\u0120Ren": 10219, "\u0120convenient": 10220, "\u0120molecule": 10221, "\u0120physicians": 10222, "\u0120Monday": 10223, "\u0120Wales": 10224, "\u0120promising": 10225, "\u0120pediatric": 10226, "phal": 10227, "\u0120contrad": 10228, "\u0120Afghan": 10229, "\u0120settlers": 10230, "Trans": 10231, "\u0120Isa": 10232, "\u0120affairs": 10233, "\u0120Jersey": 10234, "\u0120misc": 10235, "\u0120Luther": 10236, "\u0120desk": 10237, "dess": 10238, "\u0120Third": 10239, "\u0120Berlin": 10240, "\u0120Neg": 10241, "\u0120connecting": 10242, "\u0120Matthew": 10243, "\u0120integrity": 10244, "\u0120muc": 10245, "\u0120equipped": 10246, "compass": 10247, "\u0120prisoners": 10248, "\u0120orientation": 10249, "\u0120proud": 10250, "\u0120infin": 10251, "\u0120pod": 10252, "\u0120Hyd": 10253, "91": 10254, "inery": 10255, "\u0120Mrs": 10256, "\u0120Club": 10257, "\u0120dying": 10258, "\u0120Hit": 10259, "\u0120developers": 10260, "\u0120flavor": 10261, "\u0120Uk": 10262, "\u0120edges": 10263, "itzer": 10264, "\u0120ES": 10265, "arded": 10266, "obic": 10267, "iances": 10268, "\u0120Clean": 10269, "\u0120fatal": 10270, "\u0120broader": 10271, "\u0120valve": 10272, "\u01201986": 10273, "\u0120bits": 10274, "\u0120velocity": 10275, "\u0120placing": 10276, "ctu": 10277, "\u0120subsequently": 10278, "\u0120wake": 10279, "TP": 10280, "\u0120shares": 10281, "\u0120factory": 10282, "\u0120forever": 10283, "eller": 10284, "\u0120Risk": 10285, "\u0120grace": 10286, "\u0120cheese": 10287, "\u0120assault": 10288, "yard": 10289, "\u0120hol": 10290, "\u0120workshop": 10291, "raid": 10292, "ependence": 10293, "\u0120Buddha": 10294, "Finally": 10295, "\u0120blo": 10296, "\u0120salmon": 10297, "thood": 10298, "CN": 10299, "\u0120Bol": 10300, "grade": 10301, "jud": 10302, "leton": 10303, "\u012064": 10304, "\u0120collapse": 10305, "ques": 10306, "\u0120speakers": 10307, "\u0120onset": 10308, "\u0120prevented": 10309, "\u0120GDP": 10310, "adequ": 10311, "iosity": 10312, "Back": 10313, "83": 10314, "\u0120retail": 10315, "\u0120campus": 10316, "RNA": 10317, "\u0120CN": 10318, "\u0120devoted": 10319, "iac": 10320, "\u0120sacrifice": 10321, "\u0120Sav": 10322, "afe": 10323, "ulsion": 10324, "\u0120password": 10325, "\u0120finance": 10326, "\u0120carbohydrates": 10327, "Ass": 10328, "iy": 10329, "\u0120Dyn": 10330, "formed": 10331, "\u0120discom": 10332, "\u0120courage": 10333, "\u0120circular": 10334, "RS": 10335, "\u0120mira": 10336, "\u0120Should": 10337, "\u0120implementing": 10338, "\u0120mirror": 10339, "burn": 10340, "arios": 10341, "\u0120Aud": 10342, "\u0120borders": 10343, "\u0120residential": 10344, "\u0120Wilson": 10345, "\u0120Teachers": 10346, "utical": 10347, "\u0120seiz": 10348, "acher": 10349, "\u0120gentle": 10350, "aping": 10351, "\u0120Order": 10352, "\u0120tied": 10353, "\u0120symb": 10354, "\u0120Culture": 10355, "\u0120wireless": 10356, "flies": 10357, "igm": 10358, "\u0120potassium": 10359, "\u0120parks": 10360, "\u0120fluor": 10361, "ooked": 10362, "\u0120assistant": 10363, "\u0120aggreg": 10364, "\u0120NY": 10365, "\u0120accidents": 10366, "\u0120intermedi": 10367, "\u0120keys": 10368, "\u0120operational": 10369, "\u0120sophisticated": 10370, "\u0120Hig": 10371, "\u0120vine": 10372, "\u0120LED": 10373, "iously": 10374, "\u0120Prince": 10375, "\u0120dialogue": 10376, "\u0120brush": 10377, "\u0120gran": 10378, "\u01201945": 10379, "\u0120por": 10380, "\u0120exch": 10381, "\u0120predomin": 10382, "TER": 10383, "estone": 10384, "\u0120McC": 10385, "\u0120infectious": 10386, "atories": 10387, "\u0120Ah": 10388, "\u0120CS": 10389, "\u0120algae": 10390, "\u0120Still": 10391, "ypically": 10392, "\u0120Reserve": 10393, "\u0120associations": 10394, "\u0120participating": 10395, "84": 10396, "\u0120pest": 10397, "\u0120priest": 10398, "\u0120attacked": 10399, "\u0120bullying": 10400, "\u0120fertilizer": 10401, "\u0120malaria": 10402, "\u0120Hot": 10403, "early": 10404, "\u0120shelter": 10405, "Through": 10406, "800": 10407, "Cal": 10408, "\u0120rent": 10409, "\u0120Volume": 10410, "cor": 10411, "ussion": 10412, "\u0120Computer": 10413, "\u0120Jones": 10414, "\u0120loan": 10415, "\u0120Applic": 10416, "\u0120washing": 10417, "\u0120sperm": 10418, "\u0120deliber": 10419,
[...]
